e </w>
n </w>
e r
s </w>
t </w>
e n</w>
c h
t h
, </w>
d </w>
i n
e n
u n
er </w>
a n
t i
. </w>
th e</w>
o r
d i
a l
r e
i ch
o n</w>
g </w>
i s
a r
y </w>
o n
i n</w>
o </w>
e s</w>
u r
f </w>
e s
e l
i t
d er</w>
m </w>
di e</w>
s t
w i
a u
o f</w>
r </w>
t o</w>
s i
e in
a t
an d</w>
r o
d a
i s</w>
a t</w>
ich </w>
o m
l i
e i
un d</w>
d en</w>
s ch
o p
a </w>
e d</w>
un g</w>
a ti
in g</w>
m en
g e
a n</w>
b e
l </w>
z u
f or
g en</w>
l e
r a
h a
ch </w>
p o
d e
al </w>
o u
th at</w>
o l
i t</w>
v er
t e</w>
r i
u s
ur op
d er
om m
t en</w>
v e</w>
t er
a b
p ro
n o
E urop
f ü
w h
l e</w>
s e
zu </w>
a s
a s</w>
t s</w>
l y</w>
d en
c on
g e</w>
men t</w>
n e
h r
ich t</w>
s p
is ch
k </w>
for </w>
a c
e m
f f
s u
I </w>
w e</w>
ti on</w>
c i
ur </w>
di es
ati on</w>
is t</w>
g en
th is</w>
w er
b e</w>
v on</w>
fü r</w>
d e</w>
t z
a m
i l
wi r</w>
ein e</w>
po s
omm is
s s</w>
da s</w>
si on</w>
g i
l a
t e
v i
d es</w>
w e
p or
b er</w>
V er
ei t</w>
th </w>
ar e</w>
c e</w>
l ich
da ss</w>
au f</w>
U n
ar </w>
s o</w>
t r
l o
w </w>
m a
b er
b en</w>
no t</w>
c o
l d</w>
er e</w>
n icht</w>
un gen</w>
l ich</w>
- </w>
q u
on s</w>
g es
s e</w>
e h
u l
m it</w>
ommis sion</w>
ha ve</w>
i m
e d
s h
i on</w>
isch en</w>
si den
or </w>
e m</w>
; </w>
g h
wer den</w>
P ar
t a
ou ld</w>
i m</w>
wi r
s o
e an</w>
un g
a h
z i
wi th</w>
e x
Europ ean</w>
s t</w>
a g
an d
s en</w>
el </w>
it y</w>
e c
de m</w>
e it
wh ich</w>
en t
el l
l l</w>
ä n
w or
R e
al l</w>
e in</w>
po li
S t
c om
a f
b es
t er</w>
& a
&a pos
m en</w>
u m</w>
au ch</w>
b u
k e</w>
b y</w>
d u
at e</w>
m e</w>
i c
s in
Un ion</w>
wi ll</w>
ung s
n en</w>
H er
s ol
siden t</w>
p re
i r
o ur</w>
A n
ati on
t ra
a ch
ß </w>
r u
m e
r ä
I n
w en
ha s</w>
h al
ei </w>
a d
s er
B er
p ar
c k
s ti
ü r
al s</w>
ü ber</w>
0 0
t o
v or
i e
t en
m us
Europ ä
a p
w as</w>
wi e</w>
au s
m o
s ich</w>
E n
sch af
p </w>
al l
t ed</w>
M it
g r
g t</w>
B e
ha ben</w>
wir d</w>
i e</w>
sin d</w>
E U
M r</w>
P ro
u m
f in
d ar
th er</w>
al so</w>
por t</w>
at es</w>
g er
si e</w>
s a
en t</w>
p e
g an
z </w>
( </w>
ti c
) </w>
ein er</w>
m ö
men ts</w>
C ommission</w>
t u
t ri
ä r
h at</w>
a ch</w>
P re
S ch
ur e</w>
ou t</w>
at en</w>
: </w>
ein en</w>
A us
r au
st a
ch te</w>
h o
ti on
t s
K ommission</w>
co un
ch en</w>
g el
li e
in ter
h e
on e</w>
A r
c y</w>
E r
an t</w>
h i
al ly</w>
d s</w>
Her r</w>
em ber</w>
V or
o b
isch e</w>
bu t</w>
ö n
o t
u s</w>
u t
d o
w ould</w>
m or
li a
P rä
k t</w>
z ur</w>
dies e</w>
da ß</w>
p er
&apos ;</w>
e t
is e</w>
b ei</w>
th ere</w>
g o
ge h
Par la
k en</w>
d ur
an n</w>
ab le</w>
es s</w>
lich en</w>
it s</w>
w el
m in
m m
a hr
e y</w>
g re
ti ve</w>
f ro
au s</w>
ti ons</w>
0 </w>
sh ould</w>
g er</w>
EU </w>
is h
ü s
i er
n ation
be en</w>
r it
l u
z w
Par lia
fro m</w>
Europä ischen</w>
s en
k ön
Mit g
mus t</w>
Pre sident</w>
? </w>
l en</w>
ou </w>
g u
der n</w>
p l
f i
por t
be t
Parlia ment</w>
s am
h eit</w>
d es
En t
2 00
b en
we it
F ra
sch en</w>
un s</w>
au f
y ou</w>
j e
s el
ci al</w>
b le
v o
an der
un d
ich ti
er s</w>
A u
ver y</w>
poli ti
in g
omm en</w>
ati ons</w>
st r
&apos ;
or d
un ter
re c
g ro
v er</w>
st ell
&apos; s</w>
sp e
t ei
ch t</w>
E in
f ol
es e</w>
m an
k eit</w>
A b
Mitg li
M ember</w>
ö r
i ti
C o
a m</w>
w a
mor e</w>
c an</w>
wen n</w>
en d</w>
g ra
St ates</w>
mö chte</w>
ich t
i hr
se h
dies er</w>
o h
üs sen</w>
le g
k l
es t
w ar
e t</w>
lich e</w>
for m
be it
ü n
li c
k ing</w>
m ar
n ach</w>
t re
ar y</w>
u p</w>
z e
v el
re port</w>
v en</w>
no ch</w>
fü hr
v or</w>
m üssen</w>
G r
dies em</w>
Mitgli ed
er n</w>
it ä
di es</w>
con c
er en</w>
s om
tz t</w>
G e
in c
si b
th ese</w>
gh t</w>
an ce</w>
w ur
sta aten</w>
! </w>
f re
di s
ge m
men t
re sp
zu m</w>
r in
n ah
kön nen</w>
m u
th ey</w>
l in
qu ot
pro pos
h in
schaf t</w>
f ac
no w</w>
g n
er t</w>
li ke</w>
Prä sident</w>
for e</w>
th ei
G es
F rau
K on
S ie</w>
ic </w>
t ro
M a
thei r</w>
p f
ab er</w>
k ann</w>
th er
c es</w>
st en</w>
& quot
&quot ;</w>
Mitglied staaten</w>
su p
m it
tz en</w>
im port
wh at</w>
du c
o der</w>
d o</w>
Europ e</w>
a k
er ung</w>
o ther</w>
c omm
si on
a re
Ber icht</w>
/ </w>
dur ch</w>
n ur</w>
ec t</w>
en s</w>
re g
au se</w>
st at
ü ber
b t</w>
v es</w>
as s
ci l</w>
e urop
Co un
i f</w>
se in</w>
f t</w>
m i
es s
F or
b o
Coun cil</w>
pre s
gh </w>
ne h
ne u
f er
ac c
ou s</w>
Parla ment</w>
te t</w>
re s</w>
Un ter
t ung</w>
t ing</w>
ch e</w>
p le
w ei
lie ß
al en</w>
ein i
p u
m y</w>
l ung</w>
sol l
st ru
s y
ü ck
europ ä
sti tu
k on
b el
ff en</w>
m s</w>
w ä
p ri
e p
ag re
d ing</w>
st ü
dies es</w>
l ä
C omm
y e
m an</w>
sch ließ
t el
ges ch
wor k</w>
m on
ein em</w>
vel op
en ce</w>
c ause</w>
f en</w>
tz ung</w>
w ichti
ge b
v ol
g ung</w>
r an
h and
t ur
al is
Re gi
b </w>
l an
tri es</w>
eit en</w>
M en
n ung</w>
wi ck
r ati
seh r</w>
coun tries</w>
h er
e ff
s on
k ommen</w>
on der
un s
U m
ab out</w>
o d</w>
e f
er n
un ser
da </w>
vi el
e g
be cause</w>
at ed</w>
wh o</w>
B es
eh en</w>
for der
ge gen</w>
st ri
mus s</w>
ich er
m er</w>
tr an
D i
de velop
pe op
l as
Vor sch
ne ed</w>
import ant</w>
ch an
ag a
in n
e ment</w>
i h
ther e
5 </w>
al e</w>
i el
se c
ati ve</w>
Z us
ein es</w>
qu es
Frau </w>
r is
poli cy</w>
er i
som e</w>
wi th
b eit</w>
il ity</w>
mar k
itä t</w>
eh r</w>
as e</w>
h er</w>
po in
a ge</w>
Europä ische</w>
s it
op er
nation al</w>
d ung</w>
fin an
l t</w>
sch e</w>
i </w>
el y</w>
c le
peop le</w>
2 </w>
ti me</w>
u te</w>
an s</w>
v en
gh ts</w>
su ch</w>
re ch
on ly</w>
ne w</w>
m is
t or
el t</w>
al le</w>
bes onder
u ation</w>
Europ a</w>
re l
P o
there fore</w>
i d</w>
sup port</w>
t n
an n
v ed</w>
en s
t wor
ing s</w>
f a
w n</w>
f ra
le ich
ie ve</w>
at ing</w>
con om
d ed</w>
th o
h e</w>
is su
ommis sion
hi er</w>
pro ble
gra m
t in
r on
Her r
b lic
n o</w>
an k</w>
g keit</w>
in s
c k</w>
su b
ver n
sib le</w>
in to</w>
Zus am
Zusam men
sy st
u e</w>
ti gen</w>
tic al</w>
dies en</w>
1 </w>
Z u
com e</w>
ish </w>
ahr en</w>
e w</w>
f un
st än
ge w
ed o
den en</w>
m er
re gi
c </w>
hal ten</w>
B ür
tic ul
f ir
de c
stell en</w>
t y</w>
– </w>
di ff
at s
Ent wick
un ity</w>
ber eit
ma de</w>
wir k
ar i
j us
en den</w>
par ticul
po si
Pro ble
resp on
wh en</w>
Ä n
we en</w>
ä ch
or t</w>
bet ween</w>
an y</w>
Än der
ol le
w ar</w>
te e</w>
us s
In ter
tr y</w>
wa y</w>
ihr e</w>
e conom
a si
uns ere</w>
wur de</w>
3 </w>
l and</w>
politi k</w>
ta ke</w>
l au
man y</w>
t schaf
sol u
L än
ti g</w>
M in
ge t</w>
ß nah
m ehr</w>
ch n
ma ke</w>
ein g</w>
de mo
k te</w>
ä l
ti mm
pro c
n e</w>
ä m
ar s</w>
p le</w>
Ar beit
e hr
o ff
sam e</w>
w är
v is
7 </w>
tr ä
mö g
em p
1 9
zw ischen</w>
neh men</w>
il li
% </w>
Ber ich
th ing</w>
gem ein
wer e</w>
on g</w>
hal b</w>
ges t
p a
k eine</w>
da mit</w>
w o</w>
i en</w>
h ar
gan is
it tee</w>
in st</w>
tho se</w>
v ing</w>
ti es</w>
Fra ge</w>
k s</w>
p en
ich en</w>
x t</w>
tion en</w>
co ur
k tion</w>
he ute</w>
Ber e
aga inst</w>
C ommission
ungs an
ge ben</w>
w ür
es t</w>
Au f
S ta
b ei
di rec
gi bt</w>
pro duc
bel ieve</w>
S o
R at</w>
J ah
c ri
da y</w>
ri ghts</w>
gro ß
fac t</w>
A l
ßnah men</w>
b ar
T h
tra g</w>
gel e
b rau
c tion</w>
sa y</w>
en z
men d
un der
f e</w>
ar ly</w>
ommis s
m at
ol o
iti es</w>
re as
ander en</w>
m ich</w>
r ü
Commission er</w>
H au
us s</w>
lo w
Gr und
D e
en er
do es</w>
com p
Ü ber
unter stü
ation en</w>
l ei
la g</w>
8 </w>
n u
re ad
or der</w>
t or</w>
c er
poli tical</w>
K ommiss
Herr n</w>
F in
ti ge</w>
b eing</w>
so cial</w>
un kt</w>
th an</w>
a d</w>
o k
son dern</w>
a ff
am en</w>
it e</w>
k ti
th em</w>
G em
h um
Re ch
f o
we ver</w>
c re
ab l
soll ten</w>
en de</w>
W ir
is l
z ei
l än
lo s
h ere</w>
ro u
th in
c an
wei l</w>
Parla ments</w>
europä ischen</w>
u res</w>
c c
ap p
ri e
st e</w>
ä u
j ec
Comm ittee</w>
de b
ap pro
wh ere</w>
de t</w>
conc ern
is t
ri f
Gem ein
ho wever</w>
d el
an g</w>
coun try</w>
ze u
Aus sch
y s</w>
ha be</w>
propos al</w>
da her</w>
mo st</w>
ar d</w>
un ter</w>
g leich
edo ch</w>
h el
j edoch</w>
n at
i r</w>
bu d
e ben
d an
de ut
t ly</w>
g y</w>
b i
poin t</w>
to o</w>
Po li
g es</w>
wä hr
ier ung</w>
d ra
f all
geh en</w>
w oh
ti z
b il
M ar
develop ment</w>
ho w</w>
ou gh</w>
vo m</w>
sch ei
w ant</w>
l ar
ci tiz
t el</w>
st an
je tzt</w>
cle ar</w>
K o
u p
pos sible</w>
ment al</w>
R icht
ar beit
so zi
an twor
bereit s</w>
on en</w>
sch en
jus t</w>
solu tion</w>
cer ta
g ab
vi ron
inc lu
den n</w>
u tz
ac e</w>
wi e
ye ars</w>
f u
ge gen
sti mm
h nen</w>
c ould</w>
is se</w>
D em
y ing</w>
t al
mark et</w>
Prä siden
eini ge</w>
Fin an
ques tion</w>
st e
e tz
econom ic</w>
ö l
read y</w>
b asi
for m</w>
ord nung</w>
geh t</w>
blic </w>
so wie</w>
b r
dec is
oper ation</w>
s at
el le</w>
ell en</w>
i el</w>
we ise</w>
sa gen</w>
p p
ex am
besonder e</w>
st and
vi ew</w>
mu ch</w>
leg isl
f as
im mer</w>
sp ar
gan z</w>
t ure</w>
’ </w>
gen t
c ul
er re
par t</w>
soll te</w>
p ra
me as
con su
f e
ra p
En er
d ann</w>
w er</w>
en tr
g s</w>
ti m
le tz
sh al
h en</w>
is m</w>
fir st</w>
ne ed
e ven</w>
thin k</w>
lich keit</w>
a mend
gen ommen</w>
lo w</w>
t schaft</w>
f ur
S tr
y our</w>
Änder ungsan
sch </w>
S icher
Ma ßnahmen</w>
6 </w>
unser er</w>
pro te
sch ie
ber s</w>
2 0
9 </w>
t es</w>
m p
W e
h eit
lo b
reg ul
t lichen</w>
lin ie</w>
pro vi
l ungen</w>
M r
gram me</w>
in form
d re
da zu</w>
b in</w>
gen er
eh t</w>
pu blic</w>
com pe
re chen</w>
th en</w>
Men schen</w>
ac k</w>
R ah
ar beit</w>
T re
4 </w>
issu e</w>
t wo</w>
EU -
ar ds</w>
wh y</w>
en z</w>
m al</w>
th rou
f ic
woh l</w>
Vorsch lag</w>
m us</w>
Bes ch
ex c
te chn
Hau shal
S it
can not</w>
deb ate</w>
diff er
sit uation</w>
le v
en viron
con tin
f ul
citiz ens</w>
in stitu
o ur
ye ar</w>
ac tion</w>
M on
go vern
w ol
finan cial</w>
st ehen</w>
O r
sh i
al i
al ready</w>
im ple
ad op
at e
19 9
meas ures</w>
gi e</w>
ß er
b ie
H and
min is
wel l</w>
ff ent
Th em
kl är
si ons</w>
las sen</w>
Entwick lung</w>
wur den</w>
au </w>
se tzung</w>
ha d</w>
ins besondere</w>
p rin
n ach
se tzen</w>
or ganis
Men schen
is p
im pro
m eine</w>
re su
to day</w>
F re
Um wel
K olle
us e</w>
führ en</w>
Mr s</w>
du stri
nation alen</w>
con si
g ten</w>
bes ser
de u
o ver</w>
al le
al ity</w>
ta ken</w>
st and</w>
hal f</w>
k en
gen en</w>
se e</w>
j ect</w>
is sen</w>
in e</w>
G ro
agre ement</w>
wichti g</w>
go od</w>
ma chen</w>
neu en</w>
wir tschaf
bes te
el e
x </w>
dis c
R </w>
eff ec
weit er
z ah
particul ar</w>
ri ght</w>
hum an</w>
Fra ktion</w>
s ich
h op
c ur
f ut
mi r</w>
ter s</w>
ne c
lich er</w>
fut ure</w>
gest ell
syst em
do ch</w>
be wer
re d</w>
at eg
trä ge</w>
demo c
I hnen</w>
h is</w>
E ur
ö s
with out</w>
st ar
en g
f ä
T ei
em bers</w>
sel b
as ed</w>
Poli ti
dur ch
S </w>
ent ly</w>
d r
are a</w>
is ten</w>
h ä
mit tel
et y</w>
v al
posi tion</w>
ander e</w>
so ci
r or
st är
so ur
v </w>
wen i
M e
da m</w>
at er</w>
k eiten</w>
ser vi
as t</w>
Län der</w>
co operation</w>
per i
h t</w>
with in</w>
cour se</w>
l ungs
c ase</w>
tro l
or ity</w>
sti ll</w>
por te
comm on</w>
k now</w>
en ti
be g
ter stat
in iti
O </w>
C on
Jah r</w>
M ein
i ci
m einer</w>
ac t</w>
w al
all en</w>
Ar beit</w>
h eiten</w>
i li
I ch</w>
da für</w>
des halb</w>
vi el</w>
f ri
chan ge</w>
Min is
stän di
n t</w>
ab ility</w>
Kommiss ar</w>
ä f
f est
Bür ger</w>
ou se</w>
o wn</w>
dar auf</w>
be fore</w>
ach e</w>
sp ra
vo te</w>
ass ung</w>
I s
a ir
c al</w>
sat z</w>
exam ple</w>
or i
N amen</w>
por ts</w>
li dar
Bere ich</w>
g lich</w>
s icher
rap porte
re qu
G er
al o
inter national</w>
gestell t</w>
ob </w>
leg al</w>
n te</w>
in nen</w>
Berich terstat
h in</w>
b ri
ze ich
b al
th ank</w>
z ur
prin ci
g lau
an i
h än
or ities</w>
Zusammen arbeit</w>
lo y
fall s</w>
b rin
me ans</w>
gen heit</w>
nat ür
be tri
f ahren</w>
be d
L and</w>
proble m</w>
Unter stü
i ce</w>
k tion
g lob
- 0
bes ch
sp rechen</w>
cur r
n um
in v
L is
t bewer
resp ect</w>
h ö
Rech ts
d ru
Comm unity</w>
Kolle gen</w>
ff t</w>
ich ts</w>
be half</w>
h ol
pres ent
de m
throu gh</w>
äm pf
ci es</w>
w es
Rah men</w>
oh ne</w>
F isch
T a
la ge</w>
ti n</w>
wen di
nec ess
der ung</w>
si gn
Pre siden
Richt linie</w>
unterstü tzen</w>
las t</w>
gr ation</w>
shi p</w>
k ämpf
ihr er</w>
ens ure</w>
c all
un der</w>
t lich</w>
ur ity</w>
Unterstü tzung</w>
p rä
at te</w>
ou s
ac k
rapporte ur</w>
bud get</w>
ex p
stru c
at y</w>
b is</w>
compe ti
lev el</w>
syst em</w>
a st
for t
ö ß
Bür ger
wür de</w>
la gen</w>
g o</w>
B eit
tur al</w>
un i
ener gy</w>
ac coun
p unkt</w>
wor ld</w>
hop e</w>
ge ment</w>
b re
su cc
sti m
k om
fur ther</w>
ne xt</w>
J ahren</w>
se con
la w</w>
wol len</w>
e ch
tion al</w>
t sch
ma y</w>
brau ch
I hr
wor den</w>
in vol
mat ter</w>
s s
ö ffent
ne t</w>
P ri
are as</w>
gre at</w>
e qu
L i
gen den</w>
pu t</w>
om en</w>
Sta aten</w>
F all</w>
need s</w>
fol low
S p
s icht</w>
natür lich</w>
mu ß</w>
est abl
proc ess</w>
a ffen</w>
op port
geh ör
f t
dar über</w>
proble ms</w>
pl ace</w>
re solution</w>
n i
Proble m</w>
h ör
tic </w>
führ t</w>
E C
wär e</w>
ma j
it ed</w>
som e
et was</w>
in di
öl k
b ar</w>
vor sch
sa id</w>
pro gramme</w>
f ar</w>
viel e</w>
m il
sel f</w>
emp loy
al th</w>
s or
ti al</w>
th re
Re cht</w>
c u
el n</w>
as k</w>
is en</w>
ob jec
k ur
tri bu
sol l</w>
acc ep
el d</w>
St ra
re chte</w>
zw ei</w>
viel en</w>
e ments</w>
Ent schließ
e tzt</w>
Dem ok
sch on</w>
necess ary</w>
s ä
L ös
th ough</w>
es en</w>
conc lu
gra mm
gen d</w>
nu n</w>
Gro up</w>
tra de</w>
er forder
pres ent</w>
me di
Ener gi
ß en</w>
Is ra
M ö
d lich</w>
H ouse</w>
n er</w>
europä ische</w>
l ess</w>
amend ments</w>
ven tion</w>
k o
W et
b lei
zu g</w>
Them a</w>
ihr en</w>
zu sam
el l</w>
rit t</w>
politi schen</w>
sib ility</w>
Mö g
ier en</w>
e ben</w>
ein f
Ver brauch
z weit
st re
f ahr
le t</w>
z ü
l es</w>
fin den</w>
se t</w>
nah me</w>
Z eit
c or
j o
te xt</w>
s eine</w>
bo th</w>
at er
st er</w>
ges etzt</w>
Wet tbewer
te u
at ten
t liche</w>
s af
betri fft</w>
legisl ation</w>
in ten
k re
k un
dar f</w>
führ ung</w>
Mit tel</w>
n al</w>
k ey</w>
Tre aty</w>
Ab stimm
ti ce</w>
gre i
in de
alle m</w>
lä ge</w>
P </w>
sec urity</w>
ten s</w>
be gr
spe ci
neu e</w>
ff e</w>
1 0</w>
ß e</w>
heit s
hä t
s einer</w>
ge ord
as es</w>
wirk lich</w>
en en</w>
in ing</w>
in ed</w>
ma in</w>
au th
Sicher heit</w>
ün f
da von</w>
in s</w>
wa ys</w>
L age</w>
b s
Z eit</w>
w omen</w>
in te
St and
us ed</w>
ord in
ro le</w>
is mus</w>
ati ven</w>
seh en</w>
Mein ung</w>
zi eh
p rü
issu es</w>
Demok rati
ti ert</w>
h ang</w>
op in
finan zi
sec tor</w>
l er</w>
ha p
2 0</w>
be deu
R ol
en cy</w>
inform ation</w>
n isse</w>
ex ten
b it
direc tive</w>
illi on</w>
ei g
el ec
00 </w>
particul arly</w>
ag t</w>
re co
H in
schließ lich</w>
w eit</w>
rit te</w>
k rati
gi ve</w>
Län dern</w>
ar ch</w>
hi gh
S y
ter n</w>
Ges ch
isch er</w>
differ ent</w>
d ly</w>
wh e
Ma dam</w>
r icht
b le</w>
an ge
ä hr
ti g
ation s
z un
gi ven</w>
techn olo
In form
mög lich</w>
A </w>
agre e</w>
B eh
com ple
politi sche</w>
U </w>
es sen
Q u
z en</w>
tra gen</w>
Frau en</w>
certa in</w>
tor s</w>
utz </w>
an ges
e k
go ti
Fra gen</w>
sour ces</w>
tran s
consi der
ul es</w>
C hin
propos als</w>
a v
z e</w>
ein mal</w>
ef for
Präsiden tin</w>
basi s</w>
inc reas
sam en</w>
Rol le</w>
Ent schei
M embers</w>
ra cy</w>
zw ar</w>
gan g</w>
E </w>
währ end</w>
mer k
se qu
num ber</w>
R ates</w>
J ahr
le men</w>
R es
e ver
ti eren</w>
fä hi
con tribu
ti k
prote ction</w>
bes timm
gr öß
Zusammen hang</w>
at ely</w>
For sch
go ing</w>
z eit</w>
l ong</w>
gele gt</w>
w ach
D ie</w>
h il
war ds</w>
sin ce</w>
tz e</w>
tei l</w>
gent lemen</w>
sa m</w>
o f
T ur
c ap
zur ück
f ish
geord ne
employ ment</w>
brin gen</w>
opport unity</w>
ne goti
V ol
ß t</w>
whe ther</w>
kön nte</w>
pro gre
d one</w>
wel che</w>
con di
i de
i ons</w>
w ish</w>
str eng
accoun t</w>
reg ard</w>
Pro du
f ic</w>
t ä
dru ck</w>
ver schie
200 0</w>
tre ten</w>
th ir
Proble me</w>
ou t
G o
f äl
f l
no t
Regi erung</w>
lo o
c ar
par tn
vi ol
i l</w>
stand ards</w>
s m
ter m</w>
fer ence</w>
F ol
äm lich</w>
unser en</w>
glau be</w>
or y</w>
o ver
ges am
b ased</w>
hand elt</w>
decis ion</w>
re i
vor gesch
a de</w>
ter ms</w>
B ed
i gen</w>
d ings</w>
t able</w>
su ff
p h
Ges und
Mit tel
f le
stell t</w>
n ämlich</w>
k ra
ein zu
letz ten</w>
to wards</w>
al er</w>
w s</w>
s ichti
ati ves</w>
N ach
i zi
u es</w>
he alth</w>
uss es</w>
st ate</w>
st o
rif ten</w>
w issen</w>
selb st</w>
y p
servi ces</w>
Wir tschaf
Be isp
u b
h ei
contin ue</w>
diff ic
ser i
deut ung</w>
G re
ti gt</w>
Ab geordne
air s</w>
ver b
Be deutung</w>
los sen</w>
gram m</w>
ess es</w>
sch i
dar an</w>
k ed</w>
re ally</w>
J u
la dies</w>
ier t</w>
si ve</w>
de fin
requ i
cri min
Lös ung</w>
se its</w>
kom men
opin ion</w>
Arbeit s
regi on
Aus spra
str ateg
T ats
c ed</w>
diffic ul
ze p
N </w>
Un ited</w>
e th
stell ung</w>
Er geb
au en</w>
k ann
gro w
aga in</w>
Ge bie
sp ort</w>
s eit</w>
ie der
el s
Wirtschaf ts
st eht</w>
d y</w>
en ces</w>
k ten</w>
fu l</w>
er te</w>
me work</w>
sh all</w>
rit eri
k no
af ter</w>
Ver antwor
kl ar</w>
re se
Finan z
pf lich
k tionen</w>
at t
bes s
propos ed</w>
U S
For tsch
l en
Unter nehmen</w>
tran spar
Sit uation</w>
ri cul
al ität</w>
pres s
ate gie</w>
ma cht</w>
wi l
rati c</w>
k ehr
Pro to
vis ion</w>
gegen über</w>
t -
pro gramm
Sy st
n is</w>
Ges etz
B ei
N o
we isen</w>
pra c
L and
wie der</w>
Z iel</w>
fi ed</w>
is ch</w>
wen dung</w>
Inter es
ges agt</w>
me et
f li
ben e</w>
Haushal ts
k ri
Tats ache</w>
ti ci
dre i</w>
So zi
in ly</w>
re duc
M i
ar an
a k</w>
sch affen</w>
We ise</w>
comm it
5 0</w>
tu n</w>
Tei l</w>
el s</w>
p ur
environ mental</w>
poli cies</w>
D is
j en
n äch
for war
is ti
r en
ti gung</w>
Abstimm ung</w>
P er
import ance</w>
v ari
si mp
In iti
kun ft</w>
f ew</w>
Gr ün
W elt</w>
au ßer
princi ple</w>
str y</w>
ge t
du stry</w>
progre ss</w>
e very</w>
z el
Fisch er
ge führt</w>
ag ricul
not wendi
ol e</w>
ous ly</w>
c olle
resu lt</w>
sub ject</w>
Jahr e</w>
thre e</w>
k omm
d ür
ver s
l on
A m
Ver hand
er seits</w>
ut es</w>
T er
l ed</w>
c ris
inter es
ma king</w>
or s</w>
Di en
reco gn
cle arly</w>
appro ach</w>
war en</w>
b ack</w>
sch ein
r ise</w>
s c
com ing</w>
Vorsch läge</w>
adop ted</w>
eig n</w>
ger ade</w>
a id</w>
St ate</w>
P e
ich ten</w>
imple ment
itä ten</w>
zi ehen</w>
kämpf ung</w>
blic k</w>
u c
T ran
In stitu
forder t</w>
sel ves</w>
f el
Ar tik
ach ie
K ol
Änderungsan träge</w>
qu ite</w>
on ds</w>
st u
ä h
eini gen</w>
establ ish
her vor
e v
Par tn
le gen</w>
re sources</w>
gu t</w>
begr ü
c all</w>
m ers</w>
com b
M illi
fre i
K om
it self</w>
al y
ter ror
su sta
f ör
l ab
men te</w>
concern ed</w>
aus sch
Um setzung</w>
per s
si de</w>
a il
gr und</w>
groß en</w>
ti ves</w>
enz en</w>
en th
sch n
Re gel
on -
r ules</w>
n am
g a
ec ts</w>
beste ht</w>
and s</w>
zi erung</w>
g s
vo ted</w>
Isra el</w>
Ausspra che</w>
brau chen</w>
democ racy</w>
r än
condi tions</w>
ac tu
f all</w>
Ver besser
vel y</w>
ab il
institu tions</w>
h au
pro mo
ih r</w>
atten tion</w>
on ce</w>
er halten</w>
ra ther</w>
In dustri
Regi er
re gel
Politi k</w>
ger e
vari ous</w>
fun da
gen da</w>
aus ge
F ör
re ich
Ver b
proc ed
dur ing</w>
n or
N or
l it
ta king</w>
pro du
der s</w>
i le</w>
dan ken</w>
ß en
pre v
le a
ent schei
re cht</w>
g in
c lo
Europ as</w>
k t
Gemein schaft</w>
hel p</w>
Z iel
do wn</w>
it al</w>
inclu ding</w>
ever y
op en
arbeit en</w>
es pe
y et</w>
r ichti
ent wick
wä h
P al
Go vern
C har
Or ganis
im p
W ir</w>
gen de</w>
all er
an zu
stim men</w>
mil it
sp rä
i gn
P unkt</w>
R i
o th
Demokrati e</w>
system s</w>
un de</w>
k e
con f
Chin a</w>
ho ffe</w>
gener al</w>
g ri
c t</w>
ob wohl</w>
Sozi al
rese arch</w>
is ed</w>
Kon trol
B ar
Me di
f ar
e ur
produc tion</w>
respon sibility</w>
S teu
ci ally</w>
A spe
De b
acc ess</w>
bei m</w>
competi tion</w>
k ünf
k tur
i z
hän gi
Artik el</w>
follow ing</w>
an ts</w>
ges timm
programm es</w>
An sicht</w>
B em
er ken
i ly</w>
fra ge</w>
weit ere</w>
secon d</w>
lin e</w>
fa v
ful ly</w>
gro up</w>
ben ef
bet ter</w>
susta in
re present
A fri
den ce</w>
icht lich</w>
k er</w>
am p
we gen</w>
der t</w>
fol gt</w>
k es</w>
wel come</w>
inn en
E bene</w>
R us
con stitu
L eben
k an
cris is</w>
besonder s</w>
o -
reg ar
k ol
as p
K in
d ou
inc re
o c
demo krati
ü h
e ach</w>
B al
Verantwor tung</w>
Zu kunft</w>
Beisp iel</w>
tro tz
it en</w>
tici p
sozi alen</w>
espe cially</w>
ent sp
i tion</w>
en d
forwar d</w>
gestimm t</w>
some thing</w>
dar in</w>
An gele
disc us
schaf ts
il t</w>
Aussch uss</w>
pri v
Presiden cy</w>
g ar</w>
am ili
gen u
Eur o</w>
f ung</w>
zusam men
us in
t ungs
fav our</w>
Berichterstat ter</w>
n ing</w>
so lidar
regul ation</w>
sh o
app lic
c ases</w>
ex is
Str ategie</w>
L e
me chan
Menschen rechte</w>
th ings</w>
ch ten</w>
le icht</w>
es sion</w>
t om
lie gt</w>
Ta ges
effor ts</w>
at s</w>
ch il
er ten</w>
ver stän
p la
Ar t</w>
ür k
Rus si
fra mework</w>
fort un
n ten</w>
qu ality</w>
alis ation</w>
vi du
gr und
groß e</w>
th em
wirtschaf tlichen</w>
s ab
e -
g ing</w>
er klär
ück sichti
lich keiten</w>
inde ed</w>
weiter hin</w>
re ports</w>
com men
negoti ations</w>
ein bar
fü l
fre e</w>
gu e</w>
fin ally</w>
weni ger</w>
b ur
alis ierung</w>
t ungen</w>
an other</w>
al ten</w>
A ff
ru pp
er zi
ger n</w>
acc ord
An twor
w ün
v ement</w>
wor king</w>
u al</w>
Umwel t
environ ment</w>
in dustry</w>
Mög lichkeit</w>
ad minis
m illion</w>
wh ile</w>
y o
stru ment</w>
gab e</w>
li m
des sen</w>
fin d</w>
ver su
rä f
aller dings</w>
l ing</w>
wh ole</w>
ul ation</w>
För derung</w>
nation ale</w>
stat t</w>
ell schaft</w>
ver antwor
sp ec
ad v
Ab kommen</w>
und ing</w>
i a</w>
sh </w>
200 5</w>
all er</w>
ver fü
den ke</w>
ha ving</w>
Ge gen
g le
gemein same</w>
C O
d ate</w>
den t</w>
Minis ter</w>
Ver eini
Pro je
o cc
pro chen</w>
Sch l
al t</w>
z ung</w>
k ein</w>
Aus druck</w>
are d</w>
al ways</w>
provi de</w>
lä s
at ten</w>
con tro
L an
oth ers</w>
Entwick lungs
Kommiss ar
av ail
g ilt</w>
I ra
o gen</w>
Kol leg
tei l
Verhand lungen</w>
Tages ordnung</w>
vol l
soci ety</w>
D ur
t a</w>
for ce</w>
m ä
Änderungsan trag</w>
saf ety</w>
EU R</w>
tran sport</w>
Grund lage</w>
tra gs</w>
Besch äf
k u
indi vidu
Mitg lie
E m
wi eri
E -
uns er</w>
Sch utz</w>
ing ungen</w>
geb ra
ih nen</w>
Ver ordnung</w>
gab en</w>
un den</w>
B innen
sm all</w>
Menschen rech
h an
incre ase</w>
un kte</w>
ab hängi
pos e</w>
b usin
per son
Aussch usses</w>
zieh ungen</w>
ü hr
inter nal</w>
Hin blick</w>
ti schen</w>
j u
fi eld</w>
wer de</w>
M il
bet re
gro up
dür fen</w>
k ung</w>
simp ly</w>
st ates</w>
ge währ
inter nationalen</w>
Proto kol
Ihr e</w>
erre ichen</w>
an s
L u
de al</w>
s ur
F un
resu l
W or
al though</w>
Aff airs</w>
fin det</w>
le ist
eff ici
dar um</w>
adminis tr
re s
agre ements</w>
Regi onen</w>
Be zug</w>
di d</w>
Gr und</w>
d ort</w>
Ver trag</w>
dr ück
ein zi
Land wir
m om
Au ßen
g sten</w>
Kommissar in</w>
par ticip
n ichts</w>
kann t</w>
all gem
al low</w>
ou ght</w>
Wir tschaft</w>
ab </w>
I tal
Aus wirk
ir e</w>
gre ater</w>
bes t</w>
v ot
be zü
grei fen</w>
st er
speci fic</w>
gemein samen</w>
p ris
de f
ad di
ste p</w>
ol d</w>
der ungen</w>
p as
b on</w>
D ank</w>
in tro
ge ther</w>
lie gen</w>
T O</w>
pro mis
Be kämpfung</w>
viel leicht</w>
s weise</w>
tion ed</w>
erforder lich</w>
20 1
solidar ity</w>
mä ß
avail able</w>
maj or</w>
W ah
ab ly</w>
to gether</w>
US A</w>
neh mer</w>
Zu gang</w>
ber e
poin ts</w>
re m</w>
ha pp
hau p
par lia
effec tive</w>
sta at
alo gue</w>
do cu
strateg y</w>
respon sible</w>
b an
v ölk
M o
al tung</w>
re form</w>
fun ds</w>
Ge f
den ken</w>
Herr en</w>
re ques
R at
colle ag
W ähr
ful l</w>
E s</w>
So lidar
ic al</w>
funda mental</w>
wi esen</w>
in d</w>
Dur ch
d ungs
ab o
gem ä
Tur key</w>
in dem</w>
En de</w>
Deb atte</w>
en n
ats äch
le ben</w>
B u
da bei</w>
edo m</w>
sustain able</w>
wel t
G ele
pl an</w>
Ge wal
u l</w>
er st</w>
rit t
ah r</w>
j a</w>
P or
l at
Re chte</w>
in t</w>
D amen</w>
g keiten</w>
ge geben</w>
no v
fer enz</w>
F lu
c ing</w>
be isp
fi ght</w>
sp iel
c tions</w>
group s</w>
Bere ichen</w>
m ul
blei ben</w>
schi ed
actu ally</w>
g ed</w>
certa inly</w>
Z ah
Kon fli
t atsäch
conf lic
thir d</w>
tr ue</w>
komm t</w>
d ge</w>
w ahr
lo c
zw ei
x im
Antwor t</w>
g le</w>
aff ung</w>
Di rec
comm un
gr at
st ly</w>
sign i
regi ons</w>
y -
deut lich</w>
d at
Wettbewer bs
auth orities</w>
w le
g ges
verschie denen</w>
ed uc
Di alo
beisp iel
Dem oc
N u
gehör t</w>
x i
fre edom</w>
invol ved</w>
comp ani
compani es</w>
ein zel
amend ment</w>
in dustri
Ko so
hät te</w>
B r
re commen
Li ber
wie der
R u
sozi ale</w>
en ough</w>
th s</w>
difficul t</w>
le ast</w>
con text</w>
L </w>
unterstü tzt</w>
M ehr
govern ment</w>
einf ach</w>
mon ey</w>
Pro gramm</w>
ex peri
tei len</w>
call ed</w>
me hr
so li
pf eh
h and</w>
w o
glob al</w>
O ff
W o
Entschließ ung</w>
inn er
de ta
wes ent
rel ations</w>
w rit
nach hal
unter schied
men tioned</w>
mit tel</w>
it em</w>
o un
N e
T </w>
V </w>
sch rif
ec ted</w>
ac ti
wichti ge</w>
ili ties</w>
Pro z
concern s</w>
Govern ment</w>
weit er</w>
Solidar ität</w>
il fe</w>
Gele genheit</w>
ge fordert</w>
schließ en</w>
inv es
Milli onen</w>
200 2</w>
cre di
fü r
app li
Er klär
produc ts</w>
b ung</w>
des p
concern ing</w>
f unding</w>
st eh
regi on</w>
contro l</w>
hi gh</w>
s k
br ing</w>
gebra cht</w>
fa il
tei le</w>
m eines</w>
gr enz
f lu
seri ous</w>
ci vi
C hr
gle ich</w>
ur t</w>
Leben s
Abgeordne ten</w>
gu te</w>
mon it
reas on</w>
ic k
eff izi
der zeit</w>
v o</w>
b ro
Ver f
se ver
Pri or
Verbesser ung</w>
di alogue</w>
Lis sab
se t
el ess</w>
Lis bon</w>
v il
re al</w>
f y</w>
ber ücksichti
impro ve</w>
ter in</w>
desp ite</w>
Sicher heits
ur s</w>
No v
loo k</w>
Gesund heit</w>
ar ing</w>
su ch
Ver tre
entsp rech
Auswirk ungen</w>
wor k
ver fahren</w>
m als</w>
Hand el</w>
sch ä
im m
is sen
F </w>
ta x
Ri ghts</w>
mar kt</w>
h atte</w>
signi fic
curr ent</w>
f ris
Nov ember</w>
implement ation</w>
hal tung</w>
e ts</w>
sion en</w>
posi tive</w>
fo c
200 8</w>
schließ end</w>
B el
no thing</w>
bal d</w>
I r
pu b
Russi a</w>
k ehr</w>
kri min
en ten</w>
tei lung</w>
der en</w>
ag es</w>
di en
ter n
ta in</w>
T ürk
Türk ei</w>
form s</w>
Inform ationen</w>
sä tz
se tz
pl es</w>
hal te</w>
ati s
be tra
„ </w>
bu il
Str u
ten t</w>
achie ved</w>
an gem
democ ratic</w>
bedeu tet</w>
f er</w>
L in
viol ence</w>
gleich zei
di re
Institu tionen</w>
se k
um fas
l ack</w>
conc ern</w>
Forsch ung</w>
l an</w>
exc ell
li g</w>
F äl
Ar tic
w are</w>
näch sten</w>
t sp
ber u
e k</w>
ak zep
t le</w>
ach ieve</w>
initi ative</w>
zun eh
un fortun
fra gen</w>
E x
bil ater
f onds</w>
5 -0
i an</w>
er fül
ter rit
ment ary</w>
wh o
00 0</w>
tim es</w>
be w
wür den</w>
le isten</w>
beispiel sweise</w>
need ed</w>
K ri
ch o
Rat sprä
ch ar
Arbeit sp
gen heiten</w>
ag o</w>
ti l
gleichzei tig</w>
inner halb</w>
Bei hil
b ility</w>
a gement</w>
min d</w>
interes ts</w>
d ungen</w>
Gebie t</w>
kon kre
regar ding</w>
R ei
en ter
Be völk
c ally</w>
h es
spe zi
auf grund</w>
Menschenrech ts
An wendung</w>
9 7</w>
c los
Dien st
jen igen</w>
B il
S e
Unter such
gesch lossen</w>
consu mer</w>
ra di
peri od</w>
gu aran
200 3</w>
lei der</w>
abl ed</w>
com es</w>
Dialo g</w>
er fol
N ot
meet ing</w>
V ölk
tra di
ver besser
excell ent</w>
B </w>
Koso vo</w>
forder ungen</w>
K re
Entschei dung</w>
m ein</w>
Protokol l</w>
Syst em</w>
pl ac
sa ge</w>
bess er</w>
t ation</w>
z eh
Fortsch ritte</w>
er sten</w>
f ang</w>
mäß i
all es</w>
eben so</w>
aus zu
s einen</w>
ap pe
po ver
consi der</w>
eg ation</w>
N o</w>
an im
Ar mu
öffent lichen</w>
G i
R ück
G leich
pre p
fa ir</w>
ok u
E ra
betre ff
s ach
Sch ritt</w>
an y
pre ss</w>
Bürger n</w>
Co urt</w>
dra w</w>
sol che</w>
z entr
sch l
D </w>
rau m</w>
bei den</w>
an z</w>
ti vely</w>
außer dem</w>
Direc tive</w>
ber eit</w>
dis crimin
grow th</w>
fic ation</w>
sich er</w>
er inn
or gan
S an
curr ently</w>
Energi e
du e</w>
inclu de</w>
en cour
D oku
We g</w>
eben falls</w>
hum an
Au ff
under stand</w>
vol l</w>
ger ung</w>
d rin
ex tre
äch st</w>
k räf
maj ority</w>
ef ul</w>
eri es</w>
“ </w>
an u
rec ei
Ver pflich
Em pfeh
au er
ei genen</w>
pre c
Pro gramme</w>
P ol
essen tial</w>
tei li
notwendi g</w>
ma ßnahmen</w>
sp r
b ru
region al</w>
agricul tural</w>
ti gkeit</w>
h r</w>
govern ments</w>
st verstän
ques tions</w>
p er</w>
adv an
per hap
perhap s</w>
üh ungen</w>
har mon
f an
par ties</w>
ne ver</w>
to ber</w>
ei li
z ogen</w>
ra g</w>
er weise</w>
bestimm te</w>
Ter ror
gen ann
K oh
St u
ma in
gehör en</w>
m einen</w>
gen d
bet ro
N A
vi ous</w>
lit tle</w>
Industri e</w>
sub si
li ance</w>
for eign</w>
k ind</w>
Ver fü
pri orities</w>
c ro
itä ts
G ener
199 9</w>
lie genden</w>
Fischer ei
sub stan
Mar kt</w>
con sequ
al ist</w>
re ach
val ue</w>
- 00
leist ungen</w>
op </w>
T o
lim ate</w>
so wohl</w>
b lo
imp act</w>
tr u
fähi gkeit</w>
pa y
ch all
ta x</w>
Hand els
ü bri
ge macht</w>
rin zi
U kra
chil dr
Off ice</w>
ei ther</w>
pover ty</w>
w in
W el
Hau p
objec tive</w>
Sch affung</w>
an aly
ans wer</w>
dis ku
vorsch riften</w>
Bem ühungen</w>
li ber
Regi on</w>
Tran spar
sin gle</w>
inter est</w>
St ell
ges etz
Berich ts</w>
of ten</w>
ti sche</w>
er ungs
gegen wär
a vo
s ei</w>
a ware</w>
ch es</w>
ver stär
n er
as ked</w>
ab schließend</w>
g te</w>
cor rec
s ichtlich</w>
f eh
childr en</w>
E le
re li
en lar
gan gen</w>
ver ur
on g
Kolleg innen</w>
eth n
succ ess
F R</w>
Ziel e</w>
Beh ör
vorgesch la
gi en</w>
y l
Artic le</w>
Jah res</w>
s es</w>
is tor
u t</w>
zei gt</w>
Auff assung</w>
fur ther
zu stellen</w>
wei ß</w>
Verbrauch er</w>
gen e</w>
s ure</w>
be come</w>
objec tives</w>
ich tet</w>
c ru
cre ate</w>
en or
re stri
cri me</w>
a genda</w>
W ieder
F rie
benef it</w>
transpar ency</w>
h istor
Sch en
am oun
län der</w>
K ap
lich es</w>
st ra
pro ject</w>
bezü glich</w>
mi ght</w>
R ats
Dis k
t yp
re ly</w>
Transpar enz</w>
l is
l s</w>
kon z
Er fol
or ing</w>
S ek
R om
st s</w>
mom ent</w>
wür di
Be ziehungen</w>
lin ien</w>
em s</w>
po wer</w>
V iel
as ser
ran k
car ri
sever al</w>
R uss
je des</w>
bet eili
inte gr
Disk us
richti g</w>
disc uss
ta ined</w>
eur o</w>
minis ter</w>
econom y</w>
Umwel t</w>
el ten</w>
Vereini gten</w>
in -
l ö
consu mers</w>
Por tu
re du
A mer
pro z
develop ed</w>
St abil
lab our</w>
1 4
et ary</w>
richt ung</w>
hei ßt</w>
h </w>
hin aus</w>
decis ions</w>
mi gration</w>
so gar</w>
da gegen</w>
wichti gen</w>
Interes se</w>
hät ten</w>
begrü ße</w>
sp ä
del i
inn e</w>
man agement</w>
m einem</w>
c limate</w>
sch er</w>
do ing</w>
lar ge</w>
Ver wal
hand eln</w>
le ch
resul ts</w>
gemä ß</w>
abo ve</w>
A sy
up on</w>
anges ichts</w>
star t</w>
Ergeb nisse</w>
educ ation</w>
Ver fahren</w>
k a</w>
hi er
ne g
A mend
ha f
F r
K ul
zah l
m es
pro f
por ted</w>
P ap
Her aus
b ish
terror ism</w>
v öl
ser ve</w>
bar en</w>
Ges ellschaft</w>
Rei he</w>
Amer ic
tei di
stat t
ma xim
hes ion</w>
ih n</w>
S u
further more</w>
kur z</w>
mon ths</w>
. .</w>
tn is</w>
w and
gi cal</w>
increas ed</w>
al low
tatsäch lich</w>
T ra
ch en
Steu er
Fäl len</w>
ung sh
ste ad</w>
D ritt
blei bt</w>
K li
sch t</w>
provi ded</w>
e ed
ann ual</w>
ein ge
discrimin ation</w>
re fer
über zeu
sam keit</w>
er r
kehr s
m embers</w>
lan ge</w>
vot ing</w>
Gr enz
ich e</w>
bit te</w>
zun ächst</w>
gen cy</w>
ges ehen</w>
T ex
vor sit
we der</w>
äu ßer
ep t</w>
Gef ahr</w>
Änder ung</w>
prü fen</w>
wi der
prac tice</w>
Ver einbar
Präsiden ten</w>
mar k</w>
am ong</w>
Kli ma
hel d</w>
W eit
J un
ten ce</w>
jec ts</w>
for dern</w>
is tet</w>
ar o
al loc
spe ak</w>
mo d
initi atives</w>
Ver trags</w>
K enn
intro duc
war um</w>
sol len</w>
solu tions</w>
k ul
re p
Z i
K ra
Besch l
a ir</w>
Mitglie der</w>
legisl ative</w>
Verfü gung</w>
erre icht</w>
ari an</w>
kl ar
2 7</w>
‘ </w>
proced ure</w>
Era ch
pe ace</w>
m ü
Stand punkt</w>
ist ance</w>
recommen da
H ung
entschei den
Erach tens</w>
pos ed</w>
b order</w>
de pen
a y</w>
Partn er
sich ern</w>
N -
con fi
v es
imm t</w>
au m</w>
b ür
un ion</w>
m a</w>
priv ate</w>
fe el</w>
l ü
work ers</w>
st in
Stru ktur
Ein führung</w>
tri e
k einen</w>
for men</w>
a z
b au</w>
F amili
servi ce</w>
ent ri
Entschließ ungsan
Auf gabe</w>
gu i
wen den</w>
asp ects</w>
schaf ten</w>
to ur
requi re
Zeit punkt</w>
G el
Not wendi
riteri en</w>
ver stehen</w>
ab zu
lon ger</w>
ander erseits</w>
war ten</w>
zeh n</w>
ih rem</w>
reas ons</w>
mög lichen</w>
go o
me isten</w>
n on-
ou th</w>
dat a</w>
h om
ha gen</w>
st ens</w>
For m</w>
nu tzen</w>
Fre i
mittel n</w>
EC U</w>
tur n</w>
kommen s</w>
c l
Regier ungen</w>
pri ority</w>
be hin
or en</w>
stverstän dlich</w>
bre it
w an
tra c
su gges
W ach
Them en</w>
Lissab on</w>
konz entri
wle dge</w>
E i
jo int</w>
in stead</w>
a de
ser v
K or
t ar
Gemein schafts
a gi
b or
n immt</w>
them selves</w>
Ko sten</w>
t al</w>
Mög lichkeiten</w>
ass ess
Organis ationen</w>
üs se</w>
Behör den</w>
Notwendi gkeit</w>
z eit
Ergeb nis</w>
am e</w>
grat ul
sen se</w>
einzel nen</w>
vi er</w>
con gratul
sh or
te es</w>
E G
. ..</w>
every one</w>
basi c</w>
er he
emp ha
Bevölk erung</w>
weni g</w>
R O</w>
bish er</w>
men ted</w>
men tion</w>
po ten
je der</w>
K ommission
sh are</w>
n ess</w>
Presiden t-
äu ß
respon se</w>
fü n
as yl
ad dre
con s
tre at
treat ment</w>
zweit e</w>
mo ve</w>
ani a</w>
eit s
fi zi
europä ischer</w>
I n</w>
S er
Arbeitsp lä
ge ts</w>
accep table</w>
H aus</w>
entr al</w>
fä hr
sch re
lo s</w>
läs st</w>
p op
sib ilities</w>
k or
sch wer
schrif tlich</w>
conclu sion</w>
ver sch
Finan zierung</w>
s ei
gn isse</w>
ger ungen</w>
U r
Flu g
vorgesch lagen</w>
gen au</w>
J anu
commun ic
chall en
ex press
des t</w>
organis ations</w>
individu al</w>
k ungen</w>
co ordin
ro w</w>
Er zeu
si s</w>
mat ters</w>
Berichterstat terin</w>
r e</w>
Beit rag</w>
Initi ativen</w>
p ack
U S</w>
hal t</w>
gan genen</w>
Armu t</w>
tre ffen</w>
mor gen</w>
en te</w>
ur al</w>
op p
fall en</w>
D aten</w>
zw .</w>
Re form</w>
m ean</w>
selb stverständlich</w>
fun ktion
s ha
dra ft</w>
d liche</w>
milit ary</w>
unfortun ately</w>
zusam men</w>
bew us
b zw.</w>
spe kti
re sol
b an</w>
civi l</w>
ein deu
ä stin
pl an
wär en</w>
f rü
S E
Inter net</w>
effec ts</w>
Bed ingungen</w>
Berich te</w>
Sta ats
ti ven
tiven ess</w>
umfas sen
consu l
Po si
200 1</w>
is es</w>
increas ing</w>
s el</w>
fish eries</w>
President- in-
r at</w>
Zu ständi
Russ land</w>
tal k</w>
er neu
Wach st
sor gen</w>
we den</w>
auf en</w>
amp f</w>
fel low</w>
200 6</w>
th us</w>
enlar gement</w>
e p</w>
hap pen
schaf tlichen</w>
an genommen</w>
inter pre
ord n
Par ty</w>
secon dly</w>
imple ment</w>
M or
aro und</w>
ru p
g el</w>
ver an
princi ples</w>
re alis
li g
en ts</w>
as soci
experi ence</w>
success ful</w>
exten t</w>
Sch i
suff ici
p s</w>
geh end</w>
zuneh men</w>
B 4
f rie
di se
conflic t</w>
President-in- Office</w>
an der</w>
bere ich</w>
m ise</w>
sicher heit</w>
1 5</w>
finanzi ellen</w>
l ück
rec ent</w>
prep ared</w>
co hesion</w>
sch wieri
Ukra ine</w>
völ lig</w>
er ster</w>
ol l
sek tor</w>
der ar
Kom promis
Rats vorsit
appro pri
D el
In te
pres sion</w>
mit t
arbeit et</w>
200 4</w>
li fe</w>
sh ort</w>
ü l
200 9</w>
1 .</w>
Interes sen</w>
fir stly</w>
o s
Minis ter
pur su
gi c</w>
val ues</w>
ein ander</w>
vi c
län dern</w>
P rinzi
S ub
Ver tr
Sch ul
Angele genheiten</w>
W i
pro mise</w>
S inne</w>
carri ed</w>
ge tragen</w>
to b
hö ch
aus es</w>
an no
qu ick
Vorsch riften</w>
signific ant</w>
ac tive</w>
f our</w>
s ag
men ten</w>
dou bt</w>
Rah men
Lan des</w>
1 3</w>
eff ect</w>
ein heit
Rechts vorschriften</w>
docu ments</w>
lan g
us ing</w>
Ihr er</w>
exis ting</w>
w ish
A gr
ff enen</w>
för dern</w>
lä u
demokrati schen</w>
Richt ung</w>
ci r
man u
ge ben
tra ining</w>
pre sen
tion s
prote c
le gi
Haup t
sol chen</w>
asyl um</w>
je den</w>
Beschäf tigung</w>
hör en</w>
auf genommen</w>
h äl
ation al</w>
discus sion</w>
consequ ences</w>
our selves</w>
Grund satz</w>
decis i
op en</w>
ide a</w>
clo se</w>
H ar
Con vention</w>
leg ung</w>
gel eg
g ungs
wor ds</w>
Binnen markt</w>
j ob
ak ti
B ri
mo der
partn ers</w>
o ffen</w>
streng ungen</w>
Per son
pro vis
bedeu ten
c are
Sit zung</w>
ö h
appli ed</w>
ben ö
sion s
2 5</w>
v e
fo od</w>
lich erweise</w>
Bes timm
D ec
inte gration</w>
den ti
bo ur
Gewal t</w>
se x
men sion</w>
Beihil fen</w>
hin sichtlich</w>
W er
ad s</w>
W ort</w>
Über ein
G u
wur f</w>
job s</w>
Amend ment</w>
Ein w
re main</w>
trotz dem</w>
d ar</w>
ei gent
versu chen</w>
in nov
Pal est
Mitgli ed</w>
Ener gie</w>
t es
bes t
succ ess</w>
t abled</w>
stan den</w>
de ter
e a</w>
di st
ter nal</w>
ich te</w>
wa ste</w>
de mon
u ß</w>
ab sol
merk samkeit</w>
Auf merksamkeit</w>
pub li
G rupp
ck en</w>
li gen</w>
in gt</w>
den noch</w>
ver hin
S lo
sch ü
pre vious</w>
it ation</w>
le di
ständi g</w>
er wäh
conclu sions</w>
Erklär ung</w>
j un
K omm
Kontrol le</w>
Bar ro
manu fac
G lob
applic ation</w>
we is</w>
ast ro
reduc tion</w>
establ ish</w>
stat ed</w>
li k
g -
ver tre
ständi gen</w>
in es</w>
H ilfe</w>
advan ta
riteri a</w>
prev ent</w>
gra ph
C </w>
bie ten</w>
is i
Ira q
ple ased</w>
beste hen</w>
W il
pers ön
zeich net</w>
jus ti
B ank</w>
m es</w>
our n
suff er
tei lt</w>
Verbrauch er
Gesetz geb
po wer
str ong</w>
cir c
Erfol g</w>
ag ed</w>
r ate</w>
T he</w>
K an
tom or
gen t</w>
ris k</w>
kon trol
he ard</w>
app ly</w>
wün schen</w>
n en
Eur o
Ges am
krimin ierung</w>
tomor row</w>
pri l</w>
vel s</w>
f est</w>
fish ing</w>
Kon ferenz</w>
v al</w>
st ability</w>
ver si
ih m</w>
K rank
system e</w>
Sp an
g än
human it
amoun t</w>
um s</w>
D en
om s</w>
T e
ti ger</w>
stru ments</w>
som it</w>
exc lu
wen det</w>
fol gen</w>
An erken
Anerken nung</w>
je dem</w>
p ast</w>
ho ch
l icht</w>
w it
ex press</w>
Mehr heit</w>
effec tively</w>
er hö
spe ak
throu gh
Mitglied sta
F eh
off en
be vor</w>
F e
NA TO</w>
tra ff
Wettbewer b</w>
l and
w ing</w>
Agr ar
th an
reques t</w>
commit ment</w>
U N</w>
Gesch äf
w ater</w>
gemein sam</w>
pro jects</w>
is ierung</w>
quick ly</w>
An strengungen</w>
c riteria</w>
ra gen</w>
Währ ung</w>
sch ul
D E</w>
A pril</w>
pa y</w>
through out</w>
spe cial</w>
d -
at astro
E N</w>
ung sp
K ampf</w>
Ein haltung</w>
For derungen</w>
el en</w>
Grün den</w>
rif f</w>
h u
d lichen</w>
ins icht</w>
comm ittee</w>
vic ti
aus gew
trotz </w>
Landwir tschaft</w>
Par tei
bess ere</w>
Er weit
direc t</w>
reach ed</w>
Änder ungen</w>
b in
c ol
erfül lt</w>
du ty</w>
s ing</w>
Schen gen</w>
present ed</w>
in ge</w>
contin u
develop ing</w>
ver än
o ft</w>
auf ge
equ al</w>
vi ties</w>
ins gesam
M is
al tern
Arbeitsplä tze</w>
ges sen</w>
ge wiesen</w>
Angele genheit</w>
F alle</w>
acti vities</w>
sh e</w>
kön nten</w>
exp lo
in flu
sel s</w>
sa ying</w>
S or
ste u
le ar
T at</w>
Erweit erung</w>
em is
ke ep</w>
M an
com promise</w>
cru cial</w>
Entschließungsan trag</w>
fol ge</w>
le vels</w>
m ember</w>
discus sions</w>
k tive</w>
re st</w>
le ad</w>
m em
si ert</w>
M E
ol er
eit e</w>
N r
gew esen</w>
lo cal</w>
insgesam t</w>
g ungen</w>
be hör
bo dy</w>
fas sen</w>
be kannt</w>
regul ations</w>
Er fahr
H insicht</w>
a -
bal ance</w>
gesam ten</w>
str ate
Vertr auen</w>
gre ich</w>
pre siden
li ert</w>
ex pen
Be teili
su l
N icht
bit ten</w>
no te</w>
re in
gr ün
busin ess</w>
inde pen
z er
um an</w>
ro ati
gn is</w>
grow ing</w>
r y</w>
fas st</w>
tor en</w>
Initi ative</w>
imple mented</w>
ch tet</w>
ru le</w>
vorgeschla genen</w>
require ments</w>
tour ism</w>
sel y</w>
jus tice</w>
pack age</w>
f lo
F ran
groß er</w>
mo tion</w>
Proz ess</w>
bo t</w>
An frage</w>
s an
wichti ger</w>
r ats</w>
sag te</w>
di ar
Bu d
Fr ance</w>
auf merk
l ands</w>
Beh and
bet onen</w>
L eben</w>
erhe b
w issen
acc ession</w>
mark ets</w>
sp ru
erinn ern</w>
ür z
stand ing</w>
foc us</w>
I N
unser es</w>
ne ction</w>
a th</w>
T sch
get ary</w>
open hagen</w>
bil dung</w>
vor zu
effici ent</w>
aufmerk sam</w>
J us
vor liegenden</w>
K ur
er ste</w>
pra kti
addi tion</w>
k ts</w>
N etz
bal an
high li
Nr .</w>
extre m
H o
Be trie
Pri me</w>
an ti
da ys</w>
ro ad</w>
om in
att emp
fle xi
er e
Barro so</w>
al ing</w>
B an
si eht</w>
rel ation</w>
beit ragen</w>
ac y</w>
po l
P ak
Bil dung</w>
far mers</w>
Vor aus
con nection</w>
fest gelegt</w>
m ati
G en
inv est
Re chn
I de
spiel en</w>
De ut
20 10</w>
In stru
konzentri eren</w>
n ei
f il
colleag ues</w>
R ed
e w
publi k</w>
Bal k
P ra
di e
1 1</w>
agricul ture</w>
f am
den e</w>
ade qu
setz ungen</w>
ti </w>
g ischen</w>
tig ungs
he ben</w>
indi c
a im</w>
1 4</w>
ck t</w>
st ep
li ve</w>
ss -
H altung</w>
un ities</w>
re agi
ge tro
institu tional</w>
comm er
zeich ne
Pe ti
w a</w>
ver gessen</w>
wirtschaf tliche</w>
se en</w>
Bürger innen</w>
elec tions</w>
t oler
me et</w>
monit oring</w>
Lin ie</w>
Arbeit nehmer</w>
pla y</w>
d ri
unter nehmen</w>
di en</w>
yo ung</w>
direc tly</w>
mechan is
Te chn
T ab
kl einen</w>
ver m
e ven
bur g</w>
berücksichti gt</w>
inclu ded</w>
zu sätz
set ting</w>
cap ac
19 8
o k</w>
as s</w>
ed ri
un abhängi
Dienst leistungen</w>
agre ed</w>
frei heit</w>
call s</w>
g ar
contribu tion</w>
kno wn</w>
writ ing</w>
ier ungs
chan ges</w>
1 8</w>
verantwor tlich</w>
ti l</w>
S ep
Lu ft
sup ported</w>
balan ced</w>
ar gu
t ember</w>
et wa</w>
w ron
k eits
in strument</w>
Gre e
la g
a da
gh ted</w>
h atten</w>
be auf
ge fähr
ex change</w>
Re public</w>
Behand lung</w>
l te</w>
D as</w>
mis sion</w>
extrem ely</w>
c a</w>
li es</w>
dan ke</w>
W es
anges prochen</w>
h on
gab </w>
Vol k
is ation</w>
Qu alität</w>
re pe
zieh ung</w>
In strument</w>
reduc ing</w>
S ache</w>
ass istance</w>
mp tion</w>
l er
Portu g
fam ily</w>
gri ffen</w>
n ie</w>
P unkte</w>
neh m
Sep tember</w>
Proje kt</w>
Beit rit
schn ell</w>
her r
inter nationale</w>
ish ed</w>
t t
le t
M </w>
nam ely</w>
a di
G rie
provis ions</w>
unser em</w>
e over</w>
1 2
Inform ations
F ahr
stär ken</w>
Sch utz
Fortsch ritt</w>
t on
schie den</w>
k ein
be für
fl icht</w>
kti v
n on
re view</w>
b a
kti v</w>
S um
inc or
ment ar
Inte gration</w>
con dem
tel y</w>
comple tely</w>
je wei
ho ffen</w>
M än
f ern</w>
i denti
ch er</w>
demon str
ö ff
L eit
Gi pf
rou ght</w>
Fol gen</w>
rel ating</w>
p ass
Vertre ter</w>
ti er
vers ity</w>
u tion</w>
Verf assung</w>
pos sibility</w>
enth alten</w>
oper ate</w>
discuss ed</w>
in struments</w>
stan ces</w>
con tent</w>
isch es</w>
men sch
co ver
M är
nation aler</w>
Min der
kno wledge</w>
ell er</w>
re fle
ada p
ti sh</w>
empha s
verbesser n</w>
ü ro
b ank</w>
v ements</w>
Finan zi
assess ment</w>
Ver häl
um gesetzt</w>
call ing</w>
g lichen</w>
nu clear</w>
be ar</w>
O p
Präsiden tschaft</w>
en ing</w>
z es</w>
fol gerungen</w>
S ec
meet ings</w>
ges prochen</w>
tre i
Sch ritte</w>
richt linie</w>
mor eover</w>
H ö
appropri ate</w>
inves tig
da ma
Bestimm ungen</w>
Re publik</w>
C ar
zah l</w>
O pf
deter min
so on</w>
drück lich</w>
l ist</w>
sp or
hal ten
re gre
vi ously</w>
st ance</w>
hö h
Con stitu
verhin dern</w>
A genda</w>
die jenigen</w>
Organis ation</w>
A gre
Partei en</w>
conom ic</w>
sp ir
commer cial</w>
St at
stär k
Or gan
ab kommen</w>
finanzi elle</w>
as su
technolo gy</w>
T i
co l</w>
reli gi
F ühr
ac ts</w>
pop ulation</w>
he ar
f te</w>
for ces</w>
Regi on
ter ung</w>
co st</w>
Bri tish</w>
b rought</w>
trä gt</w>
besch äf
Koh ä
L es
ci enti
sch ar
B o
hä lt</w>
ap poin
ran ean</w>
th y</w>
Entschei dungen</w>
steh enden</w>
ck s</w>
ha ft</w>
ent ing</w>
ein gere
we di
tr on
st en
territ ori
h im</w>
con ference</w>
E conomic</w>
il legal</w>
Wettbewerbs fähigkeit</w>
zu g
s ession</w>
überzeu gt</w>
arbeit ung</w>
Gree ce</w>
pri ce</w>
h äu
tel l</w>
re ach</w>
pl ans</w>
bel ie
ür f
Ab kommens</w>
organ iz
ier ten</w>
weit eren</w>
zu min
zumin dest</w>
ken n
K riterien</w>
Wi der
4 0</w>
Prior itäten</w>
un til</w>
K rise</w>
fre ien</w>
B S
än de</w>
M al</w>
ob ach
be zug</w>
ad ing</w>
re ma
da durch</w>
i p
e ar
H uman</w>
tu res</w>
acc o</w>
Iraq </w>
is ing</w>
A s
b illion</w>
Kin der</w>
mul til
si mil
proced ures</w>
le ft</w>
ch mals</w>
Ratsprä siden
mod el</w>
stim me</w>
P P
sä tze</w>
ac ro
An fang</w>
g riff</w>
D er</w>
colleag ue</w>
re jec
wieder hol
schl uss</w>
Gesund heits
Chr isti
promo te</w>
fo und</w>
ac tions</w>
it t</w>
nam e</w>
ho ben</w>
F est
1 2</w>
no chmals</w>
n ö
mes sage</w>
alle in</w>
G ed
st au
multil ater
Schl uss
S eite</w>
L a
circ um
pro gramm</w>
äußer st</w>
e vi
ter ranean</w>
Medi terranean</w>
enor m
vi a</w>
är en</w>
Min utes</w>
cul tural</w>
v ital</w>
zu künf
Regel n</w>
se e
EC </w>
di stri
st ei
B i
lö sen</w>
Ira k</w>
p unkte</w>
C ha
beauf tra
de ci
th eless</w>
ver theless</w>
ne vertheless</w>
clo sely</w>
s atis
ep tion</w>
p un
re forms</w>
im possible</w>
Ger many</w>
Wir k
sho w</w>
ati v
genu g</w>
d ro
go es</w>
institu tion
tob acco</w>
le it
E is
rech t
K l
ni edri
bewus st</w>
ab gel
b ah
en able</w>
ach t</w>
Mar k
Aspe kt</w>
direc tion</w>
equ ality</w>
speci fic
struc tural</w>
Char ter</w>
1 00</w>
zu führen</w>
co sts</w>
t ur</w>
prü fung</w>
manufac tur
wir ken</w>
pro per</w>
l in</w>
fac e</w>
lan gu
Gemein samen</w>
schein t</w>
Aspe kte</w>
r ates</w>
r aten</w>
ein erseits</w>
Inter national</w>
sta ge</w>
hin weisen</w>
Ges prä
Asy l
Ver teidi
Produ kte</w>
sch land</w>
Geschäf ts
Deut schland</w>
Mon etary</w>
star k</w>
wer te</w>
pl ann
beste h
si gkeit</w>
legi tim
w ob
T ag
N G
promo ting</w>
pris es</w>
to tal</w>
c are</w>
An satz</w>
gew and
re spekti
ge kommen</w>
disku tiert</w>
N ationen</w>
con struc
pl om
est ing</w>
L eg
grei f
Klima wand
li eren</w>
confi dence</w>
qu o
Mitgliedsta at</w>
i es</w>
con duc
t ei</w>
qu ali
Wo che</w>
Terror ismus</w>
allow ed</w>
Ratsvorsit z</w>
lan g</w>
Mon aten</w>
power s</w>
Durch führung</w>
busin esses</w>
partn er
an ischen</w>
Mittel me
ge fü
zweit ens</w>
ktion s
n ü
ver gangenen</w>
f al
represent atives</w>
ander er</w>
Produ ktion</w>
read ing</w>
b iti
ic ally</w>
Con ference</w>
lau tet</w>
üs sel</w>
S pra
ati v</w>
g ische</w>
com ments</w>
requi red</w>
ir gend
u </w>
ter t</w>
con fir
le ben
R isi
Stand ards</w>
s us
200 7</w>
De velop
cro ss-
rä u
particip ation</w>
over all</w>
an er
m ed</w>
cienti fic</w>
Ver kehrs
angem essen
propos e</w>
gre at
gewähr leisten</w>
parlia mentary</w>
lo t</w>
Wah l
zwei fel
k ün
fol low</w>
des wegen</w>
con trol
ev ent</w>
hervor ra
em er
Ö ffent
who se</w>
ell ing</w>
stu dies</w>
gro und</w>
T our
w ise</w>
struc ture</w>
gemein sam
comb ating</w>
Sek tor</w>
beteili gt</w>
accord ance</w>
dire kt</w>
Z wei
der zei
P u
au c
getro ffen</w>
beg innen</w>
del egation</w>
resp ec
ledi glich</w>
1 5
Haushal t</w>
politi ci
organis ation</w>
victi ms</w>
F ak
des ign
weit en</w>
dra f
en der</w>
spe a
spea king</w>
er greifen</w>
in come</w>
spezi f
Am ster
congratul ate</w>
v eh
ein schließlich</w>
su per
W oh
accord ing</w>
accep t</w>
re f
S el
Zi vil
bud getary</w>
pre par
be ziehen</w>
j ähr
vor gelegt</w>
provi ding</w>
einzi ge</w>
Nu tzung</w>
y ed</w>
e gu
t em
mechan ism</w>
lan s</w>
For eign</w>
Kap it
persön lich</w>
f amili
dar stellen</w>
inn ing</w>
An trag</w>
ger t</w>
he ar</w>
Wor ld</w>
b s</w>
un acceptable</w>
M U</w>
verb unden</w>
tal king</w>
entsprech ende</w>
ni em
forder e</w>
ob lig
Char ta</w>
An nahme</w>
Agre ement</w>
nachhal tige</w>
s po
einf ach
drin gend</w>
disc uss</w>
redu ce</w>
k rise</w>
ex ternal</w>
Grie chen
auf zu
gesch ehen</w>
out side</w>
verfü gen</w>
St elle</w>
letz te</w>
Ein satz</w>
lang fris
administr ative</w>
1 0
w on
st op</w>
he u
effor t</w>
Wel t
Re formen</w>
ob il
Partn er</w>
vor han
N ieder
li ves</w>
A SE
zweit en</w>
hel fen</w>
le iten</w>
n s</w>
min im
at ory</w>
Fra ktionen</w>
zeich nung</w>
Vor sit
Regier ungs
impro ved</w>
cre ating</w>
comp liance</w>
ass ungs
de ath</w>
wach sen
rän kt</w>
sch utz
la un
Pro gramm
off ice</w>
ass er</w>
so bald</w>
aussch uss</w>
wichti gsten</w>
Bes or
recommenda tions</w>
fer ner</w>
ein gesch
ter en</w>
ves ti
e val
K atastro
stimm t</w>
Gr enzen</w>
ch t
le tzt</w>
Gesam t
k la
be darf</w>
ent er</w>
biti ous</w>
gen der</w>
we g</w>
for th
mon th</w>
kämpf en</w>
reich end</w>
tu al</w>
co her
gi es</w>
S in
S onder
C h
kon stru
gi e
j ün
bu re
eh nt</w>
i ge</w>
li mit
3 0</w>
for get</w>
wish es</w>
fun den</w>
ge funden</w>
sy m
ac qu
step s</w>
z ed</w>
establish ed</w>
ne twor
networ ks</w>
re lev
at ors</w>
durch geführt</w>
al es</w>
wahr schein
mö chten</w>
Beitrit ts
con soli
n or</w>
So cial</w>
ra h
get an</w>
Portug al</w>
forder ung</w>
happ en</w>
di sa
i gung</w>
Afri ca</w>
allgem einen</w>
Vereinbar ung</w>
fas t</w>
tu rel
be mü
t an
produc ers</w>
ti e
P rü
# 9
& #9
se ems</w>
saf egu
nor m
st ä
E mis
zah len</w>
7 0</w>
f ying</w>
re ality</w>
dem ands</w>
Al l
un ver
U hr</w>
n ern</w>
gew is
re ference</w>
cre ation</w>
G ali
7 -
Z entr
pro per
t äu
fäl len</w>
über schre
eh mi
we ist</w>
ktion sp
Develop ment</w>
pur pose</w>
recei ved</w>
erklär t</w>
po or</w>
F und</w>
distri bu
den ts</w>
gr an
il it
di ture</w>
expen diture</w>
d .</w>
gr ants</w>
O L
bure auc
establish ment</w>
zei gen</w>
M al
hol ding</w>
inten si
Öffent lichkeit</w>
a war
S icht</w>
ack no
Al b
Beschäf tigungs
li </w>
O s</w>
gen e
re ichen</w>
er zeu
er c
stre ss</w>
capac ity</w>
enter prises</w>
E- Fraktion</w>
Heraus forderungen</w>
express ed</w>
o g
trä gen</w>
communic ation</w>
au ern</w>
ub a</w>
O c
S en
Tab ak
lo se</w>
ber icht</w>
ist an</w>
o s</w>
prote ct</w>
bilater al</w>
ver pflich
am bitious</w>
we ek</w>
kur z
o l</w>
respon sibilities</w>
kt ur</w>
Rech t
eigent lich</w>
sc ale</w>
bour g</w>
ch ed</w>
specific ally</w>
ti ef
am bi
al ong</w>
hol d</w>
kan ischen</w>
ver l
gen au
W TO</w>
d nis</w>
bed auer
D inge</w>
prev enting</w>
U N-
Prinzi p</w>
Re g
au tom
op e</w>
Gegen teil</w>
C or
Glob alisierung</w>
Techn olo
Fischer ei</w>
can di
abgel ehnt</w>
ger ech
a den</w>
ver kehr</w>
presiden cy</w>
addi tional</w>
Rechn ungsh
F le
au ß
lo st</w>
s ent
K ar
ic king</w>
gegenwär tigen</w>
En viron
vorsch lag</w>
gele istet</w>
me an
Democ rats</w>
ing ly</w>
un employment</w>
Stell ung
establish ing</w>
dem and</w>
Minister prä
guaran tees</w>
rie f</w>
Schluss folgerungen</w>
Tag ung</w>
lä gen</w>
ru s</w>
clos ed</w>
Gre en</w>
posi ti
en ds</w>
Wah len</w>
recogn ise</w>
fre ue</w>
vol le</w>
A k
am eri
i g</w>
neg ative</w>
staat lichen</w>
erzi elt</w>
är e</w>
rei ben</w>
con sen
regel mäßi
un bed
f alt</w>
Geschäfts ordnung</w>
größ ten</w>
di plom
um -
sch le
A ktionsp
pro sp
s man</w>
än dern</w>
Währ ungs
aff ected</w>
re vision</w>
hel p
c aus
z äh
los sen
Arbeit en</w>
it ing</w>
wron g</w>
betreff end</w>
Zwei f
l ater</w>
erhö hen</w>
vor geleg
ati c</w>
st erre
an ge</w>
ver treten</w>
H e
conc entr
Eis en
p ap
spr icht</w>
St är
Frei heit</w>
rejec ted</w>
brin gt</w>
thin king</w>
su chen</w>
ger ichtet</w>
consider ed</w>
Vol k</w>
us sels</w>
20 20</w>
gel ungen</w>
wahrschein lich</w>
auß er</w>
g rupp
ori gin
finan cing</w>
g ül
develop </w>
circum stances</w>
Fun da
Über prüfung</w>
ver einbar
us t</w>
adop tion</w>
ut ely</w>
lea ders</w>
S tim
zahl reich
bed ingungen</w>
press ure</w>
rel and</w>
Me chan
s ent</w>
avo id</w>
sit ting</w>
tu de</w>
goo ds</w>
I reland</w>
Regel ung</w>
rän kungen</w>
im migration</w>
for es
grund le
sch utz</w>
betreff enden</w>
lon g-
Eisen bah
i j
schaf t
requ ire</w>
anno un
sex u
th ous
prac tical</w>
ch s</w>
Empfeh lung</w>
addre ss</w>
Empfeh lungen</w>
Fran kre
plac ed</w>
conc ept</w>
f ron
I m
ex ac
verfü gt</w>
f und</w>
. 00</w>
impro ving</w>
y a</w>
ha se</w>
betra chtet</w>
im medi
alis mus</w>
häu fi
politici ans</w>
and els
Dec ember</w>
credi t</w>
ran gi
kon nten</w>
territ ory</w>
Griechen land</w>
dise ases</w>
In vesti
D ru
in ian</w>
influ ence</w>
Beit ritt</w>
per spec
Bürger beauftra
O k
Ok tober</w>
there by</w>
Oc tober</w>
lu ß</w>
R o
Frie den
tn isse</w>
1 3
be haup
An aly
fac ilit
def ence</w>
N at
tax ation</w>
pers on</w>
adequ ate</w>
Ged an
Kul tur</w>
r ück
ausge zeichne
Haushal tsp
h en
prü ft</w>
di schar
Fe bru
g liche</w>
ta kes</w>
maxim um</w>
sub mit
vi e
main tain</w>
Verpflich tung</w>
effici ency</w>
e ver</w>
ne t
ur ing</w>
r ichten</w>
b würdi
je de</w>
ehr te</w>
ob st
zusätz liche</w>
en e</w>
presen ts</w>
f es
ap pl
g ste</w>
t w
ch em
bo ten</w>
S pa
Br ussels</w>
hin zu
bud sman</w>
simil ar</w>
Verpflich tungen</w>
Jah res
medi a</w>
ren ew
em e</w>
off er</w>
comb at</w>
typ e</w>
ber ech
entwick elt</w>
Sch wieri
O -
mem ber
gel ten
E ff
consu mption</w>
s einem</w>
obst ac
Stellung nahme</w>
br ing
zu setzen</w>
Tei l
ver ab
Wachst um</w>
consen su
than ks</w>
wil l
G eld</w>
nat ure</w>
a way</w>
zu dem</w>
kon ferenz</w>
N ations</w>
ad ded</w>
conc re
be kommen</w>
i er</w>
bie tet</w>
rel ation
adop t</w>
de aling</w>
Gesetz </w>
deta il
acro ss</w>
lin es</w>
B ur
spe e
mat eri
Sel b
A ut
v a</w>
I mm
Ein igung</w>
Frankre ich</w>
Verb rechen</w>
develop ments</w>
comm unity</w>
kra ft
com ment</w>
incor por
Br üssel</w>
P -
e te</w>
wi de</w>
le gt</w>
eth eless</w>
fest gestellt</w>
betro ffenen</w>
is ter</w>
un sten</w>
defin ition</w>
geb au
ges und
ru hi
Untersuch ung</w>
welt weit</w>
es tim
ch ec
al one</w>
Re de</w>
ap </w>
appro ved</w>
en ding</w>
fi zierung</w>
sign ed</w>
Th is</w>
Person en</w>
wach ung</w>
verl oren</w>
zü gi
hu ge</w>
vi ce</w>
ver wendet</w>
c en</w>
un mittel
Ne u
di enen</w>
Posi tion</w>
vo c
S eiten</w>
partner ship</w>
gu ten</w>
Ab schluss</w>
ASE A
lo sigkeit</w>
di versity</w>
en jo
on nen</w>
Prior ität</w>
w ell
fin al</w>
relation ship</w>
Sch wer
eff e
Gro ß
H oh
sin n
se it
ethn ic</w>
p ati
streng th
organis ationen</w>
or e</w>
per man
ren ch</w>
re ad</w>
fre ut</w>
li ght</w>
si l
industri al</w>
in tel
br auch</w>
z ö
a str
emis sions</w>
te te</w>
ri gh
consensu s</w>
tic ally</w>
occ up
Au stri
kl are</w>
recogn ition</w>
F rench</w>
ast ern</w>
n ed</w>
Tex t</w>
B .</w>
ap pre
ma kes</w>
Bed ürf
p ak
s la
O m
Om budsman</w>
even ts</w>
la st
Schwieri gkeiten</w>
at or</w>
an nehmen</w>
ger ä
rup tion</w>
histor y</w>
unbed ingt</w>
richt ungen</w>
un ruhi
j ob</w>
bor ders</w>
rec ently</w>
H a
Er stens</w>
Ital y</w>
Partner schaft</w>
traff icking</w>
B asi
Basi s</w>
kti ven</w>
S ol
aner kannt</w>
dan ger
2 -
an gewand
demokrati sche</w>
verur sach
veh ic
Bere iche</w>
cap ital</w>
gen s</w>
wan ted</w>
zug unsten</w>
ach tet</w>
A t
nei gh
t ask</w>
vern ünf
o ther
consider able</w>
D u
verschie dene</w>
eh e</w>
Ma ße</w>
Politi ken</w>
ed oms</w>
ästin ens
M om
W asser
Wirtschafts -</w>
is tung</w>
A F</w>
in ci
enorm ous</w>
absol utely</w>
s on</w>
Pap er</w>
s cientific</w>
o t</w>
Amster dam</w>
wes halb</w>
erwäh nt</w>
gesch affen</w>
t op
pri mar
bei zu
A P</w>
follow ed</w>
ho hen</w>
Stell ung</w>
w ah
b ly</w>
eh er</w>
lik ely</w>
g ei
see king</w>
z ember</w>
De zember</w>
happen ed</w>
ver gen
m and
crimin al</w>
ex erc
Verb in
awar en
str ö
Frie den</w>
accep ted</w>
cor e</w>
b ein
stän de</w>
b auen</w>
bes ten</w>
person ally</w>
Ratsprä sident</w>
genu tzt</w>
B4 -00
asp ect</w>
San ktionen</w>
un sch</w>
ü ck</w>
S ach
lan tic</w>
r un
Tre ffen</w>
4 8</w>
201 3</w>
Au gen
Ver än
tä tig</w>
St re
W ar
impro vement</w>
genann ten</w>
peop les</w>
Les ung</w>
implement ing</w>
Kon tin
Wor te</w>
ens uring</w>
as si
vie ws</w>
Kri min
2 2</w>
Lös ungen</w>
fün f</w>
O st
stu dy</w>
c la
j ourn
technolo gical</w>
ra il
ac ks</w>
C entral</w>
Völk er</w>
überschre it
re present</w>
of f</w>
sho ws</w>
non etheless</w>
concre te</w>
strate gic</w>
posi tions</w>
m ing</w>
del ines</w>
Europä er</w>
construc tive</w>
bes tä
h y
z ös
encour age</w>
appro val</w>
ge worden</w>
adop ting</w>
ple ase</w>
con v
regi me</w>
D an
str on
m y
competi tiveness</w>
reg ards</w>
represent ative</w>
er möglichen</w>
es ischen</w>
port ing</w>
re mo
Aussch uß</w>
Politi k
analy sis</w>
re d
üro krati
OL AF</w>
Besor gnis</w>
li mit</w>
B ot
fa ir
poten tial</w>
f -
un ge
Del egation</w>
Z y
Landwir te</w>
för dert</w>
c ame</w>
zi eht</w>
om en
di tors</w>
fl uss</w>
provi des</w>
ell s</w>
po st
da tion</w>
pre vention</w>
ta ining</w>
es sen</w>
introduc tion</w>
a im
C han
de ep
restri ctions</w>
viel mehr</w>
Sum mit</w>
yp rus</w>
gan genheit</w>
W ahr
e arch</w>
benef its</w>
fol genden</w>
b are</w>
durch aus</w>
dar stellt</w>
Ver sch
Ener gy</w>
S M
k ürz
st öß
let ter</w>
K ön
di gen</w>
substan tial</w>
stär ker</w>
ac ci
Mein ungs
vor gesehen</w>
Zentr al
dan ger</w>
NG Os</w>
par ts</w>
sup p
Famili en
ut ting</w>
län di
er leben</w>
g as
c ted</w>
Kor ea</w>
inter vention</w>
Voraus setzungen</w>
P s</w>
ein ander
fail ure</w>
jo in</w>
tal ks</w>
versu cht</w>
un des
beg inning</w>
relev ant</w>
Mitglie dern</w>
Diskus sionen</w>
Zy per
führ ten</w>
be halten</w>
happ y</w>
ei den</w>
g n</w>
rel ated</w>
quo te</w>
we t
v ity</w>
betro ffen</w>
Kolle ge</w>
pro b
por ary</w>
Poli cy</w>
y on
gui delines</w>
x is</w>
ev ent
auth ority</w>
Sch weden</w>
ul g
ati es</w>
al ise</w>
IN I</w>
iel e</w>
di </w>
pl ant</w>
Untersuch ungen</w>
Grund rechte</w>
form er</w>
t licher</w>
ta g</w>
kon nte</w>
brau cht</w>
fi f
regul ar</w>
In nov
ges ellschaft</w>
sto ß</w>
Americ an</w>
geh ö
C yprus</w>
Kon sequ
e arly</w>
S a
wob ei</w>
K ern
primar ily</w>
sam m
P un
Krank heiten</w>
opport unities</w>
Z we
proz ess</w>
ad ver
Diskus sion</w>
spir it</w>
in spec
end or
member ship</w>
ti tude</w>
sup ports</w>
we e
challen ge</w>
san ctions</w>
administr ation</w>
he aring</w>
Kohä sions
l ate</w>
st off
behör de</w>
gi ving</w>
M ac
mechanis ms</w>
B ulg
p al
obstac les</w>
V i
Entwick lungen</w>
me t</w>
S ü
an gen</w>
er m
statt finden</w>
k o</w>
beg lück
Aus nah
comp any</w>
Isra el
Nor di
st es</w>
mis s
tu t</w>
Fol ge</w>
Jus tice</w>
stat us</w>
Res earch</w>
invol ve</w>
sen si
erforder t</w>
hand lung</w>
docu ment</w>
nat ural</w>
emphas ise</w>
Res ol
Dis kriminierung</w>
Kommission s
icht sh
be finden</w>
en dlich</w>
ateg or
impro vements</w>
Ver gangenheit</w>
benö tigen</w>
län e</w>
berücksichti gen</w>
ar ch
n ommen</w>
ti sch</w>
cons is
B est
thir dly</w>
Beteili gung</w>
dec lar
ati sti
competi tive</w>
spru ch</w>
Kul tur
zu frie
gan ze</w>
stand s</w>
ho urs</w>
eindeu tig</w>
pa id</w>
Opf er</w>
läs si
erken nen</w>
el ement</w>
stell er</w>
tran sat
f rau
tr itt</w>
gehö ri
streng then</w>
B 5-0
W issen
ent fer
str en
produ ce</w>
lo k
cross- border</w>
an tly</w>
st elle</w>
Programm s</w>
Kan di
integr ated</w>
Erklär ungen</w>
Ber u
Pro f
re -
medi um-
inter ven
con tained</w>
ger in
d rit
appre ci
An hör
besch lossen</w>
bi o
sch lä
be handelt</w>
Span ish</w>
zeu gen</w>
di sp
invest ment</w>
sec ure</w>
t old</w>
inten d</w>
kommen den</w>
exten d</w>
L at
H inter
o de</w>
other wise</w>
lich ung</w>
an a</w>
speak ers</w>
fähi g</w>
rech tlichen</w>
Aus gaben</w>
he bung</w>
r ing</w>
forth coming</w>
t ment</w>
ordn ungs
seit ens</w>
Har mon
lan gen</w>
Bes u
ch e
wo durch</w>
aff airs</w>
F onds</w>
ma inly</w>
Forsch ungs
Sin n</w>
Kra ft</w>
proc eed
hand el</w>
ge m</w>
un ds</w>
Proble ms</w>
bür ger
M ol
Weit er
i d
Fre m
Vor teil</w>
Ei gen
off ers</w>
stau sch</w>
Ver tra
F ern
Rom a</w>
glob alisation</w>
g utes</w>
ver lei
Christi an</w>
Binnen mark
Constitu tion</w>
gent ur</w>
h ouse</w>
Au ditors</w>
buil ding</w>
mög licherweise</w>
Ab sch
long- term</w>
de p
zu zu
Volk s
exp ect</w>
er weit
Zeit raum</w>
re den</w>
Instru mente</w>
her aus
partn er</w>
stat ement</w>
anim al</w>
Kenn tnis</w>
ti mis
pro to
con ci
el i
gan gs
ün sti
g st</w>
elec tri
m ün
Viel falt</w>
l ei</w>
größ ere</w>
A ktiv
ur ge</w>
Über wachung</w>
Janu ary</w>
t ac
zi eren</w>
gleich en</w>
reagi eren</w>
wil ling</w>
feh lt</w>
jewei ligen</w>
ver standen</w>
P lan</w>
correc tly</w>
über haup
difficul ties</w>
Hin der
ein ten</w>
cri tical</w>
ge o
al most</w>
differ ence</w>
con stan
Di mension</w>
sour cen</w>
ge ments</w>
ori enti
ver öffent
who m</w>
alis ed</w>
6 0</w>
con trac
Hung arian</w>
Proje kte</w>
i ma
In di
M obil
sour ce</w>
h l</w>
des t
ein gehen</w>
wee ks</w>
Res pe
T ier
Palest inian</w>
I h
Ratspräsiden tschaft</w>
Gesprä che</w>
stron ger</w>
cl ari
le uni
cul ture</w>
Americ a</w>
comp ens
ide as</w>
unter zeichnet</w>
it able</w>
Einw ander
Stim me</w>
Heraus forderung</w>
T E
l aufen</w>
kon sequ
breit et</w>
Tur k
Zweif el</w>
Re ak
lü ck</w>
tr ary</w>
con trary</w>
event u
Tei len</w>
k as</w>
Ger man</w>
consider ation</w>
sel ben</w>
4 7</w>
compe tence</w>
Bulg ari
Regi me</w>
th ought</w>
on es</w>
be unruhi
t land</w>
un anim
vol u
ti gten</w>
on i
min utes</w>
größ te</w>
any thing</w>
or ed</w>
con t
verpflich tet</w>
sicher lich</w>
recei ve</w>
Ko ordin
exp la
ent sprechen</w>
ehr gei
auf gefordert</w>
la gs</w>
Wil len</w>
tri ed</w>
Zus timm
Zustimm ung</w>
zahlreich e</w>
righ tly</w>
kl ang</w>
neu er</w>
an schließen</w>
Un gar
low er</w>
Weit eren</w>
ck ed</w>
notwendi gen</w>
ke ep
er lei</w>
pen al
cri tic
ein gesetzt</w>
Gesetzgeb ung</w>
ele k
Nach bar
candi date</w>
überhaup t</w>
exac tly</w>
perman ent</w>
E ast</w>
steu er
Mi ß
ME Ps</w>
p il
G lau
übri gens</w>
loo king</w>
1 8
Ger ichtsh
vis it</w>
e ed</w>
befür wor
z one</w>
Wo chen</w>
fre i</w>
ch ap
conv inc
fi ve</w>
conclu de</w>
mor ning</w>
gram men</w>
m ur
Politi ker</w>
r ying</w>
bar keit</w>
mi grants</w>
constitu te</w>
ti k</w>
conflic ts</w>
fac ing</w>
l or
wär tige</w>
R and
Grupp e</w>
u ß
le h
Mon ti</w>
De fin
- European</w>
w at
E astern</w>
mo vement</w>
off ens
every thing</w>
li ving</w>
enth al
R ules</w>
di gt</w>
bet on
Mi o
w ants</w>
rema ins</w>
milit är
stimm ung</w>
ehrgei zi
ö pf
Ir land</w>
eval uation</w>
so fern</w>
öffent liche</w>
us eful</w>
t ations</w>
N RO</w>
Kon sul
Lebens mittel
advanta ge</w>
Al liance</w>
par la
Be weis</w>
at or
V is
Environ ment</w>
besteh enden</w>
vor anzu
resp ected</w>
de ten</w>
9 8</w>
Mio .</w>
1 50</w>
f ran
comp ati
er war
Dru ck</w>
kul turel
sel f-
se par
te en</w>
direc tives</w>
open ing</w>
l a</w>
gegen sei
H U</w>
stru ktur
l isten</w>
ass ure</w>
Mittel punkt</w>
an statt</w>
e ten</w>
t ou
5 3
ch tung</w>
Beschl üsse</w>
K yo
Abgeordne te</w>
Afri can</w>
transpar ent</w>
groß es</w>
Ver wendung</w>
R au
writ ten</w>
ele ments</w>
politi scher</w>
wer t</w>
üs sel
ih res</w>
Ent wurf</w>
as king</w>
suffici ent</w>
M ad
Ju gend</w>
decisi on-
con nec
re mind</w>
an o</w>
zah lt</w>
uni k
ss ed</w>
Gener al</w>
E I
ta ins</w>
2 1</w>
Ver stän
Be wer
E st
ge zogen</w>
subsi dies</w>
Nu tzen</w>
Region al
aus schließlich</w>
th or
n ation</w>
Zah l</w>
op le</w>
certa in
challen ges</w>
inten ded</w>
unterschied liche</w>
Milli ar
aussch usses</w>
my self</w>
A ktionen</w>
be tr
Medi en</w>
200 </w>
Kontrol l
tra v
spee ch</w>
ich ts
gre s
isti sche</w>
dischar ge</w>
Pro c
some times</w>
Europ e
initi al</w>
S V</w>
H auses</w>
high er</w>
ver sichern</w>
bu ch</w>
n is
sich ten</w>
gere cht</w>
Proto col</w>
caus ed</w>
z en
x em
letz ungen</w>
explo itation</w>
6 -0
un zu
c ke</w>
tem porary</w>
bri tischen</w>
Kön i
di c
To des
ge geben
P flicht</w>
F lü
hän gt</w>
enti re</w>
enti rely</w>
di ent</w>
Al li
Ein klang</w>
de alt</w>
begrü ßen</w>
d or
fail ed</w>
autom ati
d ated</w>
gefü gt</w>
te ten</w>
si ehe</w>
P len
minim um</w>
g keits
del ay</w>
ex ist</w>
Struktur fonds</w>
Erfahr ungen</w>
at tet</w>
mark s</w>
aff t</w>
as se
beton t</w>
Feh ler</w>
di mension</w>
pub l
Janu ar</w>
aus drücklich</w>
a men
ti ally</w>
c am
sc ope</w>
high ly</w>
sp ent</w>
P lan
c ra
pe ti
Pe ople</w>
c o</w>
Katastro p
schü tzen</w>
Un i
t ab
P T</w>
bei getragen</w>
inform ed</w>
Aus bildung</w>
indepen dent</w>
Mon at</w>
so dass</w>
Harmon isierung</w>
Ju ly</w>
haup ts
haupts äch
Mar kt
Er d
ander em</w>
K ü
C ol
ar us</w>
decisi ve</w>
B en
sch ung</w>
r icht</w>
cho ice</w>
Milliar den</w>
Ju li</w>
ten en</w>
per c
I t</w>
p utting</w>
g lie
Verwal tung</w>
cu st
il leg
Spa in</w>
R aum</w>
humanit arian</w>
bre iten</w>
c las
bedauer lich</w>
danger ous</w>
ausgew o
be coming</w>
set t
man age</w>
coordin ation</w>
re presents</w>
constan tly</w>
medium- si
Investi tionen</w>
ge än
gin n</w>
ben en</w>
ur ally</w>
shi ps</w>
ge wäh
buil d</w>
me tho
än den</w>
gi ves</w>
Mittel n</w>
wün sche</w>
sib ly</w>
je tz
mehr eren</w>
c at
ateg y</w>
Str ategy</w>
renew able</w>
T ro
wa it</w>
Me tho
B ro
di gung</w>
an gen
ma ßen</w>
re fer</w>
wesent lich</w>
men ts
am ong
among st</w>
tic s</w>
to -
lat z</w>
Hung ary</w>
Stra ß
distribu tion</w>
Eff izi
Effizi enz</w>
wh il
Ein sch
spr ün
oper ating</w>
ris ks</w>
f eld</w>
fort setzen</w>
respon d</w>
grenz ung</w>
dra wn</w>
te x
re ser
Verstän dnis</w>
e u
vi g
akzep tieren</w>
zep t</w>
For derung</w>
aus gehen</w>
well -
ur gent</w>
zu ständig</w>
we ap
wir tschaft</w>
submit ted</w>
whil st</w>
ent sch
Defin ition</w>
Sit z
dis appoin
des er
Bürgerbeauftra gten</w>
qu e</w>
Au stausch</w>
S pe
resol ve</w>
wieder um</w>
Leg isl
o st
gew öh
fish er
ab sen
cap able</w>
i cial</w>
ab solu
in hal
citiz en</w>
W unsch</w>
Vor geh
Ma ßnah
i red</w>
re move</w>
stru ction</w>
gen des</w>
CO 2</w>
Gegen satz</w>
1 .
ordin ary</w>
f ish</w>
chan n
grenz überschreit
Wirk lichkeit</w>
op position</w>
Par tei</w>
Be griff</w>
Er richtung</w>
y es</w>
gel eit
beglück wünschen</w>
c entral</w>
ol s</w>
7 .</w>
So ci
Minis ters</w>
suffer ing</w>
ro l
erfol greich</w>
zeich nen</w>
altern ative</w>
Ver kehr</w>
fer tigt</w>
commit ted</w>
A ra
great est</w>
Komm un
Vorsit z
Aktiv itäten</w>
W al
ru n</w>
be kräf
Ir an</w>
a kt</w>
Verbesser ungen</w>
Bot schaft</w>
fran zös
ih eiten</w>
o il</w>
se em</w>
äh n
erzi elen</w>
Rech nung</w>
er warten</w>
K räf
decision- making</w>
manufactur ers</w>
Überein kommen</w>
ger en</w>
ein be
f em
sol ve</w>
An träge</w>
prin zi
verantwor tungs
wesent lichen</w>
schi ed</w>
vot es</w>
wirk lichen</w>
inclu des</w>
be kämpfung</w>
pro por
govern mental</w>
Leit linien</w>
A si
1 7</w>
Frieden s
er mög
car ry</w>
si m
contribu tions</w>
derzei tigen</w>
Pri v
bring ing</w>
gel ten</w>
ali a</w>
hervor heben</w>
+ </w>
t on</w>
G lück</w>
se tzt</w>
Vor teile</w>
at titude</w>
bür ger</w>
be handeln</w>
gleich heit</w>
ob viously</w>
Ih rem</w>
Vorsch lägen</w>
durch führen</w>
er lau
Be ginn</w>
fre edoms</w>
O l
an gt</w>
convinc ed</w>
awaren ess</w>
verbesser t</w>
appli es</w>
trei ben</w>
vol len</w>
in ation</w>
Klimawand el</w>
Ein druck</w>
T ä
Aktionsp lan</w>
D ut
Hinder nisse</w>
- up</w>
sto od</w>
S weden</w>
w est
requi res</w>
as sen</w>
Pro di</w>
tra g
person al</w>
Anhör ung</w>
Konfli kte</w>
techn ical</w>
propos es</w>
wol lte</w>
Am ts
z .</w>
Kon sen
Ver einten</w>
Pra xis</w>
so weit</w>
Zentral bank</w>
re le
Komm unik
medium-si zed</w>
Kolleg in</w>
Ab sicht</w>
erneu er
contribu te</w>
Ital ien</w>
ex pression</w>
organis ed</w>
f s
recommenda tion</w>
om men
ung ar
PP E-
Bes teu
Besteu erung</w>
on s
Konsequ enzen</w>
d le</w>
wh ere
t ally</w>
on d
re fu
fre qu
ex plan
Regel ungen</w>
ab use</w>
produc tive</w>
200 7-
Vor gehen</w>
K MU</w>
poli ce</w>
minis ters</w>
Resol ution</w>
verb in
wet tbewer
ho od</w>
drit tens</w>
ran ge</w>
jähr lich</w>
differ ences</w>
b ack
regel n</w>
1 6</w>
grund sätz
ak tu
mehr ere</w>
mon etary</w>
ur sprün
ju st
ag ing</w>
stre ichen</w>
gener ally</w>
le istet</w>
ss ing</w>
curr ency</w>
Richt linien</w>
be ziehungen</w>
Ein richtung</w>
design ed</w>
b ra
b ase</w>
pre fer
Minder heiten</w>
dama ge</w>
Bem er
schlä gt</w>
deci ded</w>
ic k</w>
Prü fung</w>
announ ced</w>
guaran tee</w>
Bed ar
Schul z</w>
Ein fluss</w>
Gesch ichte</w>
Bel arus</w>
um setzen</w>
ent schieden</w>
rech tliche</w>
wer k</w>
1 6
hear t</w>
lo g
bereit et</w>
2 3</w>
intro du
un certain
Balk an</w>
l -
oll ar</w>
entwick elten</w>
li ation</w>
Agrar politik</w>
Um fang</w>
W e</w>
Frem den
gen ehmi
er leich
Kon ta
g ä
Auf gaben</w>
K roati
i b
mom ent
Stra s
Konsen s</w>
re solutions</w>
Eisenbah n
Ver rin
ur teilung</w>
respec tive</w>
V an</w>
ermög licht</w>
at en
in fl
Or d
Entwick l
F inn
EI B</w>
pursu e</w>
Stras bourg</w>
be fassen</w>
Ü bri
th ern</w>
S port</w>
s äm
E l
hauptsäch lich</w>
lich em</w>
Mom ent</w>
sor gung</w>
gleich e</w>
actu al</w>
alis m</w>
Ein richtungen</w>
Mon ten
op timis
Monten e
determin ed</w>
lu tion</w>
fan gen</w>
institution ellen</w>
fo ur
Verhäl tnis</w>
b au
depen dent</w>
i eht</w>
olo gical</w>
Gemein schaft
funda ment
un t
wi d
199 5</w>
beg in</w>
gan gs</w>
off icial</w>
mo ves</w>
wesent liche</w>
wichti gste</w>
angewand t</w>
n icht
Kri eg
fe der
Übri gen</w>
as sen
besonder en</w>
liber alisation</w>
c ent
ex por
Ein zel
sen d</w>
ar ri
Stra ße</w>
klar en</w>
k il
f ru
akti v</w>
l auf
ver rin
our able</w>
ö st</w>
entscheiden d</w>
be kann
attemp t</w>
li mm
credi bility</w>
bes tim
Ver samm
Proc ed
äuß ern</w>
reques ts</w>
An ti
defin ed</w>
k raten</w>
sh aring</w>
ern s
sym pa
C openhagen</w>
pay ments</w>
g l
Al s</w>
re member</w>
u ten</w>
l ess
unterschied lichen</w>
erfol gre
lo sen</w>
4 -0
anti -
ti sing</w>
ausgew ogen</w>
form al</w>
z o
Straß burg</w>
ge hoben</w>
fac ed</w>
eini ger</w>
kor re
entwick lung</w>
ver kehrs
tr ying</w>
Au ge</w>
Z w
abhängi g</w>
Fra mework</w>
de gre
sp ite</w>
k ap
prec ise</w>
beru ht</w>
wider sp
Kl ein
e as
Mo del
j ah
entfer nt</w>
si diar
li erung</w>
gest alten</w>
ein treten</w>
a sion</w>
be antwor
N L</w>
C he
achie ving</w>
diar ity</w>
B lo
Beisp iele</w>
subsi diarity</w>
fu gnisse</w>
wat ers</w>
in st
Verwal tungs
k oh
Stra f
Ent last
f ischen</w>
tor y</w>
flexi ble</w>
s ort</w>
g la
contribu ted</w>
pal ästinens
k aum</w>
Stär kung</w>
K openhagen</w>
dist inc
A 5-0
SM Es</w>
Stabil ität</w>
siden ten</w>
absen ce</w>
bil den</w>
Ju gend
b illi
gebau t</w>
derar tige</w>
Ungar n</w>
b it</w>
inte gri
co ver</w>
fi x
sim ple</w>
zweifel los</w>
a da</w>
st am
Emis sionen</w>
ma g</w>
5 1</w>
wle d
h ence</w>
fäl lt</w>
gu res</w>
fi gures</w>
Sec urity</w>
exis tence</w>
aff en
geän dert</w>
jün gsten</w>
. m
r uss
qu alität</w>
keep ing</w>
Cha m
perspec tive</w>
is ely</w>
e asi
H il
jetz igen</w>
ern st</w>
ex port</w>
pa ying</w>
leben s
s ser
D e</w>
In fra
le istung</w>
hin gewiesen</w>
For t
ver wal
pro ved</w>
ze ß</w>
mit einander</w>
er geben</w>
Konfli kt</w>
Ele ment</w>
r ing
d dle</w>
ge führten</w>
schwer wie
in f
halten s
bilater ale</w>
I V</w>
Verbin dung</w>
den k
ju di
d auer
v on
d on
Fol ter</w>
Ta gen</w>
hervor gehoben</w>
Hinter grund</w>
sterre ich
continu ing</w>
k am</w>
Doku menten</w>
Kra ft
an ten</w>
happen ing</w>
wer k
n issen</w>
mentar ischen</w>
ein stimm
chil d</w>
lis ten
Ru le</w>
im ports</w>
ge halten</w>
com pre
an ische</w>
Verf assungs
bes ei
famili es</w>
sec tors</w>
trans fer</w>
mand ate</w>
offens ichtlich</w>
spra chen</w>
ab sur
Afri ka</w>
I T</w>
Gebie ten</w>
compre hen
alloc ated</w>
t ürk
8 0</w>
gew ün
Liber alen</w>
proceed ings</w>
is ts</w>
Di es
Respe kt</w>
sicher zustellen</w>
for t</w>
b y
fun c
Sor ge</w>
spe ktive</w>
Verrin gerung</w>
p assung</w>
An passung</w>
Ge b
comp ly</w>
c el
nat urally</w>
regel ung</w>
W ert</w>
Alli anz</w>
s ought</w>
ver teidi
weap ons</w>
cri mes</w>
gest attet</w>
gr ant</w>
C hi
201 1</w>
Inter nationalen</w>
tax es</w>
EG </w>
P O
comple ted</w>
won der</w>
Democ ratic</w>
tac kl
elek tron
ra ised</w>
rep ly</w>
wil li
C roati
urop ä
tra ge
erfül len</w>
erns th
n a
ju d
re turn</w>
f is
i ght</w>
fäl le</w>
stri c
op posed</w>
lie be</w>
aus sprechen</w>
proper ly</w>
Bes onder
Ge währ
la id</w>
u de</w>
respekti eren</w>
Umwel tsch
u si
le ading</w>
A chtung</w>
emer gency</w>
me th
meth od</w>
pe ac
Vor bereit
pay ment</w>
ad voc
num bers</w>
Ver mitt
ti ges</w>
W ichti
Sta at</w>
ko ordin
suffer ed</w>
or al</w>
zufrie den</w>
Mittelme er
verstär ken</w>
protec ted</w>
t est</w>
Le ist
tor ture</w>
den jenigen</w>
N ah
Ihr en</w>
wi der</w>
nor mal</w>
Grenz e</w>
ver fol
region ale</w>
á n
correc t</w>
Reg ulation</w>
kein es
wä sser
erneu t</w>
erforder lichen</w>
D rit
bestimm ten</w>
simp li
deb ates</w>
mo dern</w>
Kontrol len</w>
rah men</w>
jen e</w>
Sub sidiar
da t</w>
immedi ately</w>
demonstr ate</w>
tion ing</w>
stra fe</w>
T he
cu t</w>
ge gangen</w>
Rechts grund
ä fen</w>
sch lagen</w>
Schl üssel
vi er
sch es</w>
particip ate</w>
c er</w>
er öff
En ga
inform iert</w>
Flü cht
pro vision</w>
Stu dien</w>
gro unds</w>
unterstü tze</w>
oblig ations</w>
invol vement</w>
c au
individu als</w>
associ ation</w>
b l
promis es</w>
ahr ungs
rel ativ</w>
geb il
innov ation</w>
ei gen
Ide e</w>
bi g</w>
ver s</w>
aus wärtige</w>
gen ü
prob ably</w>
min orities</w>
einbe zogen</w>
plann ing</w>
Chin ese</w>
räu men</w>
nachhal tigen</w>
or den
under taken</w>
reco very</w>
n un
c s</w>
region alen</w>
pro je
r ich
fün f
ho he</w>
wichti ges</w>
vor an
mö gen</w>
verstär kt</w>
Bei fall</w>
eas y</w>
gesam te</w>
Ber lin</w>
wissen schaftlichen</w>
be fasst</w>
el im
suffici ently</w>
hän gen</w>
Parla ments
An n
unter nommen</w>
Proced ure</w>
Liber alisierung</w>
Kommission sprä
itä tsp
mer ken</w>
rie g</w>
tin i</w>
ü b
evi dence</w>
weit e</w>
Kre di
eingesch ränkt</w>
verab schie
under min
aff ect</w>
Mad ri
Selb st
Jun e</w>
9 9</w>
Ministerprä sident</w>
ach es</w>
verlei hen</w>
ß land</w>
par ty</w>
highli ghted</w>
dar aus</w>
.m .</w>
neh men
C 5-0
An merk
neu n</w>
ent weder</w>
ier te</w>
ch in
US -
anzu wenden</w>
A C
Den mark</w>
G ü
Vertra gs
ti ere</w>
str ategie</w>
fre ie</w>
att ack</w>
staat lichkeit</w>
er mu
help ing</w>
Doku ment</w>
for c
co operate</w>
ven tionen</w>
att acks</w>
schaf tliche</w>
vor her
a ver
Mar ch</w>
ger ne</w>
ASEA N</w>
Zuständi gkeits
allgem ein</w>
au l
zi ert</w>
ri es</w>
da n</w>
ra el
net work</w>
ander s</w>
tax pay
Bel gi
g aran
R um
auth or
la w
discuss ing</w>
be ziehung</w>
appe al</w>
erleich tern</w>
P ati
z ell
tr ust</w>
ob serv
r o</w>
ment ari
K ing
fin de</w>
tre ated</w>
al itäts
Gali ci
Or t</w>
er ungen</w>
get ting</w>
des ire</w>
weiter er</w>
seri ously</w>
fahr ens</w>
Bud gets</w>
o v</w>
P f
T O-
to ol</w>
di vi
Ar ten</w>
Pu blic</w>
ent gegen
viol ations</w>
Min uten</w>
star ken</w>
D a
z -
A ber</w>
Ein beziehung</w>
ten z</w>
st em</w>
Köni greich</w>
9 0</w>
den kt</w>
G est
einstimm ig</w>
di g
Erzeu ger</w>
H ei
Montene gr
Erfahr ung</w>
minis ter
W äh
mo bility</w>
ger s</w>
contin ues</w>
bwürdi gkeit</w>
langu age</w>
p ien</w>
ver ehrte</w>
fu hr
ernsth af
s ü
form u
ma y
strength ening</w>
R ent
introdu ce</w>
elec tion</w>
bel angt</w>
Gebie te</w>
Po ten
U N
unabhängi g</w>
i en
Liber al</w>
recogn ised</w>
deta il</w>
da m
bar er</w>
G eh
ic es</w>
disku tieren</w>
aus ende</w>
regre t</w>
glau ben</w>
Ru ßland</w>
thous ands</w>
über wach
o ten</w>
g an</w>
ackno wled
zu gleich</w>
genu ine</w>
justi fied</w>
Syst eme</w>
ta ge</w>
L ati
ver k
detail ed</w>
p ie
bro ad
tab el</w>
th e
be handlung</w>
- Fraktion</w>
Menschenrechts k
Ar gu
neu </w>
b is
positi v</w>
un denen</w>
Lati n</w>
ver sion</w>
pap er</w>
ron t</w>
do m</w>
zuneh men
att le</w>
publ ished</w>
exc ep
B undes
seri es</w>
st ör
y our
ak tive</w>
ful fil
Inform ation</w>
f f</w>
G an
verur teilen</w>
chan ged</w>
P läne</w>
Tre aties</w>
N ahrungs
sol cher</w>
mur der</w>
zeu ge</w>
M er
un er
Sch aden</w>
lin ed</w>
sch limm
gemeinsam er</w>
da ily</w>
p at
Überein stimmung</w>
civi li
af f</w>
Funda mental</w>
gest atten</w>
an wes
safegu ard</w>
Mon ate</w>
B ra
Vor aussch
hon ourable</w>
Entwickl ungsh
j em
conci liation</w>
c ity</w>
Er höh
ga ve</w>
spiel t</w>
h nung</w>
Mechan is
der ly</w>
so und</w>
Verteidi gungs
vo ur
is tic</w>
be ha
be kämpfen</w>
bereit gestellt</w>
br ings</w>
ch sel
ge eig
A C</w>
d omin
über prüfen</w>
mittel t</w>
prec isely</w>
künf tigen</w>
high -
compens ation</w>
L am
ti v
Rechts staatlichkeit</w>
Pal ästin
fol gende</w>
p li
fi gh
Aspe kten</w>
tre aty</w>
exam ine</w>
s mo
mul ti
S ign
zahl reichen</w>
refer red</w>
ben ach
Ver zö
In v
innov ative</w>
Gel d
Nieder lan
draf ted</w>
declar ation</w>
in fra
pie ce</w>
ges ell
Rum än
da cht</w>
An zahl</w>
un able</w>
sp ace</w>
ban ien</w>
Al banien</w>
H el
Alb ania</w>
Am eri
tri fft</w>
Ma y</w>
niem and</w>
Todes strafe</w>
compati ble</w>
quot as</w>
Bur ma</w>
clos er</w>
ein setzen</w>
Krimin alität</w>
o m</w>
origin al</w>
ver folgt</w>
entsp richt</w>
einheit lichen</w>
verfü g
des cri
produ ktion</w>
H off
pass ed</w>
en falls</w>
meas ure</w>
Demokrati schen</w>
ameri kanischen</w>
gel assen</w>
o w
rail way</w>
pos sibilities</w>
st ec
sh own</w>
es ter
y ester
T un
ge -
för der
et schen
Au ch</w>
King dom</w>
au di
ab or
a po
eingere ichten</w>
mög liche</w>
Ta g</w>
appro ve</w>
organiz ations</w>
si des</w>
re siden
deep ly</w>
Analy se</w>
system ati
konkre ten</w>
Wieder auf
dou b
ul ture</w>
Berich ten</w>
unanim ously</w>
zukünf tige</w>
con struction</w>
größ eren</w>
ko sten</w>
Famili en</w>
In halt</w>
H am
val u
lat est</w>
- called</w>
so -called</w>
be obach
Montenegr o</w>
zu gehen</w>
beru f
Balk ans</w>
er stens</w>
cour age</w>
haf te</w>
Zuständigkeits bereich</w>
her z
gesch ü
legitim ate</w>
encour aged</w>
Sch ä
he al
zü glich</w>
vor ges
ger aten</w>
be zo
A gentur</w>
einzi gen</w>
es sion
ati ver</w>
dies bezüglich</w>
adv ance</w>
ag u
kl ein
zu stimmen</w>
Abstimm ungs
ti me
Ho ch
ic s</w>
exerc ise</w>
Beh in
Gr unde</w>
Erhöh ung</w>
An forderungen</w>
D ro
Schl uss</w>
f are</w>
Pol and</w>
p i
Europe ans</w>
nö tig</w>
at z
akzep tabel</w>
typ es</w>
unt ary</w>
dies bezü
comprehen sive</w>
An sch
vorges eh
frau d</w>
at trac
geb ie
st atisti
Gipf el</w>
veröffent licht</w>
An sichten</w>
bri ef
wa k
we ak
absolu t</w>
gen ie
Kin dern</w>
sol ely</w>
Grupp en</w>
comple te</w>
gew ach
al ien</w>
of s</w>
Un d</w>
ar der</w>
Ha arder</w>
succ eed
W erte</w>
ed on
Dritt länder</w>
spä t</w>
acti vity</w>
hier bei</w>
under stood</w>
Schwer punkte</w>
W affen
char ac
Be obach
B au
Ein kommen</w>
ori es</w>
Gesch lech
Dritt staaten</w>
st aff</w>
leist ungs
ab geschlossen</w>
exam ples</w>
man ner</w>
em i
Mechanis men</w>
yester day</w>
bel e
Chan c
prä sen
Ver träge</w>
app el
E S
Zah len</w>
l l
degre e</w>
Priv at
sen den</w>
H i
tz lich</w>
tin y</w>
Plan ung</w>
hand s</w>
gemein schaftlichen</w>
K lar
Um stände</w>
fizi ert</w>
eingere icht</w>
L D
An ge
vehic les</w>
A gency</w>
proz esses</w>
dis kriminierung</w>
bed ing
unfortun ate</w>
pla yed</w>
N i
am tier
Parla mente</w>
stell ungen</w>
is iert</w>
n either</w>
dise ase</w>
gelten den</w>
übri gen</w>
charac ter
ma p</w>
fe ar</w>
gesund heit</w>
indepen dence</w>
Ver haltens
j ur
s icht
h .</w>
J o
strö m</w>
er griffen</w>
E L</w>
opin ions</w>
geo graph
l am
um t</w>
wir kt</w>
vo ice</w>
prof ession
ges t</w>
Lu xem
associ ated</w>
spä ter</w>
cover ed</w>
wettbewer bs
Hö he</w>
ch ance</w>
fi es</w>
reduc ed</w>
12 .00</w>
lea der</w>
geb ühr
in a</w>
Tran sport</w>
econom ically</w>
Spra che</w>
Verb rech
resol ved</w>
ta il</w>
ange kün
bestim men</w>
d opp
al ter</w>
K ategor
out standing</w>
Turk ish</w>
vor genommen</w>
ex per
mo di
seh e</w>
struc tures</w>
fre u
Zuständi gkeiten</w>
Er forder
behin d</w>
under standing</w>
o ds</w>
fe el
r ural</w>
Organ e</w>
R adi
z ation</w>
soli di
ot ten</w>
ordn ungen</w>
be an
Glau bwürdigkeit</w>
Bedar f</w>
nen nen</w>
effe ktiv</w>
konkre t</w>
E mp
N ation
K ha
cel on
7 2</w>
com par
über greif
Res er
Bal tic</w>
T im
pris on
mar gin
effizi ente</w>
len dung</w>
Bro k</w>
Vorsch lags</w>
Auf nahme</w>
s ed</w>
stän den</w>
appreci ate</w>
sus p
Energi ever
rol le</w>
Jun i</w>
Innov ation</w>
B re
man i
no on</w>
op pose</w>
an da</w>
Aus nahme</w>
bo ard</w>
th in</w>
eindeu tige</w>
con tradi
Entlast ung</w>
commun ities</w>
tradi tional</w>
D es
bes it
ne ten</w>
contrac ts</w>
Hand eln</w>
Gener al
nun mehr</w>
gr enzen</w>
Re form
rie ben</w>
ent wurf</w>
entwick eln</w>
spo ken</w>
th i
hervorra gende</w>
L ond
E P</w>
An liegen</w>
Lond on</w>
us es</w>
Be tra
Ne ther
9 5</w>
A ktion</w>
deli ghted</w>
erm äch
M acht</w>
auf treten</w>
Ir ish</w>
Zusammen halt</w>
K rieg</w>
g fäl
All gem
bemü hen</w>
g ment</w>
Verhand lungs
equ i
g as</w>
Nor th</w>
hand els
bel ong</w>
richti ge</w>
Sign al</w>
gn issen</w>
W ün
Re alität</w>
bes u
ple as
Schen gen
a in</w>
alis tische</w>
sus pen
Tra de</w>
Al tern
Mit teilung</w>
or d</w>
gel öst</w>
it ali
sicher stellen</w>
Einsch ränkungen</w>
ob vious</w>
sp ending</w>
et ing</w>
poli tically</w>
grupp en</w>
ücksichti gung</w>
aus reichend</w>
ne mark</w>
sch w
k ü
lei den</w>
Sta ates</w>
b our</w>
herr scht</w>
inter ess
bur den</w>
Ko operation</w>
exc eption</w>
se ek</w>
acci dents</w>
fem ale</w>
d aten</w>
si x</w>
su m
effizi enz</w>
Sch reiben</w>
we is
s agt</w>
Min dest
Ber ücksichtigung</w>
ver folgen</w>
vergen ce</w>
vorhan den</w>
verabschie det</w>
gu ter</w>
S outh</w>
con tains</w>
er wä
zäh len</w>
leg ally</w>
sub stance</w>
Stu die</w>
u ld</w>
He alth</w>
mög lich
möglich st</w>
suff er</w>
pas sen
E Z
Fort setzung</w>
constitu tional</w>
S ing
führ ungen</w>
gest unde</w>
kom ple
Verteidi gung</w>
&#9 1
d ritte</w>
Palest ine</w>
Pu tin</w>
ster ben</w>
run ning</w>
j e</w>
i ds</w>
ständi ge</w>
Cham ber</w>
he ad
ie gel
Ser bi
S ou
H al
buil dings</w>
Ele mente</w>
re min
A 4-0
ör per
H and</w>
vorgeschla gene</w>
em es</w>
ko st
Ord nung</w>
o ben</w>
9 2</w>
Fun ktion
betr äch
Austri an</w>
conduc ted</w>
mü ß
Maßnah me</w>
sup porting</w>
Wider stand</w>
wässer n</w>
Ti ere</w>
sett le
tr en
Steu ern</w>
mög lichkeiten</w>
Febru ar</w>
La e
gel angen</w>
chin esischen</w>
Gedan ken</w>
re st
sp anischen</w>
behin dert</w>
ür en</w>
ra il</w>
Außen -</w>
I C
an gehen</w>
and in
f elt</w>
C om
beschäf tigen</w>
inter nation
H y
Dan ish</w>
0 s</w>
bureauc racy</w>
BS E</w>
Bar celon
bemü ht</w>
to ok</w>
um s
K </w>
Wir kung</w>
to tally</w>
depen ds</w>
com promises</w>
hil fe</w>
Niederlan den</w>
Parlia mentary</w>
introduc ed</w>
kl and</w>
do w</w>
f assung</w>
demo kraten</w>
su ms</w>
m ly</w>
ob ser
tron ic</w>
rech ts</w>
at ure</w>
Mr d.</w>
ir y</w>
Volks gesundheit</w>
fal sch</w>
it te</w>
fähi gen</w>
C am
Pre is
Vor ran
pas s</w>
3 ;</w>
ment ation</w>
er ate</w>
P at
aver age</w>
stru ktur</w>
se ek
Proble men</w>
einfach en</w>
seek ers</w>
sha red</w>
Sicherheits politik</w>
umfassen den</w>
H IV</w>
li e</w>
Mobil ität</w>
separ ate</w>
c ars</w>
Binnenmark tes</w>
zurück zu
al ed</w>
vor rangi
be yon
beyon d</w>
estim ated</w>
penal ty</w>
Kyo to</w>
laun ched</w>
Stabil itäts
gan zen</w>
wiederhol en</w>
Kapit el</w>
west lichen</w>
unver züglich</w>
religi ous</w>
im pression</w>
A f
advanta ges</w>
coher ence</w>
Enga gement</w>
behör den</w>
F ir
exten sion</w>
ad d</w>
gel y</w>
enti al</w>
ch mal</w>
den den</w>
expla in</w>
str ong
ier tes</w>
consul tation</w>
Haushal ts</w>
K ris
unterschied lich</w>
we hr
comm it</w>
constitu tion</w>
trav el</w>
parlia ments</w>
P L</w>
F P</w>
ar ran
gewün scht</w>
ar ities</w>
behaup ten</w>
Er wä
n -
Er kenn
richti gen</w>
gesch ieht</w>
l ern</w>
um welt
priv aten</w>
presen ce</w>
cra ft</w>
Zwe ck</w>
wedi sh</w>
Sp iel
S wedish</w>
T isch</w>
den falls</w>
par ag
parag rap
Stabil itätsp
sch wer</w>
ter ed</w>
dür fte</w>
ri gi
ver letzt</w>
Ham as</w>
Str ate
v ent</w>
g otten</w>
eli gi
care fully</w>
Zivil gesellschaft</w>
As sozi
mo del
mittel -</w>
b ed</w>
offen bar</w>
g ere</w>
lan gt</w>
Zi ff
D ä
Dä nemark</w>
sch wei
ut ung</w>
andels on</w>
vertre ten
k riterien</w>
strateg ischen</w>
e chte</w>
isch en
ad just
genau so</w>
Slo v
Plen um</w>
Mär z</w>
cam pa
Ma i</w>
ho ch</w>
el te</w>
Grün de</w>
ein räumen</w>
Ch ance</w>
zügi g</w>
fu el</w>
län ger</w>
supp ly</w>
lu ß
sor gfäl
pol lution</w>
dic t
institution elle</w>
R O
H ol
sach en</w>
Netz e</w>
con tra
di versi
del a
tex ts</w>
bil d</w>
foc used</w>
Haushaltsp lan</w>
critic ism</w>
pos sibly</w>
rein for
ing ness</w>
elim in
Soci alist</w>
ell schaften</w>
om e
ver langt</w>
Aus be
sit u
star ted</w>
le m</w>
be denken</w>
CO D</w>
Be fugnisse</w>
Sen kung</w>
G ar
len ken</w>
Grün buch</w>
Be denken</w>
bein gs</w>
ali gen</w>
sti ll
li f
Ma astr
as h
har d</w>
bil dungs
adver tising</w>
Spra chen</w>
li ge</w>
Vol lendung</w>
Vereinbar ungen</w>
Wirtschafts krise</w>
bei de</w>
pos ite</w>
op posite</w>
5 -00
3 00</w>
Grund sätze</w>
schie de</w>
sp rech
im pose</w>
sä tzen</w>
J ourn
2 4</w>
institu tion</w>
plac ing</w>
vorgeleg te</w>
conduc t</w>
ad vis
ar ms</w>
proble me</w>
multilater al</w>
r ul
Wichti gkeit</w>
erklär en</w>
reli able</w>
M c
on going</w>
Außen minister</w>
durch zuführen</w>
zu legen</w>
verb undenen</w>
wor st</w>
ne w
B4 -0
ann ungen</w>
Sp annungen</w>
sti e
EG F</w>
thor ough</w>
man aged</w>
H ause</w>
S P</w>
signific antly</w>
pri ces</w>
Her steller</w>
genann t</w>
199 3</w>
Commission ers</w>
beha vi
facilit ate</w>
erweit ert</w>
flo or</w>
allgem eine</w>
strong ly</w>
isti schen</w>
gu ese</w>
Portu guese</w>
exclu sion</w>
H om
Stra ßen
Ital ian</w>
tr a</w>
ex tra</w>
gener ation</w>
comple tion</w>
commit tees</w>
so ver
vor aus
be findet</w>
gemeinsam es</w>
b are
speak er</w>
funktion iert</w>
pra g
tz te</w>
b ad</w>
Beschl uss</w>
Entwicklungsh ilfe</w>
Nether lands</w>
zi al</w>
d au
will ingness</w>
inter nationaler</w>
We ge</w>
parlia ment</w>
s lo
dustri e</w>
basi cally</w>
for gotten</w>
prof it</w>
ethn ischen</w>
stat ements</w>
langu ages</w>
M ann</w>
poin ted</w>
hom e</w>
re icht</w>
produc t</w>
ari es</w>
gew icht</w>
B on
zu folge</w>
ad vice</w>
medi c
Änderungsan trägen</w>
gen tly</w>
an geht</w>
Rechnungsh of</w>
un ited</w>
v in
bro ad</w>
A d
fa vour
Außen politik</w>
consoli date</w>
win den</w>
interes siert</w>
verursach t</w>
reg is
Posi tionen</w>
Ele k
ci de</w>
wor th</w>
alis tischen</w>
n ieder
consul ted</w>
in form</w>
it ten</w>
5 5</w>
E l</w>
No s</w>
genie ßen</w>
stan z</w>
def end</w>
außer orden
wer t
coun ter</w>
Rom ania</w>
an belangt</w>
lea ve</w>
lin k</w>
wel fare</w>
alis ten</w>
le c
häufi g</w>
n ations</w>
emp lo
Un abhängi
&#9 3;</w>
199 8</w>
Gesetz e</w>
ar tic
m bly</w>
Proz esses</w>
refu ge
gül tig</w>
M andelson</w>
über nehmen</w>
as se</w>
Blo kland</w>
0 5</w>
D ollar</w>
o technolo
en kt</w>
I I</w>
Unter schied</w>
glob alen</w>
nach drücklich</w>
frü h
er ous</w>
8 1</w>
t ack
tack le</w>
pati ents</w>
sc ru
&#91 ;</w>
s eines</w>
dien st
Span ien</w>
Zah lungs
Tour ismus</w>
min ority</w>
H -0
r or</w>
Er arbeitung</w>
ungs -</w>
r a</w>
Fra gestunde</w>
erklär te</w>
constitu tes</w>
ph en
la den</w>
ch er
Bemer kungen</w>
Croati a</w>
o se</w>
kra ft</w>
näch ste</w>
Rech ten</w>
ver kehr
gegenwär tig</w>
chan ging</w>
Russi an</w>
th al
tar get</w>
akzep tiert</w>
st ro
t ationen</w>
um zusetzen</w>
disa ster</w>
territori al</w>
govern ance</w>
Z un
und ed</w>
electri city</w>
ich erung</w>
tion ellen</w>
s hap
9 6</w>
Arbeits losigkeit</w>
Tra g
M ut</w>
ste ts</w>
elec ted</w>
zu letzt</w>
sto ck</w>
en ger</w>
uncertain ty</w>
Entschei dungs
neh mer
ass ur
In dustry</w>
wor l
Menschenrechtsk ommission</w>
harmon isation</w>
geh enden</w>
Lae ken</w>
metho ds</w>
wün sch
wor ks</w>
Dut ch</w>
ah ar
W all
b rief</w>
goo d
er arbeiten</w>
Verän derungen</w>
ber eiten</w>
ati vely</w>
fac ts</w>
mensch liche</w>
th ly</w>
fif teen</w>
abl es</w>
enti t
betri e
Ex is
gew al
in d
aus gerichtet</w>
pu blic
ti e</w>
p sy
höch sten</w>
stöß t</w>
Teil nahme</w>
sch auen</w>
fic ations</w>
itali en
Gegen stand</w>
At lantic</w>
Zyper n</w>
tackl ing</w>
Er weiter
Erweiter ungs
prac tic
Vor gang</w>
se kre
französ ischen</w>
be ge
g nen</w>
we alth</w>
p .m.</w>
Deb atten</w>
c auses</w>
Besch luß</w>
fünf zehn</w>
c ele
- Be
Fun ds</w>
plac es</w>
Assozi ierungs
schwieri gen</w>
e ar</w>
ver lässi
eri ode</w>
prepar ing</w>
bre ak</w>
zu el
ni ve
an gehört</w>
Doku mente</w>
endor se</w>
Zu stand</w>
er ing</w>
Rumän ien</w>
ur red</w>
fest zustellen</w>
C ulture</w>
ur gently</w>
regar d
Nach frage</w>
ge fördert</w>
frü her</w>
inter esting</w>
ac tors</w>
wor ked</w>
sam er</w>
ander es</w>
tran si
con ven
P act</w>
k n
Strate gien</w>
ati schen</w>
ah e
ec u
der og
unter streichen</w>
ten d</w>
ges to
Stru ktur</w>
Kin der
tran se
is rael
Mil ch
un be
sugges tion</w>
Kri tik</w>
Ni ger
Isra els</w>
Män ner</w>
sp end</w>
Aus gew
Besu ch</w>
B ru
u ally</w>
konkre te</w>
ra d</w>
c ateg
rec ord</w>
may be</w>
am m
besch leuni
spo ke</w>
tz ungen</w>
illi ons</w>
m illions</w>
elec tronic</w>
st ant</w>
terror ist</w>
Rahmen richtlinie</w>
T ausende</w>
Regierungs konferenz</w>
Subsidiar ität</w>
Tä tigkeit</w>
person en</w>
mis take</w>
ab leh
fol glich</w>
ung sin
applic ations</w>
psy ch
E rei
ken nen</w>
Beteili gten</w>
zeu g</w>
Unter schiede</w>
V ic
mer k</w>
reach ing</w>
geh ende</w>
ni ght</w>
for um</w>
omen -
fest stellen</w>
wirtschaf tlich</w>
G </w>
Über zeu
respekti ert</w>
practic es</w>
gri ffe</w>
Kommissionsprä sident</w>
usi as
einzu setzen</w>
red und
Sch wei
infra structure</w>
ru fen</w>
vorsch läge</w>
materi al</w>
sympa thy</w>
el derly</w>
w ahren</w>
mechanis men</w>
ich s</w>
E hr
einzu halten</w>
gemä ße</w>
2007- 2013</w>
ra sch</w>
W omen</w>
P S
un ität</w>
Imm unität</w>
vor legen</w>
off izi
high est</w>
Pro grammen</w>
atis mus</w>
Auf hebung</w>
K auf</w>
dis abled</w>
Gewal tt
ber at
gewöh n
Betrie be</w>
entsch lossen</w>
in sp
finanzi ert</w>
d än
Mit entschei
Mittelme er</w>
el se</w>
vorgeseh enen</w>
care ful</w>
BS E-
z á
wirk lichung</w>
Z e
st abil
cu ts</w>
lich -
time table</w>
ci ties</w>
transe uropä
spekti ven</w>
Res sourcen</w>
aus machen</w>
propor tion
ch s
C an
brief ly</w>
B ürokrati
ar m</w>
is te</w>
N ein</w>
wor se</w>
o genheit</w>
begrü ßt</w>
ener gie
Wettbewerbs politik</w>
H af
Ma z
tw o-
Kap az
Co de</w>
H us
Presiden ts</w>
Viel zahl</w>
z t</w>
ä lt</w>
Mein ungen</w>
Lis te</w>
Y outh</w>
Dies er</w>
tran spor
zw an
Ei gent
assu me</w>
W and
cons ci
ver letzungen</w>
s si
Wes tern</w>
le bt</w>
fac to</w>
adap ted</w>
ernsthaf te</w>
er mor
P latz</w>
deli ber
se eing</w>
ish eries</w>
si gn</w>
ge achtet</w>
konstru ktive</w>
regi erungs
transat lantic</w>
For men</w>
Bewer tung</w>
h or
In sel
li ed</w>
ö kon
fis cal</w>
inn er</w>
p iel
k olo
Ausgew ogenheit</w>
M ex
3 2</w>
thre at</w>
cla im
dr ing
won ach</w>
quali fied</w>
E duc
mis sions</w>
re form
Sek tors</w>
geh and
coun tr
coher ent</w>
uni ons</w>
rele ase</w>
be danken</w>
en e
V ene
kein erlei</w>
air craft</w>
erwar tet</w>
ver zeichnen</w>
respon ding</w>
du mp
Ma ß
Legisl ativ
tel ep
some what</w>
h at
pri or</w>
at tra
ge prüft</w>
bri tische</w>
fisher men</w>
ti en</w>
lau t</w>
ver weisen</w>
Risi ken</w>
Mark tes</w>
resp ects</w>
fre iheiten</w>
il l</w>
es tion</w>
bo ok</w>
it är
m üs
lä ßt</w>
0 2</w>
ul ar</w>
open ed</w>
uni vers
uni que</w>
ein geführt</w>
ak ter</w>
schrif tliche</w>
ss on</w>
ackno wledge</w>
sat z
19 </w>
Fle xi
st ers</w>
Ver ordnungen</w>
neg ativen</w>
hy po
Verteidigungs politik</w>
re vi
im migrants</w>
Febru ary</w>
gewähr leistet</w>
ff s</w>
wes en</w>
sin cer
sincer ely</w>
jud gment</w>
ge zeigt</w>
er gän
An wen
A ble
Feh l
Gali le
Finanzi erungs
tradi tion</w>
neigh bour
out come</w>
Trag ö
Men ge</w>
Sch wä
ausgezeichne ten</w>
J ap
o ft
ide al</w>
neh me</w>
alis ts</w>
profession al</w>
incorpor ated</w>
ö sterreich
invol ves</w>
aim ed</w>
Fre ude</w>
- B4-00
vis a</w>
man chmal</w>
deta illi
re alise</w>
ra ises</w>
realis tic</w>
e fi
N ord
E D
vorgeleg ten</w>
pre viously</w>
di um</w>
steh ende</w>
An gehöri
Y ear</w>
Au gen</w>
Gest altung</w>
Educ ation</w>
any one</w>
Vorgeh ens
in gen</w>
m el
sol ches</w>
zi elen</w>
appl ause</w>
enjo y</w>
Nation al
tr au
Hin weis</w>
Ge or
particip ating</w>
Voraus setzung</w>
statisti cs</w>
Kompromis s</w>
effizi ent</w>
dän ischen</w>
G aran
fri ed
ba id
baid sch
Abgeordne ter</w>
belie ves</w>
form ally</w>
ar er</w>
a vi
An lagen</w>
Jahres bericht</w>
Au th
C AP</w>
Kroati en</w>
Qu oten</w>
ch ing</w>
veran k
Sor gen</w>
lab or
occ urred</w>
trans -European</w>
gr ations
S af
ent rep
entrep ren
entrepren eur
sch wedi
mean ing</w>
co decision</w>
ü nen</w>
be ten</w>
L ehr
sch emes</w>
har m
ap par
en g</w>
control led</w>
go al</w>
cl ause</w>
Konfli kts</w>
koh är
confir m</w>
Nor men</w>
Ent täu
s al
Ausspra chen</w>
Unter nehmer</w>
gewähr t</w>
genann te</w>
stat ing</w>
hinzu gefügt</w>
St ability</w>
bo o
mit glie
en heit</w>
wel chen</w>
Teil nehmer</w>
B itte</w>
Di ff
commit ments</w>
Lat ein
bedeuten den</w>
cele br
W ie</w>
be ur
pos es</w>
W asser</w>
F isheries</w>
fra g
vol untary</w>
co -
unmittel bar</w>
Democ rat</w>
to ols</w>
bar ri
angem essen</w>
fest geleg
geschü tzt</w>
D aten
se x</w>
C ze
k lu
an cies</w>
Madri d</w>
Tim e</w>
ar ten</w>
fores ts</w>
Energie politik</w>
a des</w>
de ckt</w>
her it
Wil l
Kon zentr
con vergence</w>
man gel
Able hnung</w>
on able</w>
erinn ert</w>
h one</w>
telep hone</w>
nü pf
dra wing</w>
spe ed</w>
aus einander
Tsch etschen
satis fac
stie g</w>
sib il
aus führ
begr enz
besser en</w>
St ellen</w>
ac ted</w>
feh len</w>
ri g
ließ en</w>
fa ßt</w>
Eur o-
2 .</w>
A L
Ab satz</w>
A K
ar di
Per spektiven</w>
oper ations</w>
A R
Be tru
bestä tigt</w>
st able</w>
ab gestimmt</w>
amoun ts</w>
repe at</w>
eit schaft</w>
Ber eitschaft</w>
consis tent</w>
W eg
iz ed</w>
ton n
tonn es</w>
ehr ten</w>
bestä tigen</w>
- Richtlinie</w>
i al</w>
vor ange
de x</w>
Mit t
gewis s</w>
inten ds</w>
Ger ichts
Kandi dat
ex tra
er grei
Absch affung</w>
at ur
Voraussch au</w>
dan ach</w>
Pak istan</w>
n ungen</w>
nation als</w>
ga in</w>
g rie
grie ch
ro und</w>
Qu estion</w>
S al
gr unde</w>
zu grunde</w>
trans l
zur ück</w>
da ble</w>
man ce</w>
entit led</w>
m ass</w>
W issen</w>
mit tag</w>
ver gleich
J os
6 6
E LD
gu il
guil ty</w>
wirtschaf tlicher</w>
k ept</w>
dou ble</w>
rati fiziert</w>
ö der
enth ält</w>
Dien ste</w>
da mals</w>
wirk same</w>
W ei
K uba</w>
199 6</w>
ge beten</w>
ten tion</w>
verm eiden</w>
jun ge</w>
haf ten</w>
l auf</w>
plann ed</w>
zentr alen</w>
us h</w>
zu erst</w>
fa il</w>
condem n</w>
rel atively</w>
E EC</w>
la y</w>
ökon om
b ul
eh em
außer halb</w>
Prinzi pien</w>
an bieten</w>
über winden</w>
ahe ad</w>
sel ec
Metho den</w>
Be we
c op
mon op
gro ß</w>
Kategor ie</w>
Ger ech
Gerech tigkeit</w>
l ar</w>
fri ends</w>
Flexi bil
tn is
y c
Führ ungs
cor ruption</w>
every body</w>
gleich berech
ah </w>
schwieri g</w>
Ameri ka</w>
di ert</w>
vorhan denen</w>
Kon vent</w>
wä l
Poli zei
Finanzi ellen</w>
al ities</w>
Krank heit</w>
rec all</w>
an te</w>
ausgezeichne te</w>
Schi ff
sensi tive</w>
rati fied</w>
Af gh
monit or</w>
überwach en</w>
su m</w>
negoti ating</w>
entschei den</w>
kon fli
d y
de hnen</w>
tur ned</w>
te m</w>
le ads</w>
I F
Frau en
dep end</w>
Institu tion</w>
Inv est
steu ern</w>
p ul
bes or
we gs</w>
judi cial</w>
all zu</w>
peac eful</w>
sec re
Sen sibil
b ürokrati
su mm
occ asion</w>
Di re
dien st</w>
arran gements</w>
ign or
la ws</w>
over come</w>
hal tigkeit</w>
erzi elten</w>
dan k
wo zu</w>
is mus
vorzu legen</w>
Vene zuel
Tsch ech
st ag
erfol gen</w>
der i
enter ing</w>
I D
stärk ere</w>
langfris tig</w>
Hand lungs
. -</w>
lar gest</w>
Betra cht</w>
führ enden</w>
rein force</w>
er er</w>
in ts</w>
beantwor ten</w>
ab stimmen</w>
clari fy</w>
s al</w>
Model l</w>
main tained</w>
aff ir
appe ar</w>
kräf te</w>
säm tliche</w>
en ced</w>
Ver k
Berichterstat ters</w>
enthal tenen</w>
An teil</w>
benach teili
t ari
über ein
Vor stellung</w>
B ir
ben efi
wor d</w>
di g</w>
Erforder nisse</w>
h under
gewach sen</w>
se chs</w>
sugges ted</w>
per for
perfor mance</w>
aussch uß</w>
re v
fail ing</w>
C uba</w>
W as</w>
Mi ddle</w>
grundsätz lich</w>
ro ads</w>
schä tzung</w>
mod ells</w>
promo tion</w>
em o
ra ise</w>
Pre s
pl ur
ach ten</w>
zi vil
wel ches</w>
rap id</w>
entsprech enden</w>
Bud get</w>
Menschenrechts verletzungen</w>
je denfalls</w>
leg ungen</w>
A z
sta g</w>
Luft fahr
intel li
erken nt</w>
bi gges
bigges t</w>
Krieg s
St ück</w>
Einw ände</w>
ir regul
F o
pak et</w>
wer fen</w>
M assen
ver lieren</w>
ear li
quali fizi
fortun ately</w>
sinn voll</w>
si eren</w>
n ine</w>
Betrie bs
be t</w>
entsprech end</w>
regard less</w>
ef s</w>
L ei
Er n
Unabhängi gkeit</w>
pp ing</w>
Fest legung</w>
n ungs
ün det</w>
wah l</w>
zu ständigen</w>
behavi our</w>
Ausbe utung</w>
er freu
star ting</w>
Man gel</w>
Dritt ländern</w>
ser ved</w>
no graph
Klar heit</w>
Fin land</w>
cre ated</w>
gew isse</w>
S ti
fa i
regi onen</w>
L auf
Finan zen</w>
re it
gres sion</w>
ad mit</w>
Di kt
glob aler</w>
Kommunik ation</w>
pen sions</w>
P ir
ber gen</w>
mi en</w>
Pre m
Vereini gte</w>
Su che</w>
statt dessen</w>
ti mat
V al
cho ose</w>
main taining</w>
Indi a</w>
we g
o- P
industri es</w>
v an</w>
War en</w>
bere iche</w>
sta y</w>
defin ieren</w>
St and</w>
al it
t ten</w>
besu chen</w>
Vor red
z it</w>
super vision</w>
Vol kes</w>
inter im</w>
Gel der</w>
mer e
ordnungs gemäße</w>
G on
tig te</w>
employ ers</w>
wor rying</w>
explan ations</w>
emplo ye
Mal m
star kes</w>
k m</w>
t wel
z ar
substan ces</w>
T onnen</w>
em pf
P hase</w>
ast ung</w>
distinc tion</w>
fre und
ess ing</w>
198 9</w>
sto cks</w>
nah m</w>
aul sen</w>
P aulsen</w>
Re de
er sch
A ben
Prem ier
frie di
kno ws</w>
fi el
T ha
Tha il
los ing</w>
b ol
ab ol
se iten</w>
refer ring</w>
G az
di gn
on- Strategie</w>
h ung
ob ject</w>
A 6-0
Konzentr ation</w>
ver boten</w>
teu er</w>
F I</w>
detail s</w>
B angem
a j
gerä te</w>
vor her</w>
k ür
oh neh
techn ische</w>
verteidi gen</w>
Man dat</w>
w ed</w>
nu tz
st a</w>
z enten</w>
ler nen</w>
ein m
ver hand
verhand lungen</w>
De tail</w>
tr in
A P
to s</w>
Ein stellung</w>
W erten</w>
in ev
199 7</w>
no ted</w>
Syst ems</w>
Regional politik</w>
Aus bau</w>
effec tiveness</w>
vor getragen</w>
sec u
de ad
Aus führungen</w>
gesch enkt</w>
Ge w
ch st
ss er</w>
wä sser</w>
ph y
un like</w>
indic ated</w>
er freut</w>
ie ty</w>
kulturel len</w>
mün dliche</w>
im mer
be wegen</w>
continu ed</w>
so fort</w>
u fen</w>
am ten</w>
zi g</w>
derar tigen</w>
sich ts
201 5</w>
ed n
In spe
Jah re
P V
necess ity</w>
fro h</w>
un fair</w>
Galile o</w>
adap t</w>
mechan ismus</w>
wh ate
pro u
tradi tionellen</w>
Sozial demokraten</w>
täu scht</w>
teil weise</w>
ze prä
besonder es</w>
I S</w>
Einwander ung</w>
all ed</w>
er läu
bo dies</w>
dra ou
Kha draou
figh ting</w>
Bedürf nisse</w>
la stly</w>
Z oll
sen sible</w>
Sp it
im port</w>
per su
Erzeu gnisse</w>
qu ar
beru hen</w>
dis advantage</w>
Is lam
Energi es
omen- Ru
omen-Ru ij
uc tural</w>
Gewaltt aten</w>
pla ying</w>
peri ode</w>
Inter essen
ein verstanden</w>
i .
wiederhol t</w>
Vi zeprä
ut ter</w>
technolo gischen</w>
grenzüberschreit enden</w>
H äl
monit ored</w>
transat lan
Ausnah mere
zi o-P
wa ff
li ere</w>
län dlichen</w>
ch air
by l</w>
Grund sätzen</w>
e b
wach st
sozi al
en en
Gu an
countr y
W affen</w>
ver steh
do va</w>
encour aging</w>
außerorden tlich</w>
tre ff
K ab
easi er</w>
enth usias
tatsäch lichen</w>
num erous</w>
system en</w>
sor ge</w>
Z er
Mark et</w>
Pre is</w>
ima g
es tri
Medi en
accep t
aus gesetzt</w>
welt weiten</w>
Du pu
Dupu is</w>
dra mati
exten ding</w>
As soci
parla mentarischen</w>
Mer k
Li u</w>
CO 2-
difficul ty</w>
Wes ent
auf recht
A g
Re vision</w>
ier ende</w>
w .</w>
St unde</w>
G AP</w>
unter breitet</w>
zu lassen</w>
2 50</w>
niem als</w>
Au str
f ach</w>
lis ts</w>
Pro te
Fisch ler</w>
PO SE
succeed ed</w>
ish ing</w>
introduc ing</w>
Koordin ierung</w>
Mitglied schaft</w>
so eben</w>
equ ally</w>
la th</w>
zio-P lath</w>
c ting</w>
geh ei
w asser
pur poses</w>
d ates</w>
ob tain</w>
weni ge</w>
Nordi c</w>
pas sen</w>
Diff er
employ ed</w>
par all
sexu elle</w>
läu ft</w>
angekün digt</w>
zi el
CO M</w>
3 6</w>
Rechtsgrund lage</w>
spezif ische</w>
entscheiden de</w>
mitglie der</w>
R oh
dire k
versteh e</w>
Ko oper
kun f
Sch r
succ eed</w>
schwerwie gende</w>
co ho
cle arer</w>
c ar</w>
fac tors</w>
e ties</w>
fair en</w>
cer ti
au ber
empha sis</w>
f ere</w>
T anno
Tanno ck</w>
pro fi
be we
zurück zuführen</w>
dienst leistungen</w>
T on
lok alen</w>
than king</w>
Per spektive</w>
ö kolo
ID S</w>
EU RO
gre en</w>
ef ul
Unter drück
Bevölk erungs
Thail and</w>
Er do
Amts zeit</w>
Stand punkte</w>
schwer en</w>
lab elling</w>
R ati
Alb a</w>
Belgi an</w>
hei k
us w.</w>
nehm ern</w>
Ö l</w>
sch o
i ded</w>
rech ts
Kontin ent</w>
oh n
sicher ungs
Re fer
ul t
ali tion</w>
Latein ameri
D ell</w>
enti ves</w>
ser baidsch
pur ch
G as
industri e</w>
conclu ded</w>
nieder ländi
favour able</w>
aufrecht zu
ge arbeitet</w>
E S</w>
tar gets</w>
alloc ating</w>
di men
S at
an nehm
erwä hnen</w>
feel ing</w>
af ter
dump ing</w>
be zieht</w>
fundament ally</w>
zah lungen</w>
stric ter</w>
S i
O EC
T ri
A IDS</w>
nach dem</w>
sa w</w>
ordnungs gemäß</w>
cour t</w>
aufrechtzu erhalten</w>
et tland</w>
L ettland</w>
stru g
d wide</w>
ing -
proto col</w>
Region al</w>
re che</w>
p ic
Peti tions
deli ver
Jo int</w>
in o</w>
geord net</w>
bed auern</w>
en n</w>
son st</w>
Mar tin
ver dienen</w>
palästinens ischen</w>
ats on</w>
sch läge</w>
Überzeu gung</w>
wirk sam</w>
comple x</w>
Nah ost
Ge fü
Fisch er</w>
Augen merk</w>
blo ck
Hand el
gr ö
ver teilt</w>
beg onnen</w>
3 9</w>
ri di
ridi cul
us ers</w>
ück t</w>
is land</w>
Häl fte</w>
Pun kten</w>
konsequ ent</w>
über aus</w>
tur ing</w>
limit ed</w>
gesch afft</w>
An fragen</w>
ä hi
h ung</w>
betra chten</w>
Vorbereit ung</w>
Kon zept</w>
Anmerk ungen</w>
p ag
pag anda</w>
Zuständi gkeit</w>
sp read</w>
p on
heu tigen</w>
sch efs</w>
pro zeß</w>
Umwelt bel
H -00
ad dam</w>
S addam</w>
vorsch lagen</w>
Ver breit
Ver halten</w>
Barcelon a</w>
Vertre tern</w>
israel ischen</w>
express ly</w>
en try</w>
len ni
Mil lenni
sm aller</w>
pa ar</w>
F i
Ur sachen</w>
zusammen arbeit</w>
wachsen de</w>
begr ündet</w>
be weisen</w>
S timm
sorgfäl tig</w>
durch geführten</w>
w ann</w>
fin ance</w>
ber n</w>
stoff e</w>
schle cht</w>
Zw ischen
g isch</w>
korre kt</w>
grö ßer
In dien</w>
oper ational</w>
ra ising</w>
su itable</w>
Comm on</w>
PPE- D
PPE-D E-Fraktion</w>
Aut om
S til
den cy</w>
rän ken</w>
pers ons</w>
Haushalts mittel</w>
el ef
an geb
at ta
spezi ell</w>
gre ss</w>
interpre tation</w>
bin ding</w>
Allgem einen</w>
tä t</w>
sover ei
entscheiden der</w>
b ab
E MU</w>
S k
Chanc en
Chancen gleichheit</w>
P en
beteili gen</w>
l ac
ech ten</w>
s er</w>
zusammen zu
rei ze</w>
pre ise</w>
undermin e</w>
i ra
äuß ert</w>
aff ects</w>
Re gel</w>
kämpf t</w>
Bu it
in sufficient</w>
O omen-Ruij
Oomen-Ruij ten</w>
Bedürf nissen</w>
aus gehend</w>
äh erung</w>
Ann äherung</w>
Luxem bourg</w>
no byl</w>
Protokol ls</w>
regierungs organisationen</w>
rä ger</w>
transeuropä ischen</w>
em bar
politi sch</w>
whate ver</w>
nah men</w>
ho her</w>
pil ot</w>
ck er</w>
er lassen</w>
der selben</w>
prison ers</w>
Ein leit
rapporte urs</w>
dies el
ans wer
An reg
lin ks</w>
i gn</w>
ver z
Sing le</w>
Finanz mittel</w>
Ange bot</w>
Über legungen</w>
Mit bürger</w>
ges tern</w>
Sta d
Arbeit ge
w under
lin ge</w>
Ger icht</w>
Israel i</w>
st ages</w>
paragrap h</w>
entrepreneur s</w>
be comes</w>
follow -up</w>
he ads</w>
Fäl le</w>
Völk erre
Völkerre cht</w>
A zer
shor t-
follow s</w>
se vi
o sevi
b es</w>
Mär kte</w>
hier zu</w>
Malm ström</w>
peri ods</w>
edn es
An stieg</w>
ban on</w>
D o
Handels politik</w>
lear n</w>
abl ing</w>
Bangem ann</w>
sch wä
reques ted</w>
eh ol
k ehol
press ing</w>
j ahr</w>
K a
europä isches</w>
Mitt wo
Mittwo ch</w>
Beit rä
char ge</w>
Cze ch</w>
highli ght</w>
ednes day</w>
St o
Sto ck
Stock hol
gegen über
Wiederauf bau</w>
wi des
wides pre
widespre ad</w>
requ esting</w>
Red ner</w>
im bab
gegenwär tige</w>
re serve</w>
acc el
good will</w>
k ro
pol n
EC H
flexi bility</w>
organis ierten</w>
Menschenrech ten</w>
stärk sten</w>
pro ve</w>
in i</w>
Reak tion</w>
mark eting</w>
bekräf tigen</w>
O ber
re marks</w>
Stre ben</w>
L it
ungar ischen</w>
grundle genden</w>
al em</w>
S an</w>
ch ter</w>
er a</w>
ir gen
ich el</w>
M ichel</w>
glau bwürdi
aus ländi
ehr lich</w>
S co
chap ter</w>
Be urteilung</w>
fizi eren</w>
für ch
voll ständigen</w>
g yp
absur d</w>
dri ving</w>
at tribu
W enn</w>
nach zu
Meinungs äuß
Meinungsäuß erung</w>
E v
sm all
sp here</w>
confi dent</w>
interes ted</w>
R eligi
kunf ts
Erkenn tnisse</w>
l ten</w>
Durch schn
prä sent
soverei gn
sovereign ty</w>
Struktur en</w>
back ground</w>
über mitteln</w>
pl en
gesetz lich</w>
olo gy</w>
Rand zio-Plath</w>
inten tion</w>
ei gene</w>
zügi gkeit</w>
sy n
D ring
sicher gestellt</w>
restri cted</w>
ent stehen</w>
er scheint</w>
Gleich gewicht</w>
produc ing</w>
alloc ation</w>
Bu re
Bure au</w>
an lagen</w>
geleit et</w>
coun ter
pre mi
Fak toren</w>
inc entives</w>
Hoh en</w>
Mit arbeit
ma ß
im por
C as
Haushaltsp lans</w>
iz z
N izz
gerech t
gerecht fertigt</w>
prag mati
Pak ist
Minister rat</w>
Poten zial</w>
g ap</w>
th u
ori um</w>
land wirtschaftliche</w>
Uni ons
sup posed</w>
sel ten</w>
T it
lar ity</w>
consider ations</w>
refle ct</w>
de z</w>
char ges</w>
produc ed</w>
vor n</w>
stan de</w>
r und</w>
viol ated</w>
wer ke</w>
ver bot</w>
vi r
Lat via</w>
connec ted</w>
traff ic</w>
ge fasst</w>
Re is
Groß teil</w>
w -
ong side</w>
kurz em</w>
los er</w>
ves sels</w>
Dien st</w>
refuge es</w>
lich keits
intel lec
intellec tual</w>
Legislativ vorschlag</w>
disa sters</w>
Grund freiheiten</w>
Ter rit
Rech en
par tly</w>
kurz fris
14 9</w>
n one</w>
län dliche</w>
S kla
Kooper ations
astr o</w>
Wider spruch</w>
E in</w>
gel ingt</w>
Gewähr leistung</w>
r ichtet</w>
F assung</w>
leg ed</w>
Bürokrati e</w>
si t</w>
wer ks</w>
ein bar</w>
mäß igen</w>
T elef
m ung</w>
E valu
sit zen</w>
Geb äu
s ou
Associ ation</w>
er hält</w>
inspec tors</w>
al coho
Beihil fe</w>
verrin gern</w>
sex ual</w>
ch ung</w>
ktiv ität</w>
be ein
f low
mul tin
i gkeit</w>
rah men
si cal</w>
Gemein same</w>
Char akter</w>
ver halten</w>
Peti tions</w>
S port
medi um</w>
näch ster</w>
betre ffen</w>
invol ving</w>
al ongside</w>
umfassen de</w>
Män nern</w>
Gre ek</w>
beg leit
ti erung</w>
Austri a</w>
re construction</w>
ma g
kri ti
ic als</w>
chem icals</w>
us h
end gül
Tran spor
chec k</w>
irregul arities</w>
dign ity</w>
Gre ens</w>
Kompromis s
fi g
Kandidat en
sozi aler</w>
Produ ktions
deci de</w>
lea der
leader ship</w>
C I
Verwal tungen</w>
sustain ability</w>
settle ment</w>
technolo gies</w>
voll kommen</w>
chap ters</w>
heal th
ab gesehen</w>
199 0</w>
ohneh in</w>
t op</w>
Stabilitätsp ak
Di versi
anim als</w>
7 -0
Den n</w>
justi fy</w>
M ul
Sicherheits -</w>
E benen</w>
lin ked</w>
Ur teil</w>
ho h
Mol dova</w>
Mechan ismus</w>
zukünf tigen</w>
sti ge</w>
pas siert</w>
Fremden verkehr</w>
Sol ana</w>
dama ging</w>
führ er</w>
res istance</w>
fiel ds</w>
listen ing</w>
k einer</w>
moder n
Ge werk
y ers</w>
Partn ern</w>
Kon text</w>
Bulgari a</w>
A 5-00
taxpay ers</w>
Nicht regierungsorganisationen</w>
O sten</w>
inter oper
si eben</w>
Sch ick
Schick sal</w>
g ut
an i</w>
isch em</w>
Technolo gien</w>
Kohäsions politik</w>
great ly</w>
F lä
Ze ichen</w>
Versamm lung</w>
guaran te
ze ichen</w>
Umwelt fragen</w>
europ a
eröff net</w>
zurück kommen</w>
ter ing</w>
x es</w>
bud gets</w>
bedeuten de</w>
schn ell
cont act</w>
control s</w>
grat u
non- discrimination</w>
Pol en</w>
even ing</w>
pos ing</w>
ö der</w>
Umwelt politik</w>
erlau ben</w>
C astro</w>
Str uctural</w>
cust oms</w>
a i</w>
Wettbewer bs</w>
inv est</w>
con stant</w>
Klimawand els</w>
ch ris
Se a</w>
su d
i k</w>
Palästin a</w>
reas onable</w>
6 2</w>
fo ot
Verän derung</w>
Steu er</w>
timat ely</w>
citiz en
ach tung</w>
fun ction</w>
abo li
aboli tion</w>
y mp
An griff</w>
Mil itär
Umweltsch utz
W atson</w>
ver sorgung</w>
prep are</w>
Co operation</w>
C S</w>
pl ö
ben ch
hom o
poli tics</w>
au l</w>
ts it
s ac
p e</w>
Tre ib
hel pf
Ern ähr
acc ur
A serbaidsch
stä d
gu lierung</w>
off ici
Altern ativen</w>
oper ators</w>
glob ale</w>
stec ken</w>
e .</w>
spra ch
spar tn
kur ze</w>
atten ded</w>
represent ation</w>
af ri
fra gt</w>
oft mals</w>
ven tions
p lic
N utz
sa v
ber ichten</w>
Kü sten
eventu ell</w>
Mor d</w>
tou ch</w>
def en
ier enden</w>
n den</w>
an k
kor rigi
pre serve</w>
Nach haltigkeit</w>
col labor
kan ische</w>
prosp ect</w>
deut schen</w>
accept ance</w>
Maastr icht</w>
Aus grenzung</w>
arbeit s
Anwen dungs
Nat ur
4 6</w>
ver fahrens</w>
ber aten</w>
Armu ts
W est</w>
E W
ommen en</w>
an si
Asyl bewer
far ms</w>
de tri
ck er
Lissab on-Strategie</w>
ei tigung</w>
Bes eitigung</w>
Auth ority</w>
proper ty</w>
st sein</w>
il s</w>
st opp
ti erte</w>
M ach
schwedi schen</w>
Kon vergen
sur pris
mer ely</w>
asse mbly</w>
immer hin</w>
en weg</w>
Buit enweg</w>
Mitglied s
F lor
Afgh an
bi olo
ne te</w>
Kräf te</w>
Israel is</w>
Ol ymp
lie gende</w>
fac tor</w>
i. e.</w>
Or den</w>
r at
ausge arbeitet</w>
Khadraou i</w>
Um feld</w>
ver wiesen</w>
benö tigt</w>
out set</w>
sup ple
er stat
Su dan</w>
c tive</w>
organiz ation</w>
Pap ier</w>
Energi en</w>
öl f</w>
W ednesday</w>
3 5</w>
Schr öder</w>
Por to</w>
Wel th
Cor n
du ties</w>
tru th</w>
K op
i ans</w>
angemessen e</w>
rei b
ter e</w>
Er fül
zu verlässi
W äl
Ger ichten</w>
Jap an</w>
applic ant</w>
O S
dank bar</w>
Sp ani
don es
spezif ischen</w>
Mal ta</w>
vor bereitet</w>
worl dwide</w>
gui ded</w>
funktion ieren</w>
T en
künf tige</w>
Katastrop he</w>
Ver wirklichung</w>
condem ning</w>
Pres se
jewei ls</w>
an ces</w>
3 1</w>
En gl
bo te</w>
Mil osevi
Sitz ungen</w>
credi ble</w>
materi als</w>
Kom pe
einzu leiten</w>
ME P</w>
Gr ünen</w>
der ten</w>
gn is
Beru fs
Ver bot</w>
öffent licher</w>
woh l
Infra struktur</w>
grupp e</w>
maxim al</w>
in stance</w>
appel liere</w>
hoch wer
me at</w>
inves ted</w>
199 2</w>
hal ts</w>
K ürz
m ass
53 .</w>
inv ent
Au ßer
al tet</w>
Chr ist
m ar</w>
ünsti gen</w>
ah n
re struc
Mor gen</w>
r d</w>
t anz</w>
bereit zustellen</w>
so far</w>
Europ a-
ffent lich</w>
ha bil
Ter ror</w>
tre ating</w>
Direc tor
herr sch
ä d
M ül
Augen blick</w>
Milosevi c</w>
J a
Stand pun
dru ck
J e
sen ding</w>
Mis ser
li cken</w>
D ef
adequ ately</w>
Le gi
promo ted</w>
I mp
al t
c e
facilit ating</w>
vernünf tige</w>
Ma ß</w>
saf e</w>
Flücht linge</w>
est y</w>
ähn liche</w>
sur p
wach sen</w>
R an
st or
ein nimmt</w>
gel itten</w>
bei der</w>
c ut
f en
Be w
E co
S ter
komm erzi
neigh bo
li ability</w>
inn erung</w>
wah len</w>
an -
betra chte</w>
EU- Mitgliedstaaten</w>
Steuer zah
bre a
Mo s
ambi tions</w>
geb unden</w>
Mitentschei dungs
advan ces</w>
con serv
off e</w>
tur ning</w>
vor sichti
form ity</w>
Vorsitz ende</w>
Schi enen
for schung</w>
coun t</w>
14 .</w>
s outh</w>
n ä
nä her</w>
Kultur en</w>
Am bi
de gra
mes sen</w>
der er</w>
prou d</w>
R oth
broad c
Sum me</w>
Auf klär
comp la
kräf ten</w>
wit n
Hö chst
not ably</w>
ungar ische</w>
Sec re
pl ants</w>
rupp en</w>
re isen</w>
ungsp eriode</w>
verm ie
breit ete</w>
fan den</w>
Gesetzgeb ungs
tief st</w>
kehr t</w>
be eren</w>
lech terung</w>
los ses</w>
über ra
Gan zes</w>
schn eller</w>
per ative</w>
otechnolo gie</w>
y e</w>
tungs bereich</w>
Ide en</w>
dopp elt</w>
on str
dar unter</w>
sp er
k alien</w>
conf ron
Zu w
Stil l
af for
ver wand
ver trau
l ing
T aten</w>
bureauc ratic</w>
St äd
F el
Lam a</w>
lä ß
cla im</w>
ec ting</w>
San ter</w>
Katastrop hen</w>
norm ally</w>
err or</w>
Kriegs verb
tar ge
weiter es</w>
abil ität</w>
ent al</w>
Unter zeichnung</w>
happ ens</w>
x ic
blo cked</w>
Gemein schaften</w>
se a</w>
Li thu
ie t</w>
beur teilen</w>
grat eful</w>
re act</w>
perspec tives</w>
ö sen</w>
trage dy</w>
pf lan
öffent lich</w>
Verbreit ung</w>
moder nis
se u
d auern</w>
vor hin</w>
Tour ism</w>
mark ed</w>
B au</w>
har d
ver mittelt</w>
Antwor ten</w>
rech nen</w>
äußer ster</w>
e al</w>
c ou
vermie den</w>
Ver sicherungs
ner ship</w>
ow nership</w>
Legi tim
F ar
ra w</w>
Schutz maßnahmen</w>
Hoff nung</w>
anwes end</w>
be völk
bevölk erung</w>
Cha ir
vi ew
T AC</w>
E V
Beitritts ländern</w>
erheb lichen</w>
besteh ende</w>
Chair man</w>
Exis tenz</w>
Best and
b ing</w>
ha bit
L ohn
Außer dem</w>
li en</w>
festgeleg ten</w>
Red u
automati cally</w>
Ein fuhr
zw in
- B4-0
Be träge</w>
G 20</w>
Ges ellschaften</w>
türk ische</w>
defin e</w>
ou d</w>
enor me</w>
sicher er</w>
Haushalts behörde</w>
por nograph
draf ting</w>
des tro
verm ei
religi on</w>
Jahr zeh
gleich wohl</w>
ru fe</w>
sol ved</w>
assur ances</w>
ti mi
gen o
Imm i
o xi
pleas ure</w>
ursprün glichen</w>
ein ges
stim ul
form ul
tw ent
cap it
acqu is</w>
indi sp
ins ist</w>
lif ted</w>
ab ri
ab ge
kön ne</w>
Konsul tation</w>
Treib h
us ual</w>
regelmäßi g</w>
weit gehend</w>
per m
OEC D</w>
el j
verän dern</w>
Sozial partner</w>
es sive</w>
ger ufen</w>
at ures</w>
rec t</w>
incor rect</w>
ge is
Recht sa
ins ur
dep th</w>
mu t</w>
ij an</w>
func tional</w>
gla d</w>
Gef än
é r
W h
Treibh aus
St offe</w>
de te</w>
un necessary</w>
beobach ten</w>
mäßi gkeit</w>
Rent en
tri z
gra du
P N
gh äfen</w>
Flu ghäfen</w>
fig ure</w>
ed ly</w>
Ä r
dire kte</w>
tr ation</w>
wen t</w>
ok ed</w>
D ör
wen n
isch -
ed estri
höh eren</w>
Ver lauf</w>
Vereini gung</w>
comp ared</w>
Ziel setzungen</w>
i ens</w>
komm e</w>
Mol d
Mold au</w>
Leist ungs
dauer haft</w>
icht sp
Ges ichtsp
c ture</w>
sta kehol
rinzi p</w>
absol ute</w>
Vermitt lungs
ver breitet</w>
Rech ts</w>
form ing</w>
man chen</w>
lau b</w>
assu red</w>
ger ich
contin ent</w>
bo und</w>
tr ichen</w>
ange pas
co de</w>
des tens</w>
min destens</w>
Energi equ
10 .</w>
bestimm ter</w>
vor über
thre sh
ac ting</w>
Uni vers
statt findet</w>
sei en</w>
gew issen</w>
fir m</w>
riteri um</w>
pi ec
b lin
we ak</w>
Finn land</w>
sch afft</w>
ven ts</w>
humanit äre</w>
ßer ungen</w>
an halten
gewähr en</w>
pri vi
Inter ne
b licken</w>
mehr fach</w>
Jos é
zu gestimmt</w>
M u
em br
schafts politik</w>
Nachbar schaftspolitik</w>
Gipf el
EZ B</w>
den ly</w>
sud denly</w>
require ment</w>
Bir ma</w>
Fest stellung</w>
er nen</w>
der ed</w>
go sla
russ ischen</w>
un möglich</w>
m al
some one</w>
Ab fall
radi k
Gefü hl</w>
bin dung</w>
extre me</w>
Kommissions vorschlag</w>
Pati enten</w>
pl ä
gestell ten</w>
dru gs</w>
P il
is tete</w>
parall el</w>
thous and</w>
prev ail
Vorran g</w>
gesch ah</w>
Pre ise</w>
Eigent um</w>
ab seh
är er</w>
disappoin tment</w>
Redu zierung</w>
kom pe
Lan g
b el</w>
increas ingly</w>
staat licher</w>
consequ ence</w>
in adequate</w>
Ziff er</w>
Tran s
gener ell</w>
Vor stellungen</w>
e tzung</w>
tz ungs
spe ed
elektron ischen</w>
be wirken</w>
ver dient</w>
tiv ation</w>
lo oked</w>
ambi gu
Über mitt
ri ble</w>
wa ge</w>
bestimm ung</w>
wachst um</w>
über all</w>
S ahar
al te</w>
bei gem
er ör
present ing</w>
Th ur
Po st
remin ded</w>
p hase</w>
Arbeits weise</w>
en house</w>
proto kol
stell te</w>
ell a</w>
Beschl uss
techn ischen</w>
pass ungen</w>
An passungen</w>
consider ably</w>
verantwor tung</w>
g lück
phy sical</w>
Premier minister</w>
selb st
im men
cre ates</w>
it or
b y-
o x
be vor
so ft</w>
help ed</w>
Dem onstr
cust om
gener ations</w>
Kohä sion</w>
ques tion
An spruch</w>
consider ing</w>
ver ne
ou verne
ursprün glich</w>
p es
exten ded</w>
wor fen</w>
genü gend</w>
aktu ellen</w>
bezo gene</w>
b as
tru ction</w>
cent res</w>
herz lich</w>
Ex per
situ ations</w>
regel t</w>
ou tra
uni fication</w>
gre enhouse</w>
occ ur</w>
hon est</w>
as ks</w>
radi cal</w>
accoun ts</w>
is c
Slov ak
betra cht</w>
hol en</w>
gesetz geb
PS E-Fraktion</w>
Peti tion</w>
bilater alen</w>
le hnen</w>
beit rag</w>
purch ase</w>
gan g
de -
fron t</w>
sugges ts</w>
kl aus
m sten</w>
p r
präsen tieren</w>
sk il
soci eties</w>
har m</w>
Un ru
teil ten</w>
Ak zep
Akzep tanz</w>
EC B</w>
Umwel tre
sekre tä
sekretä r</w>
ich er</w>
Erfül lung</w>
neu er
Gen ehmi
ent täuscht</w>
eth ical</w>
zusammen arbeiten</w>
ier ter</w>
L ü
ter rible</w>
Nizz a</w>
hei ßen</w>
i ger</w>
j enen</w>
ent steht</w>
ta k
befürwor ten</w>
Aus führung</w>
prefer ential</w>
Sozial -</w>
verkehr s</w>
heraus gestellt</w>
deser ves</w>
er o
ver tra
smo o
tr ends</w>
Schul en</w>
fre sh</w>
isl am
Drit tel</w>
organ ise</w>
d ul
B lic
Blic k</w>
Le ute</w>
stri ke</w>
regar ded</w>
lossen heit</w>
mäßi ge</w>
C E</w>
sab kommen</w>
forc ement</w>
m ess
Kap ital</w>
Fahr plan</w>
Wün sche</w>
Wal d
bin den</w>
lar gely</w>
land wirtschaftlichen</w>
sol ange</w>
ten zen</w>
Kompe tenzen</w>
eini g</w>
dis krimin
embar go</w>
Kürz ungen</w>
ti m</w>
k lear
län gerung</w>
ben s</w>
fer tigen</w>
For um</w>
0 ,
an merken</w>
limit ations</w>
Slo ven
tig ungen</w>
proje kt</w>
ton ight</w>
Kompromis se</w>
Abstimm ungen</w>
führ ungs
Wahr heit</w>
investig ations</w>
qu alit
tä glich</w>
an spru
h ü
Konsul tationen</w>
fri end</w>
T rin
re produ
func tioning</w>
Um struktur
stei gen</w>
rit er
Zer stör
comp lic
Änderungsan trags</w>
te dly</w>
Vol l
Al ger
alis iert</w>
rese arch
Hand els</w>
gewäh lt</w>
an ticip
B rief</w>
unter bro
läu fi
g one</w>
se ven</w>
lar ge-
un il
in sofar</w>
53 rd</w>
3 3</w>
lea ving</w>
ter s
Pra kti
Ausnah men</w>
under line</w>
Li fe</w>
sch were</w>
a gen
emi kalien</w>
besch ränkt</w>
pro ven</w>
Ö sterre
Österre ich</w>
ev a</w>
lis te</w>
res sourcen</w>
di sh</w>
Kur dish</w>
g barkeit</w>
ver träge</w>
reg ister</w>
susp ici
Gener ationen</w>
er fahren</w>
b and</w>
me t
m as
Prof ess
re ve
b lack</w>
Lebens qualität</w>
bestimm t</w>
z on
offici als</w>
Niger ia</w>
de pl
argu ment</w>
ö te
Entwicklungs fonds</w>
lic </w>
mu tual</w>
x ed</w>
ed s</w>
sub sequ
gran ted</w>
fahr zeugen</w>
ier ungen</w>
edon ia</w>
staat liche</w>
des ired</w>
Einleit ung</w>
Verhaltens ko
t un
teil zunehmen</w>
et te</w>
pro ch
erneuer baren</w>
vir tu
b ien</w>
herit age</w>
Euro zone</w>
ist ently</w>
beteili gten</w>
imbab we</w>
associ ations</w>
F uß
Kern kraft
k tes</w>
Par tik
spartn er</w>
J oh
Joh ann
Währungs union</w>
em pfeh
kon solidi
St unden</w>
addre ssed</w>
Er schein
angemessen er</w>
weni gsten</w>
Vorgehens weise</w>
it al
gä be</w>
US D</w>
re vis
För der
neu es</w>
Ver längerung</w>
betrie be</w>
PPE- DE</w>
ti z</w>
zu tiefst</w>
in akzeptabel</w>
vol lem</w>
iegel n</w>
ir responsible</w>
zäh lt</w>
um gehen</w>
tie gen</w>
blo od</w>
Vor lage</w>
fes ten</w>
militär ische</w>
Besch leuni
Beschleuni gung</w>
K ür
Arbeitge ber</w>
um fan
Pol ish</w>
unzu reich
beit rä
Per son</w>
Durch setzung</w>
öte bor
G ötebor
Götebor g</w>
Gener ation</w>
griech ischen</w>
interpre ted</w>
diesbezü glichen</w>
S äu
schul dig</w>
Saf ety</w>
fa ire</w>
aus geht</w>
ar ise</w>
Sp iel</w>
ex ported</w>
coordin ated</w>
R as
communic ations</w>
ra sche</w>
ul tim
ultim ate</w>
tr ü
von seiten</w>
schwieri ger</w>
übri g</w>
attrac tive</w>
immedi ate</w>
op tion</w>
vereinbar t</w>
Ber g
U K</w>
Kandi daten</w>
pop ul
bre aches</w>
pro grammen</w>
Elek triz
bekräf tigt</w>
da hin
zu vor</w>
Finan cial</w>
elec tor
en a</w>
plö tzlich</w>
spra ch</w>
For mu
wa iting</w>
Leg al</w>
an gehören</w>
einf l
Flug gä
neighbo urs</w>
alis tic</w>
de ad</w>
chair man</w>
chann els</w>
ten dlich</w>
letz tendlich</w>
ex zell
Comm un
divi ded</w>
In dones
tr e</w>
di vision</w>
wie weit</w>
in wieweit</w>
sign al</w>
S up
exclu de</w>
lossen en</w>
an den</w>
it es</w>
attemp ts</w>
tr um</w>
kehr en</w>
teil genommen</w>
st ol
au er</w>
tes ts</w>
Journ alisten</w>
im posed</w>
h our</w>
th -
c riter
criter ion</w>
konfli kt</w>
Er k
k atastro
in folge</w>
Ras mus
Rasmus sen</w>
drin king</w>
nor men</w>
Dien sten</w>
Hi gh</w>
harm ful</w>
schließ t</w>
fron ti
regelmäßi gkeiten</w>
Er läu
ach ed</w>
Politik ern</w>
stru k
Fle isch</w>
Wei ß
Energie trä
z lo
Kor ruption</w>
Besch ränkungen</w>
Wand el</w>
kü mm
inter institutional</w>
interven e</w>
neu tr
Enttäu schung</w>
vor liegende</w>
c ism</w>
aus ü
Über setzung</w>
ge tra
sp h
dahin gehend</w>
Prä si
mo bil
besei tigt</w>
bes te</w>
recommen d</w>
kur ri
aim s</w>
Er gän
K ern</w>
irgen de
ad map</w>
Her zen</w>
tri eben</w>
k toren</w>
em a</w>
Män gel</w>
Be grenzung</w>
Can ada</w>
an e</w>
kl eine</w>
proble men</w>
protec tion
s low</w>
inter nen</w>
Ti bet</w>
voll ständige</w>
Lebens mittel</w>
ab we
un eingeschränkt</w>
über ein</w>
9 .</w>
rail ways</w>
Hal b
pil lar</w>
ab warten</w>
Un gleich
Verbraucher politik</w>
represent ing</w>
h ne</w>
iz ation</w>
Er innerung</w>
mu tzung</w>
G ouverne
besonder er</w>
l ung
Fo od</w>
subsi dy</w>
T od</w>
vertre ter</w>
R ap
alis ierten</w>
scru tiny</w>
del eg
inst all
Un regelmäßigkeiten</w>
- based</w>
w ages</w>
ken nt</w>
erzeu gung</w>
spar tei</w>
investig ate</w>
A ction</w>
exper ts</w>
gegeben enfalls</w>
langfris tigen</w>
r en</w>
wirtschaf ts
Arbeits markt</w>
gele genheiten</w>
ausgewo gen
unterstü tzte</w>
imm unity</w>
abor tion</w>
ges trichen</w>
un um
is to
sil ent</w>
health care</w>
fü gen</w>
er setzen</w>
Kon jun
Konjun ktur
zu stande</w>
erheb lich</w>
hö here</w>
histor ic</w>
Amend ments</w>
jo ined</w>
sto ffen</w>
moment an</w>
vor liegt</w>
ger ückt</w>
Industri e
f lag</w>
ab ilities</w>
ri ft</w>
Syst em
ver sich
auf fordern</w>
re affir
war d</w>
Sch w
zi elt</w>
zi ellen</w>
bedeuten d</w>
sch lech
Konta kte</w>
collabor ation</w>
gran ting</w>
Besonder heiten</w>
surp rise</w>
V o
stri ct</w>
rit ten</w>
aus gesprochen</w>
Völk ern</w>
sta at</w>
residen ce</w>
keines wegs</w>
schlimm sten</w>
reagi ert</w>
redu zieren</w>
behaup tet</w>
Gerichtsh ofs</w>
ek tive</w>
research ers</w>
ele v
- General</w>
Kan ada</w>
Z wan
Handels beziehungen</w>
ari o</w>
Stra ft
lim its</w>
programm s</w>
Er wer
lear ning</w>
recogn ized</w>
citizen ship</w>
Un sicherheit</w>
G lück
kl at
Will ens</w>
kontrol le</w>
wi s</w>
bel on
Ver trie
anzu passen</w>
fix ed</w>
fulfil led</w>
mil k</w>
ur y</w>
cent ury</w>
e ye</w>
fin ish</w>
your self</w>
ck et</w>
Bra zi
R ass
ten sion</w>
Mon op
gefähr det</w>
jun cture</w>
imp lic
keines falls</w>
im posing</w>
zwei f
mö ge</w>
hin ter</w>
Eur at
pen sion</w>
verfüg baren</w>
iel d</w>
einge halten</w>
mensch lichen</w>
kon sul
konsul tiert</w>
comb ined</w>
D ar
inf rin
no sen</w>
p edestri
po or
lok ale</w>
clas s</w>
lo cked</w>
helpf ul</w>
gui ding</w>
ba ijan</w>
Azer baijan</w>
di schen</w>
I hr</w>
Rechts rahmen</w>
Mil itä
Fak tor</w>
ob je
co operating</w>
Aus bildungs
Er war
four thly</w>
besei tigen</w>
zw ölf</w>
Asy l</w>
gesetz ten</w>
accord ingly</w>
can cer</w>
strateg ische</w>
observ ations</w>
abzu stimmen</w>
ge fragt</w>
mer kt</w>
dri vers</w>
hi elten</w>
Emp loy
Employ ment</w>
Stu fe</w>
serv ativen</w>
katastro p
tra ck</w>
un less</w>
zi erte</w>
bege gnen</w>
t ability</w>
accoun tability</w>
b attle</w>
Regier ung
Regierung schefs</w>
remo ving</w>
Nor den</w>
Stabilitäts -</w>
ho ffentlich</w>
Vic e-
inspec tions</w>
Energie effizienz</w>
Entwicklungs länder</w>
Ö ko
kürz lich</w>
ü ch
Ch emikalien</w>
ziel e</w>
legitim acy</w>
3 8</w>
Finanz krise</w>
ge ared</w>
progre s
gere chte</w>
equ ip
equip ment</w>
ac i
stand ard</w>
pris on</w>
ar ti
We chsel
Wechsel kur
Gerichtsh of</w>
where as</w>
prä z
c entr
tri al</w>
grenzüberschreit ende</w>
Z ur
rema ining</w>
sek tors</w>
Kredi t
verschie den
ASEA N-
Ver stoß</w>
mo tor
Unter zeich
se bene</w>
technolo gische</w>
hi de</w>
Mac edonia</w>
Grenz regionen</w>
respon ded</w>
voranzu treiben</w>
Auf bau</w>
Ein schätzung</w>
y n
fac ilities</w>
verab schieden</w>
W TO-
exten sive</w>
Afghan istan</w>
au ßen</w>
kontrol liert</w>
vor liegen</w>
t be
el ung</w>
es ten</w>
u ßerungen</w>
Ä ußerungen</w>
Slo wak
gegensei tige</w>
Mis s
D on
Verzö gerungen</w>
reit erate</w>
diversi fication</w>
groß em</w>
prepar ation</w>
Gon zá
er -
plen ary</w>
exp ected</w>
Mos co
C ro
lin king</w>
is s
crimin als</w>
adver se</w>
ver wirklichen</w>
Verf asser</w>
ener gie</w>
Kon go</w>
prakti sch</w>
Ara b</w>
k eit
any where</w>
Gaz a</w>
H aus
zu gewiesen</w>
Vorsit z</w>
ge kenn
klar stellen</w>
unil ater
veran lassen</w>
Wah l</w>
An dre
las s</w>
M S</w>
i ed</w>
Aus arbeitung</w>
exc ept</w>
be zahlen</w>
mitt l
Constitu tional</w>
Aserbaidsch an</w>
A tom
altern atives</w>
vor zunehmen</w>
is ol
as pe
Kriegsverb rechen</w>
ass ungen</w>
ver mis
Be achtung</w>
frequ ently</w>
ar med</w>
cho sen</w>
kon kurri
Beit ra
humanit ären</w>
har te</w>
Ver stöß
Ver letzungen</w>
Pak et</w>
An gst</w>
ens wert</w>
allow s</w>
Ho wever</w>
re formen</w>
fir mly</w>
s mus</w>
P lans</w>
höch st</w>
gehand elt</w>
Hus sein</w>
argu ments</w>
müs ste</w>
der te</w>
erheb liche</w>
bu s</w>
Mi gran
ci vil
fried lichen</w>
he ad</w>
neighbour hood</w>
detri ment</w>
h und
tu red</w>
Kräf ten</w>
f la
en ed</w>
shor tly</w>
de par
unabhängi gen</w>
f ei
lie fern</w>
Aben d</w>
ens hr
agi eren</w>
with draw</w>
stell vertreten
räu me</w>
wil ligen</w>
garan tieren</w>
früh eren</w>
Partner ship</w>
vis i
AK P-
schließ e</w>
italien ischen</w>
ub lin</w>
congratul ations</w>
basi ert</w>
Red nern</w>
ex ter
no tion</w>
Stat us</w>
Gesch ä
andels organisation</w>
Welth andelsorganisation</w>
human e</w>
feder al</w>
condi tion</w>
erre gend</w>
Erwä gungen</w>
identi fied</w>
ul t</w>
Aussch üsse</w>
äl teren</w>
Diversi fizierung</w>
Gleich stellung</w>
dig it
bur den
ver trä
ex -
Sach ver
d al</w>
Tex tes</w>
F ähi
ge teilt</w>
z enden</w>
Gipf els</w>
kulturel le</w>
Ex ternal</w>
Umweltschutz es</w>
bel aufen</w>
ti se</w>
wenn gleich</w>
democ rati
large- scale</w>
vehic le</w>
T age</w>
F ri
multin ation
basi eren</w>
Mis sion</w>
asi de</w>
illeg aler</w>
qualifizi erte</w>
se at</w>
ver la
car rying</w>
rel ate</w>
beunruhi gt</w>
europ a</w>
ur ban</w>
Instru menten</w>
radi o</w>
bed ro
qu iet</w>
Leben s</w>
um n</w>
Qu ar
on ents</w>
form ed</w>
transl ation</w>
erweit ern</w>
ge fallen</w>
politi ken</w>
Assoziierungs abkommen</w>
p ha
connec tions</w>
identi fy</w>
sp reche</w>
Qu alitäts
lo gic</w>
Jus tiz</w>
B li
fo un
tief er</w>
prosp ects</w>
EW G</w>
war z
äu men</w>
Dro gen
Venezuel a</w>
defin ing</w>
stre ssed</w>
d ank</w>
im perative</w>
twel ve</w>
dec ades</w>
fü h
erwäh nte</w>
ban ks</w>
An betracht</w>
Ehr e</w>
des truction</w>
and ing</w>
re mit</w>
In fl
z eiten</w>
eful ly</w>
wei gert</w>
vorsichti g</w>
l o</w>
Che chn
er mitteln</w>
Mitentscheidungs verfahren</w>
201 4</w>
te ch
pak ist
y stem</w>
thre at
gehör e</w>
glaubwürdi g</w>
verhin dert</w>
par tial</w>
sec tion</w>
submit ting</w>
highli ghts</w>
CO S</w>
hop ed</w>
Katastro phen
up dated</w>
fun di
Tre bi
stam men</w>
Wh ite</w>
Pakist ani</w>
cons istently</w>
welt weite</w>
pl us</w>
in ischen</w>
vig or
ma chten</w>
al e
we chsel
journ alist</w>
Spit ze</w>
D A</w>
ü hen</w>
ah en</w>
un t</w>
V or</w>
fer tig</w>
Tra ining</w>
Ministerprä sidenten</w>
a gency</w>
gr ati
proc esses</w>
G ra
umfan gre
be waff
war n
sta ing</w>
dist ur
is on</w>
kl einer</w>
Lebensmittel sicherheit</w>
Pro zeß</w>
B as
angemessen en</w>
ei ved</w>
B5-0 4
chris tlichen</w>
victi m</w>
Flücht ling
oper ieren</w>
mor al</w>
hund re
Lauf e</w>
be aring</w>
pursu ant</w>
Informations politik</w>
rul ed</w>
imag ine</w>
endor sed</w>
ner o</w>
el se
eigent liche</w>
verwal tung</w>
t t</w>
der e</w>
is tence</w>
1 -
z we
disp ute</w>
hr end
prakti sche</w>
sin ni
in her
inher ent</w>
anges tre
orienti eren</w>
per r
ne x</w>
candi dates</w>
berech tigten</w>
vol ler</w>
per ed</w>
n a</w>
Über arbeitung</w>
concentr ating</w>
Vorgeh ens</w>
cover ing</w>
dor thin</w>
Tragö dien</w>
0 1</w>
ein gebunden</w>
In stanz</w>
amen d</w>
struktur en</w>
else where</w>
8 00</w>
ann i</w>
W ash
Erzeu gung</w>
revis ed</w>
Nah en</w>
law yers</w>
PO L</w>
A5-0 1
Stand or
UN- Menschenrechtskommission</w>
ex </w>
secre t</w>
vor gehen</w>
Secre tar
on al</w>
da fri
mor al
C ast
terror istische</w>
le z</w>
ni k</w>
Ost europa</w>
Fra s
contribu tes</w>
2 3
pro min
Zun ah
transpar enter</w>
Pro g
outra ge</w>
fürch tungen</w>
sch ö
C olle
tho do
beigem essen</w>
in humane</w>
c ards</w>
excep tions</w>
author ised</w>
aus reich
m ation</w>
Aus richtung</w>
unter breiten</w>
at ch</w>
Bürgerbeauftra gte</w>
In ten
ge wi
ma ß</w>
fores e
ci </w>
ge zahlt</w>
Christi ans</w>
t as</w>
nor th</w>
S -
gesetzgeb ung</w>
parlia mentari
trac e
b rech
harmon is
stau sch
exc essive</w>
sum mit</w>
er folgt</w>
essen tially</w>
ut ter
B 7-0
Europ a
ar isen</w>
h n
Fischerei abkommen</w>
da zu
ar rest</w>
t pap
re ak
ab sta
S wob
os op
targe ted</w>
sti ck</w>
lich sten</w>
rei bung</w>
Kommiss ars</w>
ar bit
moder nen</w>
Autom obil
verteidi gt</w>
si eb
veran st
ehem aligen</w>
Kur ds</w>
Steuerzah ler</w>
fun ctions</w>
cle an</w>
W </w>
Th ere</w>
T ele
deli ver</w>
elimin ate</w>
manufactur ing</w>
de bt</w>
ten sions</w>
accoun ting</w>
­ </w>
M us
Bes atz
accep ts</w>
spezi elle</w>
f ror
fror enen</w>
Ge wässern</w>
Slo wen
äh ri
j ähri
ati sche</w>
lin gu
G a
höch ster</w>
ver stößt</w>
ti gem</w>
dro p</w>
fe ed</w>
d- country</w>
deut sam</w>
Pro vin
Aussch reib
Bed ro
b lat
unter halten</w>
top ic</w>
Eur or
spä teren</w>
13 .</w>
Pil ot
ei tig</w>
O ro
Inter vention</w>
schre ck
í n</w>
cris es</w>
spe ech
Risi ko</w>
An k
r ation
Ver ges
por te</w>
kri eg
S pen
au lt</w>
s ver
ou ter
U gan
beschäf tigung</w>
gene tically</w>
stei gt</w>
m s
R enten</w>
sec tions</w>
sh on
Am t</w>
zlo du
vorrangi gen</w>
l ut
H ann
sch ön
par ti
is tics</w>
W ür
Anmerk ung</w>
s wo</w>
Institu te</w>
künf tig</w>
C ot
wirk liche</w>
B ö
D I
L V</w>
air ports</w>
Bur m
over look</w>
jah re
Über tra
Staats -</w>
stre ckt</w>
Mar in
Fe u
mar g
pre tend</w>
w- how</w>
Exper ten</w>
ent lassen</w>
exp lic
avo s</w>
Mittelmeer raum</w>
än derung</w>
geb äu
ran che</w>
c in
ignor ieren</w>
Ban gla
EU- Recht</w>
1 1.</w>
orienti erte</w>
nehmen s
sch einen</w>
Re icht
pa y-
an sprechen</w>
- raising</w>
ess -raising</w>
advis ed</w>
Ju an</w>
Nord kor
über lassen</w>
T amp
zi tiere</w>
Umstruktur ierung</w>
Vorred ner</w>
D y
En des</w>
viol ent</w>
ad her
g ger</w>
vi erung</w>
ich terstat
L eiden</w>
Har ms</w>
Regi ons</w>
W ar</w>
ber ichte</w>
ledi gen</w>
f lä
aus zur
recht fertigen</w>
erfreu lich</w>
sto ck
gene tisch</w>
Kon solidi
F er
ge boten</w>
Betru g</w>
i ka</w>
be denkt</w>
EG -
Europ ol</w>
in qu
st ab</w>
aus gebaut</w>
D ep
fi zit</w>
bis schen</w>
Zun ächst</w>
Zuw ander
Asyl politik</w>
chem ical</w>
cri p
unter liegen</w>
oblig ation</w>
ru ft</w>
gele istete</w>
Angehöri ge</w>
ge klär
A s</w>
ag er</w>
einge gangen</w>
Gi br
Sch warz
tig keiten</w>
zentr en</w>
öh ne</w>
unzu reichend</w>
ge wirkt</w>
Schi ffe</w>
Fol gendes</w>
sol ving</w>
Rechnungsh ofs</w>
Fähi gkeiten</w>
billi gen</w>
no c
inter n</w>
feh l
Kyo to-
ein führen</w>
Wirk samkeit</w>
st y
moment um</w>
C ru
hundre ds</w>
Energiequ ellen</w>
Vertre tung</w>
fre ch
er wiesen</w>
- reaching</w>
where by</w>
Is la
dimen sions</w>
ver se</w>
Era smus</w>
unilater al</w>
Inter nationale</w>
Energiever sorgung</w>
akti ven</w>
aus gebil
Ein fu
inter governmental</w>
Ta j
5 00</w>
erfolgre iche</w>
Betrie b</w>
Nordi r
St atisti
No t</w>
sho wing</w>
kontrol li
propos ing</w>
si ze</w>
teil te</w>
fir e</w>
6 -
Gef an
Lit auen</w>
Zah lungen</w>
con taining</w>
inn t</w>
f ein
ess ed</w>
O M</w>
ph ones</w>
kon vention</w>
Hi gh
su cht</w>
h inter
l are</w>
dec lare</w>
re actors</w>
bedro ht</w>
St ei
Ru bri
aufzu heben</w>
N E
Ö ff
na ment
v ul
fli ghts</w>
ens able</w>
klär en</w>
hä us
dre i
S IS</w>
go s</w>
2 1.</w>
Gipfel treffen</w>
Wor ten</w>
per i</w>
suspen ded</w>
deser ve</w>
hand le</w>
y an
O b
fall ing</w>
g ame</w>
infl ation
Prä fer
pu rely</w>
B ün
I st</w>
Be wirtschaf
Bewirtschaf tung</w>
be y</w>
uc a</w>
in timi
Gel tungsbereich</w>
0 3
exper tise</w>
Rechtsgrund lagen</w>
kost spiel
198 0</w>
G ill</w>
be fre
ges te
frei er</w>
e es</w>
us ually</w>
Zwan gs
ch i
aus schließen</w>
bio technology</w>
reser ves</w>
sch lag</w>
cul tures</w>
sin k
Corn il
Lü tt
u tzung</w>
n it
psych ological</w>
an zunehmen</w>
Rechtsa kten</w>
ali ge</w>
enter ed</w>
schn elle</w>
hil osop
Cot on
ne ben</w>
wer f
F an
Luft verkehrs
5 2</w>
il assung</w>
Fre ilassung</w>
concentr ation</w>
ti vity</w>
V ir
suspici on</w>
Schwä che</w>
Cor m
ermäch tigungen</w>
glob alised</w>
angepas st</w>
smoo th</w>
Ab hängi
Bestand teil</w>
Maz edon
Mazedon ien</w>
atten d</w>
Brazi l</w>
acqu es</w>
verfol gung</w>
Kab elj
Arbeit er</w>
er y</w>
it ely</w>
spe cies</w>
k amen</w>
D al
Hel mut</w>
per secu
nü tz
schen ken</w>
geb illi
A pp
R E
consoli dated</w>
erlau bt</w>
Mar ko
Marko v</w>
stärk eren</w>
dest abil
restri ct</w>
Fra g
ann ed</w>
gegensei tig</w>
i or</w>
Stockhol m</w>
invest ors</w>
fre ely</w>
8 9</w>
re präsent
he ading</w>
for ef
foref ront</w>
D ay</w>
con ver
Völk ermor
ab zielen</w>
eigen es</w>
bu y</w>
Koh l</w>
lö cke</w>
Arbeits lo
Arbeitslo sen
inv itation</w>
Pal ästinens
par amount</w>
Op tion</w>
D omin
interess anten</w>
ok ko</w>
Har bour</w>
ach ing</w>
n esses</w>
Garan tie</w>
verank ert</w>
Sa al</w>
ad ly</w>
umfas st</w>
hat red</w>
gew innen</w>
C 6-0
abzu schließen</w>
nach voll
Wirtschafts wachstum</w>
aj anni</w>
di shon
R eh
Reh n</w>
be währ
stre am
pri or
on line</w>
be en
st räger</w>
ar ises</w>
r ich</w>
mer it</w>
Asi a</w>
y st
Anti -
ä ter</w>
yan mar</w>
NA TO-
o zone</w>
Um ständen</w>
G A
bevor stehenden</w>
Voll beschäftigung</w>
in zwischen</w>
fi k
dis ci
inten sive</w>
sav ings</w>
ti scher</w>
re ject</w>
verbin dliche</w>
H ass</w>
region aler</w>
weit aus</w>
perc eption</w>
c ope</w>
fü gt</w>
einzi ges</w>
ex ecu
o- economic</w>
or thodo
dead line</w>
experi enced</w>
Trin k
Öff nung</w>
yo s</w>
ar do</w>
fähr t</w>
G V
R unde</w>
smo king</w>
proble mati
& amp
Slovak ia</w>
fal sche</w>
verfüg bar</w>
anwes enden</w>
refer en
schä tzen</w>
ansi ly</w>
mu g
g ster</w>
auf richtig</w>
princi p
d om
J a</w>
eur os</w>
Zus age</w>
Mitarbeit er</w>
Prog nosen</w>
wäh nung</w>
Er wähnung</w>
irgend eine</w>
spra che</w>
Schutz es</w>
e ted</w>
setz enden</w>
contro versi
controversi al</w>
en vis
sozi al</w>
ari a</w>
stre ben</w>
verpflich ten</w>
Be zeichnung</w>
- free</w>
dar gelegt</w>
ver tritt</w>
radi tion</w>
lich ten</w>
outer most</w>
Funktion sweise</w>
so genannten</w>
Radi k
Radik alen</w>
un ent
kon g</w>
automati sch</w>
s li
betri eben</w>
glück licherweise</w>
in gent</w>
str ingent</w>
5 7</w>
wes enheit</w>
Bal i</w>
ELD R</w>
kümm ert</w>
Ein e</w>
tre aties</w>
Durchschn itt</w>
al a</w>
Mac Corm
MacCorm ick</w>
flo ur
flour ish</w>
Verbrauch ern</w>
dy nam
lo ss</w>
T ages</w>
Gleich heit</w>
li ked</w>
rep ut
Verwaltungs auf
aff ecting</w>
a ke</w>
v it
z ungen</w>
lat ter</w>
Grün dung</w>
Haushalts verfahren</w>
Schwer punkt</w>
benefi ci
nehmen den</w>
b ans</w>
wei len</w>
9 3</w>
es burg</w>
gen te</w>
Tei le</w>
at tini</w>
bean tragen</w>
Technolo gie</w>
versch är
System en</w>
finanzi ell</w>
ro om</w>
zei gten</w>
be gangen</w>
Profess or</w>
Di es</w>
ur gency</w>
her um
inter n
mag ne
penal ties</w>
por tu
portu gi
em on
fo ster
u b</w>
tes te</w>
sec tor
7 00</w>
ch sten</w>
Zah lung</w>
subsequ ently</w>
deb at
implic ations</w>
your s</w>
s ön
K un
irgend einer</w>
erm o</w>
Pal ermo</w>
st ung</w>
Bo den</w>
O S</w>
em m
N ice</w>
Erdo gan</w>
Gleich behandlung</w>
g ling</w>
Aus fuhr
reve aled</w>
regel mäßigen</w>
advoc ates</w>
Ziel setzung</w>
er ende</w>
her vor</w>
Aus setzung</w>
Lütt ge</w>
mar ine</w>
wohl wol
Sch ot
bes etz
L T</w>
einzel ne</w>
c ts</w>
heit liche</w>
entscheiden den</w>
frei ght</w>
rel ates</w>
Auswirk ung</w>
s day</w>
mittel s</w>
pos al</w>
for th</w>
passen gers</w>
incre di
am in</w>
Z agre
ergrei ft</w>
H olo
y al</w>
integr ate</w>
Galici a</w>
Partner schafts
ommen e</w>
ma chung</w>
Frag a</w>
Legisl atur
Legislatur periode</w>
en su
mas sive</w>
ei ght</w>
kon zept</w>
effici ently</w>
S ha
ali zation</w>
Geschlech ter</w>
ator ische</w>
organis ieren</w>
ver län
ten ten</w>
exc eed
ju dge</w>
Haushal te</w>
prakti schen</w>
S L</w>
ge ehrte</w>
en digung</w>
beschleuni gen</w>
S am
schü t
sup por
tes ten</w>
Euro st
kon tin
Vor bild</w>
Kon vents</w>
strug gle</w>
einf ache</w>
m ischen</w>
su mer</w>
Con sumer</w>
mo tor</w>
$ </w>
ha bt</w>
u ate</w>
at oren</w>
Verbrech ens</w>
CI TE
an gebracht</w>
au ms</w>
Gemeinschaft sin
Kenn a</w>
ro ute</w>
clos ing</w>
r uns</w>
ner able</w>
notwendi ges</w>
sc and
d ous</w>
h te</w>
sor gungs
amp ag
gebra chten</w>
sa ving</w>
stitu te</w>
off ering</w>
A cht</w>
aff air</w>
kontin u
K at
it ären</w>
Her stellung</w>
vor legt</w>
nah me
mem ory</w>
he f
lu ck</w>
städ tischen</w>
to ys</w>
A ri
W U</w>
erfolgre ichen</w>
hal tens</w>
besch ä
C FP</w>
Ergän zung</w>
Wer tpap
Wertpap ier
beizu tragen</w>
si erung</w>
tz eitig</w>
zu vers
zuvers ichtlich</w>
under take</w>
l der</w>
ho li
bet reiben</w>
Aus gleich</w>
Sozial politik</w>
Geschäf te</w>
occup ied</w>
man ip
greif ende</w>
Opf ern</w>
ver bleiben</w>
D AC</w>
pp en</w>
Meinungs freiheit</w>
k istan</w>
re conci
shi p
ob tained</w>
la ys</w>
Übertra gung</w>
Übermitt lung</w>
defin i
struk turel
it z
er us
J erus
nive au</w>
einzu führen</w>
sichts behörde</w>
Fest setzung</w>
allow ing</w>
avo ided</w>
Fisch best
Minder heit</w>
hop es</w>
Con go</w>
pp e</w>
ar ded</w>
Fir st</w>
ter es</w>
barri ers</w>
F ü
P A</w>
industri ellen</w>
Schi ffen</w>
er weiter
Entwicklungs zusammenarbeit</w>
concentr ate</w>
resul ted</w>
stakehol ders</w>
L uca</w>
under tak
grundle gende</w>
- Weg
Mc Kenna</w>
Ko zlodu
Kozlodu y</w>
prec au
milit ar
ein greifen</w>
gu ema</w>
p i</w>
Dal ai</w>
pla ys</w>
p ush</w>
econom ies</w>
án che
Chechn ya</w>
ex isti
Auf trag</w>
shap e</w>
f ur</w>
diesbezü gliche</w>
Tun es
annehm bar</w>
easi ly</w>
negoti ate</w>
Untersuch ungs
Aut or
rap e</w>
gi a</w>
Wal d</w>
Cornil let</w>
em ala</w>
ber ichterstat
ge kehrt</w>
far m</w>
zi ger</w>
cat ch</w>
Im ple
K OM</w>
Mit gefü
De par
em ed</w>
sur ro
F lag
Rand lage</w>
tei lungs
offen kun
positi ven</w>
go als</w>
regul atory</w>
distinc t</w>
zu mal</w>
bed ürf
r unde</w>
da iry</w>
S icherung</w>
sp ap
new spap
ridicul ous</w>
militär ischen</w>
Weiter entwicklung</w>
arbit r
gin gen</w>
sch ungen</w>
G isc
Gisc ard</w>
F err
Ferr er
emphas ised</w>
al arm</w>
her steller</w>
o ts</w>
industri alisation</w>
Gemeinschaft sebene</w>
s auber
regul ated</w>
En d
civil ised</w>
N guema</w>
In kraft
- sharing</w>
be einfl
Rass ismus</w>
M el
m är
diesel ben</w>
Don ner
österreich ische</w>
war ning</w>
ar tige</w>
Le ft</w>
Bo w
enorm ously</w>
in ians</w>
Bedro hung</w>
Ab b
systemati sch</w>
ander n
geograph ical</w>
E r</w>
beruf liche</w>
Fischerei politik</w>
Iraq i</w>
Del ors</w>
colle ctive</w>
pa th
kti ver</w>
An stoß</w>
vul nerable</w>
den ten</w>
Stu denten</w>
Aussch üssen</w>
Tabak an
Sch luß
Schluß folgerungen</w>
sal aries</w>
lä ss
I M
IM F</w>
Geschä ft</w>
sch ritt
schritt weise</w>
- one</w>
setz ungs
behin derte</w>
av ischen</w>
andin avischen</w>
Erd gas
har dly</w>
kontinu ier
Verhäl tnis
ach en</w>
consoli dation</w>
reinfor cing</w>
Trebi š
Trebiš ov</w>
tsit uation</w>
or es</w>
inter institutionelle</w>
H ong</w>
Sou verän
an gelegt</w>
schlimm er</w>
über prüft</w>
fo ssi
Ziel en</w>
hunder ts</w>
Jahr hunderts</w>
12 3</w>
Inter oper
0 .
sub -
R -Fraktion</w>
hrend t</w>
überzeu gen</w>
Co sta</w>
small -
small- scale</w>
S par
j ab</w>
Pun jab</w>
la red</w>
dec lared</w>
ban king</w>
tie f</w>
sign ature</w>
radi n</w>
Kenn zeichnung</w>
Vice- President</w>
ch el
at zung</w>
Telef on
gener ous</w>
fahr ts
Bow les</w>
be zeichnet</w>
zi pl
ver wenden</w>
ver ta
verta gen</w>
us stsein</w>
Bew usstsein</w>
s ahen</w>
besor gt</w>
appro xim
re ise</w>
investig ation</w>
besch ränken</w>
ent gegen</w>
hilosop h
intensi v</w>
modernis ieren</w>
P l
loc ation</w>
2- 9
B 2-9
elev anz</w>
R elevanz</w>
profi tieren</w>
ber ühr
unterbro chen</w>
Argu mente</w>
fest legen</w>
cover s</w>
em eal</w>
ch em</w>
isch ung</w>
Col ajanni</w>
lie ber</w>
verstän dnis</w>
ou gh
thor ough
Asylbewer ber</w>
ent standen</w>
gerä umt</w>
Proje kts</w>
rau cht</w>
geb raucht</w>
rech tzeitig</w>
Hil fs
justi fies</w>
dela ys</w>
con tain</w>
zwin gend</w>
Haushalts ausschuss</w>
guarante eing</w>
Verzö gerung</w>
Fr attini</w>
andern falls</w>
Ak te
Pf lan
Pflan zen
ger ing</w>
comm o
bud ge
mentar ische</w>
ann t</w>
Gesetz es
hervor rufen</w>
F ront</w>
B la
we a
nü tzlich</w>
liber al</w>
poli zei
Pat ent</w>
C F
S om
Lan gen
Langen hagen</w>
erklär e</w>
wa gen</w>
an schließend</w>
G radin</w>
Gen f</w>
y- General</w>
glau bt</w>
gra fischen</w>
au ert</w>
car bon</w>
administr ations</w>
dig ital</w>
leich te</w>
Tschech ischen</w>
groß zügig</w>
jem and</w>
L en
dam aligen</w>
einzu beziehen</w>
Car nero</w>
Res ult
L ast
Unterdrück ung</w>
el f</w>
Rati fizierung</w>
Di </w>
Sitz ungsperiode</w>
Arbeit er
trage dies</w>
bre ach</w>
Bal kan
Isla m</w>
drück en</w>
H u
s qu
y m
undertak ings</w>
appe ars</w>
Handels abkommen</w>
Sü d-
aus stat
Durch führungs
19 .</w>
Eur ob
conven i
k einem</w>
tur en</w>
Ma ij
Maij -Weg
Maij-Weg gen</w>
erzeu gnissen</w>
t an</w>
mark tes</w>
Verstöß e</w>
Aus einander
mäßi g</w>
Z ul
Kur den</w>
9 4</w>
chall eng
challeng ing</w>
fri en
radi o
Erläu ter
poor est</w>
sta ats
asser t</w>
mit unter</w>
any body</w>
begrenz t</w>
je gliche</w>
hand els</w>
flow s</w>
proc eed</w>
c ell
da tions</w>
foun dations</w>
refer ences</w>
L ernen</w>
20 8</w>
k olle
derog ation</w>
lie ben</w>
mit teilen</w>
eh ne</w>
L ehne</w>
bedeu ten</w>
Gemeinschafts rechts</w>
exis ts</w>
re fra
appl ying</w>
V e
gebie ten</w>
4 1</w>
konstru ktiven</w>
mean while</w>
ander swo</w>
B ren
Schä den</w>
ausü ben</w>
Pre stige</w>
eval uate</w>
tion ary</w>
su rely</w>
Ver kehr
ton om
au tonom
ob liegt</w>
ex pe
fi </w>
s at</w>
ref us
si x
&amp ;</w>
A kti
Fischer e
Som alia</w>
las st</w>
veran lasst</w>
ear th
Präsi dium</w>
p an
ri d
en forcement</w>
et tering</w>
Po ettering</w>
B üro
alt ar</w>
der ungsan
än derungsan
Fahr er</w>
err ichten</w>
categ ories</w>
üh le</w>
fe ature</w>
E R
ER T
ERT MS</w>
alcoho l</w>
hervorra gend</w>
neu esten</w>
rev ise</w>
syn the
5 8</w>
um sp
Pe ter</w>
Be endigung</w>
v ar
Fras son
Frasson i</w>
ab hängen</w>
Gewähr ung</w>
mög licher</w>
Bre y
Lin ken</w>
ehr ter</w>
wid met</w>
B or
hei l
au shal
v e-
ere cht</w>
Dienst leistungs
al lies</w>
5 4</w>
Mul der</w>
Organ en</w>
trace ability</w>
Serbi a</w>
succ esses</w>
der grund</w>
án dez</w>
requ ir
no tice</w>
Ein la
L öhne</w>
4 3</w>
Euro control</w>
lei d</w>
gratu lieren</w>
gemein schaft</w>
kohär ente</w>
mean ing
Kon rad</w>
stri king</w>
model s</w>
Stat ute</w>
I m</w>
contra ct</w>
co d</w>
sp ann
auf s</w>
versich ert</w>
ob li
obli ged</w>
Ver an
Johann esburg</w>
ing ton</w>
E ing
Entschließ ungen</w>
be merkt</w>
Mus li
Inter im
hervorra genden</w>
kri tisch</w>
schnell st
ir respective</w>
Grün e</w>
yo ung
pre gn
er teilen</w>
Gro sch</w>
San ta</w>
Medi a</w>
tren nen</w>
Funda ment
Fre unde</w>
hin weg</w>
be hal
Spen cer</w>
Artic les</w>
pedestri an</w>
a gen</w>
ethn ischer</w>
gewi ß</w>
co ast
ck x</w>
Ster ckx</w>
re volu
A6-0 3
Qu ali
o da</w>
Swob oda</w>
Mar t
a ob
aob o</w>
i aobo</w>
X iaobo</w>
A ir
Air bus</w>
ver trag</w>
H ü
accur ate</w>
beträch tlichen</w>
ass ess</w>
f unded</w>
Fre iheiten</w>
cor por
auf gaben</w>
vertre te</w>
Ü bel</w>
defin itely</w>
sen ken</w>
speech es</w>
Einzel personen</w>
sent ence</w>
col oni
J acques</w>
Umweltbel astung</w>
Arbeit nehmer
identi ty</w>
Inspe ktionen</w>
alloc ate</w>
dr än
L o
ab and
pun ish
in compatible</w>
F A
L ab
Gesch lossenheit</w>
inter fere</w>
no tes</w>
ge ehrten</w>
earth qu
c larity</w>
wäh len</w>
wish ed</w>
atis m</w>
trans fer
contin uation</w>
stri kte</w>
be deutsam</w>
dra sti
iti me</w>
dri ve</w>
expor tiert</w>
an stehenden</w>
reinfor ced</w>
Ser vice</w>
zep ts</w>
verän dert</w>
norm alen</w>
vernünf tigen</w>
ökonom ische</w>
re in</w>
Umweltsch utz</w>
ungs politik</w>
ru m
koordin ieren</w>
wi ce</w>
t wice</w>
cre ative</w>
Mex ic
geeig nete</w>
heu er</w>
star ke</w>
Kommun ismus</w>
Konsolidi erung</w>
eli hood</w>
lik elihood</w>
an wenden</w>
thi op
Wall is</w>
tion ally</w>
ver sen</w>
inves tiert</w>
Prü f
bro ken</w>
tatsäch liche</w>
F al
ein gebracht</w>
ag net
agnet ti</w>
Cast agnetti</w>
f ault</w>
er tes</w>
indisp ensable</w>
campa ign
F rü
b ases</w>
wor sen
f än
uni versi
employe es</w>
ge denken</w>
in sofern</w>
klar er</w>
gefähr lich</w>
Hoch schul
wehr en</w>
multilater alen</w>
a dem
soci o-economic</w>
auseinander setzen</w>
sp lan
fru it</w>
laun ch</w>
türk ischen</w>
dem anding</w>
Gonzá lez</w>
geleit eten</w>
ermäch tigt</w>
short- term</w>
f assungs
-Be hrendt</w>
Roth -Behrendt</w>
listen ed</w>
ke en</w>
Bon de</w>
ir s</w>
k in
formu liert</w>
amtier ender</w>
Sch atten
künf te</w>
Wald ner</w>
derzei tige</w>
weni gen</w>
dien sten</w>
über mittelt</w>
interven tions</w>
Wel che</w>
geno cide</w>
prinzi piel
gang sp
k is</w>
Arbeits kräfte</w>
unter gra
dien ste</w>
mi um</w>
Unter brech
ungs verfahren</w>
20 -
realis ed</w>
stimm te</w>
vorange gangenen</w>
gri ffenen</w>
unter nimmt</w>
Engl ish</w>
advoc ate</w>
Wer k
s wit
inform al</w>
sla ve</w>
gerin ger</w>
inter fer
An sehen</w>
Zu gangs
Gas peri</w>
confir med</w>
korrigi ert</w>
is ek
ü bung</w>
Aus übung</w>
stro m</w>
aus geschlossen</w>
Ge win
Gewin n</w>
- Programm</w>
For ce</w>
Col lin
sha dow</w>
nö tigen</w>
Bulgari en</w>
Sy ri
beruf lichen</w>
A ct</w>
Rede beitrag</w>
letz tlich</w>
enor men</w>
di ed</w>
be gu
begu n</w>
wa st
stric tly</w>
fisher y</w>
r ant</w>
fin dung</w>
Entscheidungs findung</w>
ol ing</w>
minister i
Konvergen z</w>
Vorsitz enden</w>
konzentri ert</w>
höch ste</w>
sec ular</w>
colle ction</w>
Eisenbah n</w>
tra ined</w>
A D</w>
Wo g
under stan
objec tions</w>
Reg ister</w>
er suchen</w>
eh </w>
vereinbar ung</w>
es te
Tit el</w>
8 5</w>
che ap</w>
mo dest</w>
sk andinavischen</w>
Gewal t
et c</w>
Fischere isek
un verantwortlich</w>
indic ate</w>
H ier</w>
redund ancies</w>
legisl ativen</w>
tes tens</w>
spä testens</w>
— </w>
to tal
blo ck</w>
Arbeitsp latz</w>
Lithu ania</w>
Demok raten</w>
conserv ation</w>
The a
Thea to</w>
gesch lech
fro zen</w>
em in
un ite</w>
disci pl
Eurat om</w>
ref using</w>
he av
tran splan
gesell schaftlichen</w>
dec re
Verhaltensko dex</w>
Vertra ges</w>
gel t</w>
eff ektive</w>
sph äre</w>
wur zel
wi es</w>
f ert</w>
e klat
nah e</w>
199 1</w>
Evalu ierung</w>
Mar okko</w>
lu t</w>
B lut</w>
voll ständig</w>
ic ro
2 98</w>
zweit er</w>
w asser</w>
1 11</w>
regre t
artic le</w>
frien dly</w>
Produ kt</w>
grenz übergreif
ver bergen</w>
qu anti
Vor dergrund</w>
doub ts</w>
wes tern</w>
Del eg
initi ated</w>
zwan zig</w>
Ev ans</w>
Medi k
Medik a
thir d-country</w>
201 2</w>
Woh l
fu els</w>
8 4</w>
R ot
end um</w>
ge denkt</w>
distribu ted</w>
gesch rieben</w>
R ühle</w>
di ge</w>
increas es</w>
Schlüssel rolle</w>
high- quality</w>
Führ ung</w>
ein spar
finan ces</w>
Verhäl tnisse</w>
16 3</w>
Min des
7 .
er hoben</w>
ass ist</w>
Glob alisation</w>
eventu ally</w>
substan tially</w>
view ed</w>
ver tie
P it
nah e
belie f</w>
inves tieren</w>
optimis tic</w>
verwand eln</w>
bis lang</w>
Anreg ung</w>
obje ktiv</w>
is s</w>
bare s</w>
kommen tieren</w>
N ä
Dro gen</w>
M ou
ins k</w>
re placing</w>
peti tion</w>
kn app
de te
of es</w>
F es
cau st</w>
Holo caust</w>
Ja vier</w>
Fre qu
Gebäu de</w>
ti fied</w>
Tour ismus
acci dent</w>
resul ting</w>
ul timately</w>
gerech ten</w>
pursu ed</w>
P es
modi fied</w>
st ation</w>
lan tik</w>
low est</w>
vol ution</w>
Nahrungs mittel
er b
Ratsvorsit zes</w>
perm its</w>
deliber ate</w>
diplom atic</w>
artic les</w>
toler ance</w>
Wog au</w>
ös ung</w>
sur vi
Mül ler</w>
kriti siert</w>
consul tations</w>
prof its</w>
eng age</w>
re tention</w>
progres sive</w>
biolo gische</w>
ein her
A4-0 2
compe ten
ad journ
un sinni
capac ities</w>
ne ws</w>
repe at
repeat edly</w>
wer ten</w>
P a
re habil
Frei zügigkeit</w>
Al cide</w>
Z ins
estim ates</w>
cro ps</w>
Ent schä
ac a</w>
Cas aca</w>
fol g</w>
coordin ate</w>
ambigu ous</w>
einheit liche</w>
se as</w>
Jugend licher</w>
con vi
N az
auszu dehnen</w>
4 00</w>
Erei gnisse</w>
D avos</w>
Parla mentarischen</w>
Ol sson</w>
gesto ßen</w>
Prakti ken</w>
se -
irgende in</w>
f r
geklär t</w>
grün den</w>
Erläuter ungen</w>
fort gesetzt</w>
miss verstän
Hom e</w>
evi l</w>
Gen eva</w>
Konfli kt
N iel
en ia</w>
Einfu hr</w>
cho ices</w>
Ban ken</w>
dring lich</w>
protec ting</w>
S omm
wirk samer</w>
POSE I</w>
F ünf
Nat ur</w>
Bra si
Brasi lien</w>
b anned</w>
Ver m
Ab fällen</w>
Chr isten</w>
verur teilt</w>
B -
wachsen der</w>
disappoin ted</w>
Versch mutzung</w>
mo vements</w>
P S</w>
G PS</w>
An reize</w>
w ahr</w>
Bangla des
o lies</w>
Flor enz</w>
benachteili gten</w>
all as</w>
K allas</w>
Sup port</w>
t au
civili ans</w>
explan ation</w>
I deal</w>
le ute</w>
ou lder</w>
sh oulder</w>
an gelegenheiten</w>
Gu at
Guat emala</w>
Nordkor ea</w>
Initi ativ
dis quiet</w>
M yanmar</w>
Famili e</w>
Zus atz
D aul</w>
zu kunfts
Inkraft treten</w>
di eren</w>
Bem ühen</w>
Kommunik ations
Kon g</w>
ver langen</w>
unter suchen</w>
descri bed</w>
inci dent</w>
Zeit plan</w>
he tor
Kon z
Zunah me</w>
G FP</w>
e co
deri v
bele bung</w>
f loo
de cken</w>
regelmäßi ge</w>
histor ischen</w>
l acks</w>
Rechn ungs
Volk spartei</w>
phen omen
addre ssing</w>
vorüber gehenden</w>
Secretar y-General</w>
L ar
produc er</w>
rän kung</w>
for ced</w>
rele ased</w>
Leist ungen</w>
W ein
exc ise</w>
Con serv
notwendi ge</w>
universi ties</w>
1 7.</w>
H ong
Hong kong</w>
fin ding</w>
obser vers</w>
Reser ven</w>
Euro- Mediterranean</w>
condi tional</w>
Tamp ere</w>
Be fürchtungen</w>
k örper
Slowak ei</w>
sp üren</w>
ro admap</w>
ri es
be greifen</w>
P an
alis ing</w>
requir ing</w>
untergra ben</w>
ter halten</w>
Arbeitsplä tzen</w>
ge äußert</w>
Wer bung</w>
verantwortungs vollen</w>
vor aus</w>
F u
Wäl der</w>
Thur sday</w>
Erd be
tä tigen</w>
Hy land</w>
ast y</w>
H äfen</w>
integri erte</w>
Schengen -
ip el
N apo
dec entr
Au tob
spec trum</w>
restruc turing</w>
- Entwicklungs
medic ines</w>
konkre ter</w>
modern ise</w>
Nicht diskriminierung</w>
gres si
toler anz</w>
der jenigen</w>
gewöh nt</w>
earli er</w>
w ine</w>
An hebung</w>
acti vely</w>
applic able</w>
län der
W WU</w>
Be amten</w>
Partik el</w>
dar zulegen</w>
Stra fe</w>
deliver ed</w>
AC P</w>
rel ative</w>
ar ro
Über gangs
campa ign</w>
cop y</w>
vernünf tig</w>
St offen</w>
tal ity</w>
Bo wis</w>
ag ue</w>
ben den</w>
Gerichts verfahren</w>
an führen</w>
2 2
infrin gement</w>
S ánche
erhö ht</w>
ECH O</w>
E staing</w>
de al
grün dung</w>
su che</w>
müß ten</w>
umfassen d</w>
Gi ansily</w>
H under
Cru z</w>
extra ordinary</w>
komple x
ri ed</w>
ran ging</w>
en des</w>
Bestimm ung</w>
Eurost ars</w>
F ach
C5-0 6
protokol l</w>
Beru fung</w>
in equality</w>
Collin s</w>
priv acy</w>
umfas sen</w>
strength ened</w>
strate gies</w>
Wash ington</w>
ta ges</w>
Fr ist</w>
Prä mis
ne o
auf sichtsbehörde</w>
Sch wach
n ul
Über griffe</w>
gel ehr
u men</w>
Koh är
T radition</w>
car ve</w>
mit erleben</w>
har ov</w>
sch eit
missverstän dlich</w>
rü cke</w>
S ex
norm al
safegu ards</w>
Behin der
aus we
ol ds</w>
Einw anderer</w>
tn issen</w>
om it</w>
adi c
e ot
Jun ta</w>
EU- Beitritt</w>
los es</w>
chec ks</w>
w inner</w>
ück en</w>
heav y</w>
Innov ationen</w>
rech terhalten</w>
her ange
R ak
Tschetschen ien</w>
Sch rei
orthodo x
Zuwander ung</w>
Führ er</w>
fest legt</w>
beding ten</w>
t umn</w>
Colle ge</w>
Konjunktur programm</w>
G loser</w>
ü ge</w>
r hetor
n an
uns atis
Bi om
fri ction</w>
ei en</w>
re ale</w>
a ge
b be
K W</w>
p one</w>
Americ ans</w>
besor gnis
Verantwor tungs
f s</w>
eng agieren</w>
be trags</w>
PN R</w>
nüpf t</w>
pro vin
ta g
empfeh len</w>
Organ ization</w>
Mo der
un used</w>
Zahlungs ermächtigungen</w>
W ater</w>
ökolo gischen</w>
Schot tland</w>
b ungen</w>
Kre iss
er schüt
mit berat
sho wed</w>
Sahar a</w>
sol e</w>
Schrei bens</w>
toler ate</w>
äl ter
mög lichkeit</w>
Op t-
Jahrzeh nte</w>
young er</w>
Hoh eits
de v
volu me</w>
min ds</w>
Ser ben</w>
ermu tigen</w>
ost europäischen</w>
im ported</w>
sch au
benefici ary</w>
bi om
ver brauch
ha b
derog ations</w>
in der
subsi di
ges ich
M ü
ch lichen</w>
argu ed</w>
gebau ten</w>
Grund lagen</w>
spee di
ge ehrter</w>
jah res
me en</w>
fahr zeuge</w>
con formity</w>
prec ari
Selb stverstän
zei gte</w>
stri kt</w>
hoh em</w>
thorough ly</w>
enthusias m</w>
acqu ire</w>
ven ue</w>
bekann te</w>
t sektor</w>
Rück kehr</w>
Ver such</w>
un erklär
Volks wirtschaf
Be förder
v acc
cour ts</w>
Mi kro
hier mit</w>
min ute</w>
an xi
heit lich</w>
in trin
Gan ze</w>
il es</w>
An gaben</w>
stock ung</w>
K örper
ung er
z ens</w>
gleich ung</w>
ro ck</w>
Re port</w>
in tolerance</w>
ma il</w>
. B.</w>
B a
mis taken</w>
k w</w>
Be ziehung</w>
ad o</w>
pun ished</w>
Auf forderung</w>
Wahr schein
adjourn ed</w>
än ge</w>
tech noc
ktions übergreif
voraus sichtlich</w>
li erungen</w>
irgend wie</w>
ho ff
multilater ale</w>
mass ac
Univers itäten</w>
equi vo
b ten</w>
her angehen</w>
ser klär
Sco tland</w>
kräf tig</w>
deut liches</w>
best and</w>
str an
be har
&apos; Alba</w>
la under
Vertrie bs
Stei gerung</w>
An sätze</w>
war rant</w>
occ o</w>
Ko sten
con d</w>
Se cond</w>
Z E</w>
safegu arded</w>
or a</w>
eco systems</w>
Best ä
Formu lierung</w>
ful fi
icher maßen</w>
pay- phones</w>
angeb lich</w>
W F</w>
y right</w>
gen ce</w>
no ck</w>
Kin nock</w>
amtier ende</w>
lich ere</w>
parliamentari ans</w>
behal t
Interne t-
def ending</w>
re unification</w>
u st
zwei ein
fair ly</w>
schä tze</w>
ou red</w>
con jun
emer ge</w>
char ged</w>
lich enfalls</w>
erforder lichenfalls</w>
hil fre
schwieri ge</w>
Ban an
s öh
bor ne</w>
offen sive</w>
a ya</w>
ex porting</w>
Be kann
Rau ms</w>
consci ous</w>
d- looking</w>
Wieder belebung</w>
ima ge</w>
hung ry</w>
Her z
ira ble</w>
2 9</w>
Kre ativ
emp ör
er schwer
x iz
o- Waldner</w>
mis st</w>
Kol oni
Tex til
satis fies</w>
threat ens</w>
see ks</w>
ff ing</w>
gab en
gro wn</w>
au stausch
austausch s</w>
koordin iert</w>
T emp
An nex</w>
War en
In halts</w>
an de</w>
un justified</w>
19 7
stei genden</w>
korre kte</w>
CF SP</w>
jen er</w>
ab sichti
z er</w>
ol y</w>
broadc ast
dor tigen</w>
op tions</w>
fol gendes</w>
convi ction</w>
hoh es</w>
wil len</w>
anti tät</w>
Go als</w>
thresh old</w>
do or</w>
in ea</w>
a il</w>
experi ments</w>
natür liche</w>
wel comes</w>
Bei j
att ack
Kohär enz</w>
G le
Bud getary</w>
Standpun kts</w>
certi fication</w>
ori al</w>
rest ore</w>
conc ep
di t</w>
ben en
kommen de</w>
ben de</w>
i kan
18 .</w>
Elektriz itäts
begleit et</w>
proch enen</w>
Gu ta
pat ern
ran ken
them atic</w>
an ism</w>
Gedan k
per f
as sin
Änder ungs
Mor occo</w>
competen ces</w>
g ap
gap s</w>
hochwer tige</w>
model l</w>
motor ways</w>
as sa
tz ah
Bru st
ein geleiteten</w>
lac ed</w>
refle ction</w>
Religi ons
bring ung</w>
Gü ter
min e</w>
Nu klear
post -
Ger ä
7 9
dul den</w>
l assungen</w>
gekenn zeichnet</w>
Liber als</w>
qualit ativ</w>
po th
ange bote</w>
Pat ent
a ths</w>
ten er</w>
n ice</w>
pre di
mark t
Industrie politik</w>
sch la
struc tured</w>
f ought</w>
bean tra
Entschließ ungs
wünsch ten</w>
bi a</w>
ar ming</w>
or ous</w>
gra vier
trans late</w>
hi ding</w>
N ichts</w>
er st
destro y</w>
chem ische</w>
Rück sch
aufge griffen</w>
Kommiss are</w>
amm ern</w>
lic ences</w>
m ischung</w>
Er stes</w>
be u
non- governmental</w>
e goti
Ge wäh
R ail
Eco f
rehabil itation</w>
clas si
I II</w>
ell en
circ le</w>
r ational</w>
tra fung</w>
bürger liche</w>
Rail way</w>
A gen
C R
Ban k
Fran zös
educ ated</w>
0 .</w>
Guta chten</w>
Haup tz
ell or</w>
Bri ef
Interoper abilität</w>
attribu ted</w>
refus al</w>
produ zieren</w>
Leistungs fähigkeit</w>
unge fä
c ell</w>
proje kten</w>
wor ried</w>
völ lige</w>
so zu
eur o-
oll ars</w>
läs sigkeit</w>
tin form
d ged</w>
mo tions</w>
fre ed</w>
einzi ger</w>
tru ly</w>
se tze</w>
st ein</w>
si cally</w>
Geor gien</w>
after wards</w>
gerin gen</w>
chec ked</w>
benen nen</w>
Kreiss l-
mor alis
schaf tsp
arbitr ary</w>
- the</w>
So vi
an fangen</w>
weni g
wenig stens</w>
lit er
famili ar</w>
Ab gaben</w>
mor tality</w>
bi le</w>
tari ffs</w>
sch rei
Kohäsions fonds</w>
ur laub</w>
belon gs</w>
einzi g</w>
ges un
Pe king</w>
poth ek</w>
Hy pothek</w>
W ol
categ ory</w>
Berichterstat tern</w>
Medika mente</w>
er ating</w>
Bewer ber
Bewerber länder</w>
moralis ch</w>
- L
pflich ten</w>
st ore</w>
H on
an gehöri
Fre iz
Unru hen</w>
commit ting</w>
All tag</w>
tier enden</w>
cut -
re productive</w>
ko v
Ru he
gehei m
abzu schaffen</w>
Ex port</w>
erforder liche</w>
M em
ra cism</w>
territori es</w>
EURO DAC</w>
sen ior</w>
moder ner</w>
stellvertreten de</w>
Kapaz itäten</w>
for emo
würdi g</w>
fort zusetzen</w>
Mitgefü hl</w>
men tierung</w>
lauf enden</w>
ke ts</w>
vor ne</w>
ür zen</w>
inev itable</w>
transatlan tischen</w>
ed lungs
al tungs
fa ther</w>
ser in</w>
pro test</w>
kla res</w>
lat z
icher heit</w>
B5-0 14
ausgewo gene</w>
l v
Lo gi
str ange</w>
fris t
mensch liches</w>
Kur den
ab uses</w>
Sta at
Afri kanischen</w>
govern ed</w>
wei b
geschlech ts
o vi
Gewerk schaften</w>
as tic</w>
b rü
journ alists</w>
prof it
exac erb
Energieträ ger</w>
de aths</w>
u ßt</w>
rel la</w>
person en
forwar d-looking</w>
el nden</w>
po oling</w>
ha ble</w>
pos it
l ying</w>
wider spricht</w>
dis covered</w>
erläu tern</w>
in er
Besonder heit</w>
pragmati c</w>
Vertre terin</w>
depen ding</w>
er teilt</w>
häufi gsten</w>
ber g</w>
environ ment
Soci alists</w>
T ruppen</w>
ir re
Be gri
ro t
no -one</w>
Schengen er</w>
Sat z</w>
cre ening</w>
clos ure</w>
fif th</w>
revi diert</w>
Kommissionsprä sidenten</w>
Öko systeme</w>
confi den
B ritt
Ges te</w>
ab sten
ra ktion</w>
com ed</w>
prevail s</w>
vis it
visit ors</w>
ob serve</w>
Dienst stellen</w>
is on
pon enten</w>
Kom ponenten</w>
kap it
führ ende</w>
edo ku
Reis edoku
stä tigkeit</w>
kin ds</w>
bo lic</w>
pli zi
Mär kten</w>
sign ing</w>
us sen</w>
Haupt them
reser vo
Wahl freiheit</w>
be zahlt</w>
auf zunehmen</w>
kon sums</w>
ber au
ELD R-Fraktion</w>
wider setzen</w>
lu xem
al ty</w>
zu tage</w>
Privat gesellschaft</w>
evi dent</w>
Invest ment</w>
Zyper n-
do w
dow n
re stra
gefähr den</w>
satis fied</w>
197 0s</w>
Finanz sektor</w>
lech tert</w>
heu tige</w>
Kom pro
realis ieren</w>
pursu ing</w>
sp len
entschei dungen</w>
Z weiten</w>
N an
bil deten</w>
Sek toren</w>
b ir
ts man</w>
fe a
er ledigen</w>
rap i
har t</w>
zi em
medic in
medicin al</w>
heal thy</w>
Austr alia</w>
ten dency</w>
C olo
de fic
Co hesion</w>
u ationen</w>
mer cur
O cc
ira k
d ying</w>
la sten</w>
mo ving</w>
würdi gen</w>
gh et
M and
isch ten</w>
über nommen</w>
Bel gien</w>
jahre lang</w>
holi days</w>
hr en</w>
Un klar
cor respond</w>
ge plant</w>
cor respon
er es
Völkermor d</w>
schä dlich</w>
K ranken
Gro w
up -
l uss</w>
in ne
Schä tzungen</w>
fahr t</w>
interpre tations</w>
lossen e</w>
Hom o
L ist</w>
Sozial demokratischen</w>
Con duc
h är
Aus weit
2 20</w>
diff er</w>
Cam bo
Da für
streng ere</w>
un conditional</w>
Mindes tn
A T</w>
V AT</w>
Besu cher
Maß stab</w>
b liche</w>
öpf e</w>
kul ationen</w>
14 7</w>
appreci ation</w>
wel chem</w>
eingesch rän
zar dous</w>
ha zardous</w>
nu tzt</w>
transi tional</w>
Konfli kten</w>
ecu li
post pone</w>
P atten</w>
ge tren
getren nt</w>
re perc
reperc us
D ublin</w>
ver wen
weak ness</w>
occup ying</w>
Be gründung</w>
de ma
F il
B ranche</w>
brea thing</w>
Ad just
en de
pl astic</w>
organ s</w>
Renten systeme</w>
coast al</w>
m assi
C al
graph ic</w>
tra ce</w>
ag no
Gem ischten</w>
assess ing</w>
ru f</w>
José </w>
a g</w>
intensi vi
O il</w>
ga ther
Ex ek
Binnenmark ts</w>
g li
Kür zung</w>
d ä
Viel en</w>
im pres
fin dlich</w>
Petitions ausschusses</w>
letz tes</w>
gas se</w>
Tabakan bau</w>
ms -
sub jec
Bi o
Viel e</w>
woh n
Ausnahmere gelungen</w>
w in</w>
bes tre
skil ls</w>
Nä he</w>
Ost se
verstär k
barri er</w>
Geb ühr
hal tet</w>
bein haltet</w>
For m
viel fäl
rejec tion</w>
voran treiben</w>
unter werfen</w>
ci ve</w>
Cha ir</w>
all u
gle ichermaßen</w>
gs bekämpfung</w>
k ir
Einla dung</w>
ha ft
err ichtet</w>
zweiein halb</w>
anges ehen</w>
rück en</w>
trans posed</w>
i dem
Olymp ic</w>
ricul ture</w>
wel t</w>
ten den</w>
rech ten</w>
di spar
cl auses</w>
funktion ierende</w>
domin ated</w>
for cing</w>
xic ity</w>
o ber
intimi dation</w>
Infl ations
lan ger</w>
verstän d
fronti er</w>
bezo genen</w>
E qu
grundsätz lichen</w>
st rau
Mis strau
An bie
e tzen</w>
konkurri eren</w>
stru ck</w>
Tragö die</w>
chan ces</w>
ti fication</w>
proc essing</w>
geeig neten</w>
Kompro mi
Begri ffs</w>
saf er</w>
care er</w>
fac tory</w>
unsatis factory</w>
lu b</w>
sag ten</w>
advan ced</w>
sch uld</w>
differ en
gel aden</w>
lich te</w>
Erdbe ben</w>
Sozial modells</w>
amen ding</w>
Straft at</w>
un likely</w>
ver zö
ref ers</w>
Misser folg</w>
Off enheit</w>
Fre ie</w>
insp i
unum gän
c andin
S candin
E ar
sch lage</w>
Aus land</w>
Jugend liche</w>
Maß stä
Maßstä ben</w>
leg ale</w>
flo od</w>
Mo sk
transi tion</w>
ga ther</w>
b aff
Pati ent
transpar ente</w>
ungs kraft</w>
st y</w>
ech t
G M
Beobach ter</w>
Einfuhr verbot</w>
stam p</w>
gleichberech tigt</w>
f ler</w>
Dör fler</w>
wa ve</w>
Chr isto
auszu weiten</w>
ome ter</w>
Ausweit ung</w>
K u
Her an
Car los</w>
ermor det</w>
der al</w>
Fe deral</w>
Kraft stoff
zahlreich er</w>
Rück zug</w>
fäl lig</w>
degra ding</w>
qu asi
ver teilung</w>
shor e</w>
hop efully</w>
Fel ip
b reas
dro ht</w>
best är
verstär kten</w>
EU- Mitgliedschaft</w>
M ale</w>
B om
tem pered</w>
Erk ran
quanti ty</w>
Inter governmental</w>
erör tern</w>
asi atischen</w>
hin gegen</w>
S m
du ms</w>
Le istung</w>
6 6</w>
Slowen ien</w>
ateg ory</w>
fi le</w>
- income</w>
deter i
b rechen</w>
f ak
Kris en</w>
bewe gt</w>
vorrangi g</w>
ge wässern</w>
Wachst ums
er ter</w>
ic ed</w>
Palästinens er</w>
er kannt</w>
post al</w>
unter lassen</w>
b sprä
beschäf tigungs
ver en</w>
am bo
sit e</w>
hi ther
hither to</w>
rul ing</w>
Gleich e</w>
W ur
erneuer barer</w>
prakti zieren</w>
rec ru
Proble m
provi ders</w>
i ken</w>
Biom asse</w>
f lan
fa ster</w>
fu sion</w>
In toleranz</w>
col la
stren g</w>
inci dents</w>
gelten d</w>
ad ult</w>
er es</w>
ampag ne</w>
bekann ten</w>
ausgewogen es</w>
char ter</w>
he ber
M anu
Unter nehmens
dis proportion
ur o
E M</w>
beg innt</w>
immen se</w>
bu ilt</w>
fo o
Erwer bs
benö tigten</w>
fes tigen</w>
b loo
lea ves</w>
häufi ger</w>
out -
ne tz
ver ordnung</w>
ani an</w>
ein laden</w>
adjust ments</w>
Bewe gung</w>
bish eri
ver schaffen</w>
I I
da mer</w>
Amster damer</w>
Logi k</w>
Militä raktion</w>
dre am</w>
spec ul
constitu ents</w>
h it</w>
diplom acy</w>
ens an
verträ g
Umwelt verträg
Mexic o</w>
Koh len
di s</w>
an x
be hr
contribu ting</w>
z nei
Ma xim
Dialo gs</w>
imp acts</w>
civili an</w>
re placed</w>
Au tos</w>
ro ot</w>
polizei liche</w>
sol ch</w>
C y
ent es</w>
hand ling</w>
ou -
Minis try</w>
lit ten</w>
1 1
over -
no wa
nowa days</w>
ei m
Geh eim
b lu
gegeben en</w>
eot yp
pro sec
R ü
Migran ten</w>
be weist</w>
s mug
sel be</w>
hilfre ich</w>
Z imbabwe</w>
An der
accel erate</w>
AC H
RE ACH
REACH </w>
Ter ra
c ite</w>
control ling</w>
tan e
sym bolic</w>
k riterium</w>
Occ up
an hand</w>
leich terung</w>
consu lt</w>
produ zenten</w>
ern e</w>
vereinbar en</w>
decentr alisation</w>
inqu iry</w>
EZ B-
w and</w>
wol lten</w>
lar ation</w>
ero sion</w>
Souverän ität</w>
O ri
up gra
ab schaffen</w>
selec tion</w>
Provin z</w>
del eted</w>
Parla mentari
General sekretär</w>
ge prä
ch lor
slo wak
Woh ler
Wohler gehen</w>
en rich
Burm ese</w>
üb lich</w>
russ ischer</w>
bu ßen</w>
t asks</w>
zivil is
dic table</w>
Ä uß
Äuß erung</w>
Differ enzen</w>
Wahl beobach
er ity</w>
prosp erity</w>
ein sei
Umweltre ch
Bes trafung</w>
been det</w>
Stat ut</w>
be ars</w>
es se</w>
- and
sor ge
understan dable</w>
differ ently</w>
zur zeit</w>
ed ing</w>
Völk er
Völker gemeinschaft</w>
is ierungs
Fern sehen</w>
Er haltung</w>
Investi tions
beding ung</w>
gu ardi
mi d
Person en
größer es</w>
t emp
dies mal</w>
fol gen
sa ke</w>
Mand ats</w>
scru tin
Sch well
character istics</w>
Sch luß</w>
wid men</w>
hil ft</w>
außer gewöhn
a .m.</w>
k sil
ec ksil
p ro</w>
- Dupuis</w>
ok ol
zer land</w>
them e</w>
asp ir
hinzu fügen</w>
über gehen</w>
schul digen</w>
her es</w>
Wer ke</w>
gewöhn lich</w>
wirk sam
ver handelt</w>
ko operieren</w>
Handels k
form ation</w>
Aktionsp lans</w>
to- date</w>
20- Strategie</w>
B rit
en burg</w>
in comes</w>
Feu er
Fun k
sp err
sperr en</w>
Schengen- Bes
Schengen-Bes itz
er streckt</w>
gra d</w>
ipel ines</w>
Fuß b
unge achtet</w>
t- out</w>
Frei handels
fer tigung</w>
investig ating</w>
rec re
err t</w>
verz errt</w>
shor tage</w>
Ein ver
hier für</w>
sol di
Verbraucher schutz
ris ing</w>
ge treten</w>
gesich ert</w>
spor t
Ä gyp
organis iert</w>
at men</w>
deu tet</w>
Bon ino</w>
interfer ing</w>
Br and
Aus gleich
dis ability</w>
F ei
Europ ar
Beit ritt
wär ts</w>
F utter
Chanc ellor</w>
gu y</w>
Kreissl- Dörfler</w>
vorange trieben</w>
ori g
orig in</w>
Sach aro
heu gen</w>
Ver heugen</w>
Vor zug</w>
wol le</w>
Ge gend</w>
h ous
tr aten</w>
che ap
shor tages</w>
interpre tiert</w>
feel ings</w>
Wissen schaft
Stra ßen</w>
mani fest
enjo yed</w>
fest gehalten</w>
aus dehnen</w>
OS CE</w>
Mac au</w>
Vis ion</w>
Aus sagen</w>
aussch lag
ausschlag geben
un missverständlich</w>
übri ge</w>
hör t</w>
hinzu weisen</w>
aus richten</w>
klar gestellt</w>
pre served</w>
ambi tion</w>
e- keeping</w>
t y-
einher gehen</w>
character istic</w>
erinn ere</w>
it ts
wel comed</w>
vor getra
con fer
A le
geb nisse</w>
hal tige</w>
So forth
haf tet</w>
0 er</w>
GA SP</w>
protection ist</w>
be zeichnen</w>
kon tra
l es
ali zed</w>
Rahmen programms</w>
exp ec
Parlamentari er</w>
campaign s</w>
änderungsan träge</w>
Ost see</w>
tzah lungen</w>
Ukra inian</w>
exclu ded</w>
ei lung</w>
er adic
stä tten</w>
Geschlech ter
schaf tlich</w>
a det</w>
Tabak konsums</w>
f lag
compe tent</w>
unzureich enden</w>
wei gern</w>
Miß stände</w>
I A
y outh</w>
irgend wo</w>
grün dlichen</w>
Wachst umsp
ide olo
fe wer</w>
vis ory</w>
fest ell
Hil festell
b all</w>
um zu
infl ation</w>
F our
reservo irs</w>
versch lechtert</w>
produ ktive</w>
üb lichen</w>
com fort</w>
anhalten de</w>
soci alist</w>
Geor gia</w>
sp anische</w>
Grenz werte</w>
un vor
stor benen</w>
rati fication</w>
fort fahren</w>
limit ation</w>
ab end</w>
Le banon</w>
fulfi l</w>
post pon
ir ischen</w>
ver ehrten</w>
Em bar
Abhängi gkeit</w>
län gst</w>
regret table</w>
Bestä tigung</w>
bere ich
l y-
si vierung</w>
Inten sivierung</w>
rangi gen</w>
jah res</w>
E gyp
größ t
di gten</w>
angekün digten</w>
Wesent liche</w>
h im
kommen s
sou thern</w>
wish ing</w>
credi ts</w>
In depen
ro t</w>
effizi enten</w>
Em br
z ones</w>
Director ate
b st</w>
Her bst</w>
Mu gabe</w>
internation ally</w>
at orium</w>
er ce</w>
ord an
akti v
besorgnis erregend</w>
identi fying</w>
La w</w>
ur r
ver kün
Verbrauch s</w>
Mo d
Produ ktivität</w>
soldi ers</w>
Schluss ab
Schlussab stimmung</w>
Tsch er
ne ar</w>
liber alism</w>
congratul ating</w>
Haushalts führung</w>
Mil ch</w>
UN- Sicherheits
di stances</w>
harmon isiert</w>
Vor bedingung</w>
zurück liegenden</w>
persön lichen</w>
Transpor ts</w>
kompe tenz</w>
behar r
Kop f</w>
lim a</w>
K lima</w>
dafri ka</w>
Sü dafrika</w>
bein halten</w>
mo un
dis posal</w>
Qu antität</w>
ent ed</w>
Verwaltungsauf wand</w>
Proble mati
Problemati k</w>
Ver sorgungs
Analy sen</w>
mis sing</w>
regis tered</w>
um gekehrt</w>
unbe friedi
Unterbrech ung</w>
Kris en
ambo d
plan ung</w>
soci ally</w>
zivil en</w>
den ies</w>
erfol g
m eh
Spe cial</w>
tri eben
consider s</w>
per s</w>
Unter schei
satisfac tion</w>
auf teilung</w>
Um stellung</w>
emis sion</w>
entgegen stehen</w>
Donner stag</w>
empf oh
ver steht</w>
achie vement</w>
se arch</w>
uni fied</w>
teil nehmen</w>
ktionsübergreif end</w>
P akt</w>
en abling</w>
cul min
un happy</w>
isch t</w>
bbe an</w>
ari bbean</w>
fähi ge</w>
Konta kt</w>
angewand ten</w>
befür chtet</w>
herz lichen</w>
Ar gen
voranzu bringen</w>
Wieder hol
wor thy</w>
Kon servativen</w>
t ter
o in</w>
u kra
dem nach</w>
wahr nehmen</w>
be achtet</w>
Beitrit ts</w>
ste el</w>
Be zug
zurück halten
größ er</w>
gesch eit
te e
Bün d
t abling</w>
an stellen</w>
2 9.</w>
eng l
dela ying</w>
i ko</w>
bisheri gen</w>
confir ms</w>
aktu elle</w>
Con tro
Contro l</w>
s ation</w>
Geld wä
Geldwä sche</w>
az ität</w>
techn ischer</w>
vor an</w>
zu gesagt</w>
besetz ten</w>
unter nehmer</w>
beispiel hafte</w>
Nahrungs mittel</w>
u tionen</w>
chann el</w>
Ge geben
Gegeben heiten</w>
genau er</w>
Cy pri
F R
G C</w>
sugges tions</w>
leben den</w>
es tic</w>
dom estic</w>
air port</w>
schl üsse</w>
parla ments</w>
zuzu hören</w>
wahr zunehmen</w>
meaning ful</w>
fi ve-
five- year</w>
exter nen</w>
re assure</w>
zu gute</w>
appoin tment</w>
an cy</w>
mo tivation</w>
einge frorenen</w>
equi val
m te</w>
porte ur</w>
ner es</w>
In neres</w>
lis ting</w>
apo lo
custom ary</w>
bru t
un equivo
sieb ziger</w>
Weiß buch</w>
Zusammen sch
B usin
Busin ess</w>
berau bt</w>
Fisch ern</w>
Comm erce</w>
wachsen den</w>
mi d-
Ab trei
An gleichung</w>
läss lich</w>
Beiträ gen</w>
bro a
be wäl
bewäl tigen</w>
hin dern</w>
zukünf tig</w>
kommerzi ellen</w>
Me er</w>
Dire k
Kor ean</w>
Fol gen
Folgen ab
k ers</w>
ab gebaut</w>
gel ob
gelob t</w>
wünsch te</w>
nachhal tiger</w>
aus geführt</w>
taxpay er</w>
icht bar</w>
befürwor te</w>
H ab
eini ges</w>
erst mals</w>
sugges t</w>
scho ols</w>
Tä tigkeiten</w>
L ern
sen de</w>
a part</w>
sin strument</w>
Imple mentation</w>
mo bile</w>
dev a
min or</w>
akti sch</w>
h ance</w>
Autor ität</w>
w sk
speci fied</w>
Wesent lichen</w>
beschäf tigt</w>
ar my</w>
tal ked</w>
el and</w>
sub jects</w>
Argu ment</w>
care s</w>
op press
F ac
Territ orium</w>
sch eme</w>
her stellung</w>
Wieder herstellung</w>
Sit z</w>
Verk auf</w>
o wing</w>
Kapaz ität</w>
radik ale</w>
Bemer kung</w>
fin denden</w>
statt findenden</w>
nor thern</w>
stre cken</w>
Gre mium</w>
tion ality</w>
Lateinameri kas</w>
ausführ lichen</w>
ke wise</w>
interes sen</w>
sty le</w>
Sch ließ
Zu stands</w>
Unklar heiten</w>
dema go
wir ft</w>
fehl ende</w>
t te</w>
ver fassungs
ment ing</w>
Mittelmeer -
os ity</w>
bi ological</w>
deriv atives</w>
N ob
versch oben</w>
g ünsti
habit ants</w>
incorpor ating</w>
zu gelassen</w>
den oun
tri alogue</w>
mit bestimmung</w>
c ab
Währungs fonds</w>
reconci le</w>
do c
eini gt</w>
son sten</w>
accep ting</w>
Directorate -General</w>
Ferrer o-Waldner</w>
Artik els</w>
erschüt tert</w>
Ernähr ungs
wo od</w>
endgül tigen</w>
u g
ich ter
mitberat enden</w>
Städ ten</w>
fe atures</w>
Person al
prec e
anxi ous</w>
s either</w>
cou ple</w>
mid- term</w>
Sp altung</w>
occup ation</w>
H änden</w>
ö hnen</w>
g lo
Go th
Goth enburg</w>
vor bil
fahr ens
Ver fahrens
bare ly</w>
Ex port
Terror isten</w>
Infra strukturen</w>
eklat ante</w>
g keit
Ti bet
Hung er</w>
Betru gsbekämpfung</w>
residen ts</w>
monop oly</w>
comp onents</w>
Feh len</w>
valu able</w>
11 .00</w>
Inter ventionen</w>
S cientific</w>
ra rely</w>
en hance</w>
consci ence</w>
ges tiegen</w>
ein ver
intern ally</w>
Woh n
deb ating</w>
satisfac tory</w>
Geld politik</w>
är m</w>
ti le</w>
genehmi gten</w>
natür lichen</w>
hin reichend</w>
I WF</w>
Einver nehmen</w>
Fre und</w>
Funktion ieren</w>
pic tures</w>
Un fällen</w>
foster ing</w>
ungsp hase</w>
sich eren</w>
open ness</w>
Arbeiter kl
Arbeiterkl asse</w>
Flu gges
m acro
Ein heit</w>
Gewäh r</w>
c rates</w>
vor sieht</w>
Hilfestell ung</w>
gene tische</w>
ob gleich</w>
Nach t</w>
Daten schutz
vi es</w>
wan ger
fas h
Her kunft</w>
Gü ter</w>
G ot
breas t</w>
läufi g</w>
exzell enten</w>
beru hi
Ser vi
Ö sterreich
pr er
i vers
ivers ary</w>
ann iversary</w>
Erschein ungen</w>
c ent</w>
Depar tment</w>
Schwei z</w>
ater ie</w>
li er
install ations</w>
eri </w>
ac or
Comm unities</w>
nachhal tig</w>
en ge</w>
ver handeln</w>
analy sing</w>
qu elle</w>
äu fer</w>
förder lich</w>
sp reading</w>
carri es</w>
expen sive</w>
Bil anz</w>
An hän
Anhän ger</w>
Beobach tung</w>
inc en
incen tive</w>
premi ums</w>
Vor fall</w>
sch ien</w>
Friedens prozess</w>
zeichne te</w>
ange gangen</w>
ä tzt</w>
Verm ei
Vermei dung</w>
Rechen schaft</w>
A cc
Über blick</w>
w iss</w>
S wiss</w>
we ek
T ech
l esen</w>
Ver einheit
p act</w>
inhal tlich</w>
pre dictable</w>
ep idem
dauer haften</w>
Brey er</w>
promis ed</w>
C her
prinzipiel l</w>
Verbraucher schutz</w>
Wieder ein
be merk
jähri gen</w>
geo grafischen</w>
hö her</w>
An zeichen</w>
assu mption</w>
Gew inn
super visory</w>
answer s</w>
Quali fik
he bt</w>
splen did</w>
tro versen</w>
I GC</w>
Institu t</w>
schließ ung</w>
deleg ations</w>
uni versity</w>
adjust ment</w>
schie ben</w>
Erzeu ger
compla ints</w>
Welt bank</w>
Im pf
off enen</w>
lac king</w>
Land wirtschafts
gewähr ten</w>
dis zipl
Lehr en</w>
off ence</w>
Zyper ns</w>
M ani
Rot ations
Angehöri gen</w>
Verbin dungen</w>
Ko alition</w>
Zul assung</w>
Bes etzung</w>
iti ativen</w>
bewus sten</w>
enlar ged</w>
nicht ung</w>
Ver nichtung</w>
demonstr ated</w>
remo val</w>
Gemeinschafts recht</w>
Unterstü tzungs
Er leichterung</w>
Über setzungs
exam ining</w>
er bringen</w>
Beförder ungs
verlei ht</w>
pro paganda</w>
Ban ken
zweifel haft</w>
er lebt</w>
fra gte</w>
Beij ing</w>
J ac
analy ses</w>
remo te</w>
in tly</w>
hom e
cour ses</w>
S wit
Swit zerland</w>
an ter</w>
present ation</w>
be gangenen</w>
dete cted</w>
ag eing</w>
gel ung</w>
twent y</w>
Haf tbe
zunehmen de</w>
st et</w>
launder ing</w>
war mly</w>
Ausgleich s
Ausgleichs zahlungen</w>
invent ory</w>
ausstat tung</w>
m ack</w>
tre te</w>
dies el</w>
Forschungs -</w>
f ten</w>
fun ktion</w>
aus wirken</w>
agre es</w>
Zeit alter</w>
sti ch
belie ved</w>
ehem alige</w>
Ambi tionen</w>
Ver einfach
tin dustrie</w>
Friedens prozesses</w>
Tabak erzeugung</w>
avi an</w>
schl icht</w>
blin d</w>
Finanzi er
ph </w>
-and -
endgül tige</w>
widersp rü
ah l</w>
ASEAN- Staaten</w>
en abled</w>
Hü terin</w>
prepar atory</w>
t ö
ab ei</w>
kan z
kanz ler</w>
dist or
il le</w>
vi able</w>
Th ese</w>
anspru chs
Lin ke</w>
nen nung</w>
Er nennung</w>
Be wäl
foc uses</w>
öff nung</w>
stü tzen</w>
miss ed</w>
zah lung</w>
Arbeits zeit</w>
ab ile</w>
palästinens ische</w>
Über gang</w>
wer ken</w>
an erkennt</w>
olo gie</w>
g y-
luxem bur
V ot
Vot um</w>
Klein -</w>
re porting</w>
ver stan
stre et</w>
Fra ktions
So crates</w>
Al ters
Fre e</w>
M an</w>
intelli gent</w>
zusätz lich</w>
se ats</w>
unser erseits</w>
inter ference</w>
fac tor
factor ies</w>
legi tim</w>
quar ters</w>
und ou
Er teilung</w>
sch öpf
approxim ately</w>
at mo
f aktisch</w>
aktiv itäten</w>
Drit ten</w>
we al
S A</w>
ür t</w>
top ics</w>
gewäh lte</w>
m outh</w>
schü ch
can cell
sha re
m ie</w>
en zierung</w>
Differ enzierung</w>
t ments</w>
expe di
ech ar
persu ade</w>
depen dency</w>
ver blei
verblei benden</w>
wea ther</w>
A h
issu ed</w>
deteri or
agen cies</w>
Re gulierung</w>
drück t</w>
s cap
scap e</w>
land scape</w>
Verbrauch ers</w>
et es</w>
Straßen verkehr</w>
gewis ser</w>
defic it</w>
ge folgt</w>
Sovi et</w>
Grow th</w>
dru g</w>
beru fen</w>
me ant</w>
top ical</w>
geh e</w>
Ziff ern</w>
zu stand</w>
herrsch enden</w>
- by-
tra gic</w>
kil led</w>
step p
Al ter</w>
Poli z
Poliz ei</w>
C ategory</w>
Lateinameri ka</w>
organiz ed</w>
Tscher nobyl</w>
unter nehmer
ger er</w>
sec ur
grund lage</w>
zu weilen</w>
Wachst ums</w>
Ma th
systemati cally</w>
und fun
R undfun
b rella</w>
Asi an</w>
Lebens bedingungen</w>
Flüchtling s
Vizeprä sident</w>
al itäten</w>
ange wendet</w>
ro se</w>
compar able</w>
st ing</w>
inci dence</w>
is ion</w>
gi cally</w>
lu te</w>
ein legen</w>
c yc
fi re-
li kewise</w>
sym bol
ech ter</w>
krieg s</w>
t less</w>
precari ous</w>
harmon ise</w>
Garan tien</w>
jo ining</w>
v ast</w>
fan ati
El end</w>
m ale</w>
Palest inians</w>
Schw ein
Energie einspar
Führungs rolle</w>
poten tially</w>
inter rup
intensivi ert</w>
lu sten</w>
am pf
recre ational</w>
analy se</w>
dist ance</w>
techn ically</w>
Sch wanger
Terra in</w>
ref use</w>
Monop ole</w>
Mehr heits
Last en
fe ars</w>
An zei
Jahre stag</w>
insur ance</w>
Sch uman</w>
be willi
Säu le</w>
Prote ktion
Protektion ismus</w>
provin ce</w>
er stellt</w>
vor bereit
d licher</w>
Li p
Fußb all
on ia</w>
Def ence</w>
jo intly</w>
Cher nobyl</w>
Land s
er teile</w>
Bewäl tigung</w>
Wäh lern</w>
behin dern</w>
Ge wässer</w>
ungsp läne</w>
er in</w>
bil det</w>
tan gi
comb ine</w>
resol ving</w>
simpli fy</w>
auf rechterhalten</w>
A ids</w>
wür fe</w>
ab halten</w>
EU- Haushalts</w>
ma chte</w>
Luxem burg</w>
appropri ations</w>
fas serin</w>
Ber ühr
m as</w>
u le</w>
de ck
fe chter</w>
Ver fechter</w>
Risi ko
quali fications</w>
al leged</w>
it als</w>
Sm all</w>
question able</w>
tri b
ben u
nis ses</w>
un certain</w>
portugi esischen</w>
st ex
signific ance</w>
4 50</w>
op t-out</w>
lingu istic</w>
res ist</w>
caus ing</w>
e yes</w>
nen ne</w>
gere det</w>
bet one</w>
Ansch lag</w>
kl assi
comb ining</w>
claim ing</w>
be vorzu
stri kes</w>
ie fer
Fundament alismus</w>
Still legung</w>
Jerus alem</w>
jün gster</w>
Besch werden</w>
an gel
Haftbe feh
her aus</w>
der ing</w>
be enden</w>
Deleg ationen</w>
klu g</w>
speedi ly</w>
sol ar</w>
Aufklär ung</w>
ac company</w>
ent schuldigen</w>
tä glichen</w>
neutr al</w>
under p
Nachbar n</w>
Rechts vorsch
Rechtsvorsch rift</w>
Miß brauch</w>
partn ern</w>
Wall ström</w>
wor ker</w>
bo ts</w>
expla ined</w>
Portug als</w>
Behinder ten
är kte</w>
Rück verfol
Rahmen programm</w>
besit zt</w>
repercus sions</w>
disp laced</w>
al cul
Aus stoß</w>
französ ische</w>
Ver fasserin</w>
grün e</w>
ver i
re place</w>
ambod sch
marg ins</w>
genü gt</w>
Min derung</w>
spiel raum</w>
reput ation</w>
popul ations</w>
bau er</w>
ga ining</w>
emp findlich</w>
rec all
recall ing</w>
di oxi
grün dlich</w>
zeit liche</w>
c old</w>
durch schn
du plic
Di ese</w>
Lang zeit
Flugges ellschaften</w>
Lebensmittel preise</w>
with drawn</w>
1 ,
arti sts</w>
Flag ge</w>
Rechen schaftsp
Rechenschaftsp flicht</w>
Fluggä ste</w>
Euro da
B illi
o te</w>
vorher seh
earli est</w>
Cambo di
Aus künfte</w>
öff nen</w>
aus el</w>
Kl ausel</w>
ver fasst</w>
re action</w>
M ün
da vor</w>
IN D</w>
Verantwor t
CO2- Emissionen</w>
peti tions</w>
refle cted</w>
Kolle gi
sh ar
Behin derungen</w>
k rates</w>
So krates</w>
univers al</w>
unge he
Ser bien</w>
PP V</w>
su gar</w>
bru ch</w>
ra cies</w>
will kommen</w>
Li banon</w>
bürokrati sche</w>
Eing lie
ökonom ischen</w>
OS ZE</w>
regre ts</w>
f ers</w>
fle isch</w>
do ku
hier arch
pri me</w>
L ücken</w>
verbin den</w>
D ele
tou ched</w>
G am
vol len
ehrgeizi ger</w>
getro ffenen</w>
Wiederauf nahme</w>
W hat</w>
Ar men</w>
afri kanischen</w>
fer n
Inte grations
D u</w>
Ausnahmere gelung</w>
Gedank ens</w>
stra ight</w>
realis tisch</w>
Ten den
subjec ted</w>
legisl ated</w>
5 .</w>
vorsit zenden</w>
tel e
sin g-
täu schen</w>
exerc ising</w>
zu viel</w>
sh op</w>
isti sch</w>
ge tre
far -reaching</w>
su ici
Hoff nungen</w>
mit ted</w>
strate gien</w>
g age</w>
reform ieren</w>
ungefä hr</w>
mittel fris
sp urt</w>
cro p</w>
op ho
protec tive</w>
Mehr wert</w>
hör e</w>
ent schied</w>
Conduc t</w>
Ear th</w>
Presse freiheit</w>
Ver teilungs
Model le</w>
exam ination</w>
m at</w>
Hei mat</w>
au tumn</w>
Staats bürger</w>
vier tens</w>
ä le</w>
uncertain ties</w>
zunehmen den</w>
Com p
Kroati ens</w>
selec tive</w>
bio diversity</w>
pro of</w>
aufge hoben</w>
Sch ein
An hang</w>
Ab schl
Finanz dienstleistungen</w>
er enden</w>
Mex iko</w>
pes tici
The y</w>
zu cht</w>
len der</w>
General dire
re alities</w>
Ver urteilung</w>
ab sch
ließ t</w>
Stim men</w>
Slov ak</w>
C T
v ary</w>
Standor t
schä tzungen</w>
assur ance</w>
Verb änden</w>
Vor feld</w>
sc en
li d</w>
Rechnungsh ofes</w>
un eingeschrän
Immi gration</w>
appar ent</w>
st ations</w>
pat ent</w>
ak adem
Um gang</w>
asse ts</w>
sp on
Volkswirtschaf ten</w>
Aus wahl</w>
Proje kten</w>
L IF
gra ve</w>
offizi elle</w>
Nordir land</w>
Sch le
alis ieren</w>
colla p
tschaf ten</w>
A ss
si ght</w>
claim ed</w>
awaren ess-raising</w>
gel n</w>
Men sch
ó n</w>
sozu sagen</w>
EURO POL</w>
wast ed</w>
zentr ale</w>
begr enzen</w>
inspi ri
stim men
aller erst</w>
gerich tete</w>
zeu gt</w>
einver nehm
Zu gangs</w>
Grund satz
ableh nt</w>
administr ativen</w>
differen zierte</w>
be arbeitet</w>
sich erung</w>
Ab sicherung</w>
Energi echar
Ur spr
aus end</w>
eröff nen</w>
Ratsvorsit z
einzi gar
ger inge</w>
tel n</w>
Belgi um</w>
appl au
phenomen on</w>
gro und
allgem eines</w>
A li
per mit</w>
over wh
overwh el
He ads</w>
S ack
Sack gasse</w>
ten ds</w>
E ta
Gesam th
concentr ated</w>
de ep</w>
20 20-Strategie</w>
kontrol len</w>
ber ichtet</w>
vis its</w>
wechsel n</w>
lässi g</w>
geordne te</w>
refle cting</w>
hin weg
nam es</w>
presiden tial</w>
Ser bs</w>
Bewe gungen</w>
zufrie den
ff e
intrin sically</w>
cont am
f ence</w>
Fre unden</w>
wettbewerbs fähi
gefähr licher</w>
Austr alien</w>
ga ined</w>
z onen</w>
don ors</w>
Un gleichheit</w>
comb ination</w>
Nahost -
Millenni um</w>
pl ing</w>
ausgewo genen</w>
fron tiert</w>
fil led</w>
Sensibil isierung</w>
Entwicklungs ländern</w>
zweit es</w>
Proz ent</w>
sch lag
discipl ine</w>
will kür
un successful</w>
sch är
less on</w>
auf gestellt</w>
Arbeits bedingungen</w>
trans mission</w>
haf tung</w>
Madri der</w>
undes irable</w>
19 6
Kre ise</w>
four -
Dienst leistung</w>
gere gelt</w>
undou b
en cies</w>
monop olies</w>
sön lichkeiten</w>
gestell te</w>
zi vi
Ein reise</w>
koh ol
Schließ ung</w>
antwor ten</w>
cop yright</w>
wo für</w>
ab kommens</w>
f ate</w>
govern ing</w>
minister ial</w>
versch mu
in ser
vorher ige</w>
klein ere</w>
z .B.</w>
Richt lin
air lines</w>
country side</w>
e anische</w>
kor eanische</w>
man che</w>
Finanz mitteln</w>
Su per
p eculi
For st
comple ment</w>
Millenni ums
stell ten</w>
einzu binden</w>
comp li
Be ton
niedri ge</w>
pri cing</w>
rot ating</w>
Wün schen</w>
A ir</w>
L ager</w>
fix ing</w>
cont acts</w>
Schwarz arbeit</w>
W er</w>
mercur y</w>
niedri ger</w>
9 .
um brella</w>
success fully</w>
ukra inischen</w>
Ein mischung</w>
kno wing</w>
gradu ally</w>
democrati cally</w>
determin e</w>
Dafür halten</w>
Frauen handel</w>
kon frontiert</w>
after noon</w>
p t</w>
betro ff
exp and</w>
Vor haben</w>
ter in
bench marks</w>
3 0.</w>
o we</w>
sor ry</w>
sch lim
Est land</w>
Ge fälle</w>
Wes ten</w>
Rubri k</w>
b om
bew ußt</w>
tion alität</w>
Be trag</w>
si mis
fel ong</w>
sp rü
ga ins</w>
gest altung</w>
Mosco w</w>
ver sä
versä umt</w>
p ru
Ag riculture</w>
e ys</w>
recogn ises</w>
Zu cker
stu dents</w>
auf heben</w>
na i
Pre ises</w>
erwäh nten</w>
st ere</w>
re gt</w>
correc ted</w>
manufac ture</w>
Außen beziehungen</w>
zu kommt</w>
harmon i
durch setzt</w>
zwei erlei</w>
ko sten
hr t</w>
kolle ktiven</w>
l end</w>
kl ei
leg alen</w>
den s
amen ded</w>
angen eh
direc ted</w>
8 6</w>
pre judi
Chi le</w>
foremo st</w>
remo ved</w>
respec ting</w>
conjun ction</w>
in habitants</w>
er wer
gerin geren</w>
open ly</w>
Wissen s</w>
propor tion</w>
Terror an
Ein gangs
J PA</w>
ye v</w>
in appropriate</w>
Kommun al
pos t</w>
eth ischen</w>
soli de</w>
Grund werte</w>
je g
aus gaben</w>
jähr liche</w>
Radi cal</w>
wit z</w>
s wi
Zur ück
Red ing</w>
Arbeitnehmer mitbestimmung</w>
anx iety</w>
g alt</w>
Sy m
Mitgliedsta ates</w>
Rau m
Entschließungs entwurf</w>
wä lte</w>
arro gan
D am
Adjust ment</w>
wei gerung</w>
glob alisierten</w>
nahe zu</w>
kap ital</w>
Beitra gs</w>
de voted</w>
F a
ak harov</w>
Haushalts ausschusses</w>
befürwor tet</w>
niedri gere</w>
Stre cken</w>
aus bildung</w>
ar dis
pre condition</w>
Da zu</w>
kno w-how</w>
Do ha
C aribbean</w>
Beiträ ge</w>
eini gte</w>
er gibt</w>
gi ge</w>
s sen</w>
orienti erten</w>
f öder
quar ter</w>
elektron ische</w>
dis abilities</w>
our s</w>
expor tieren</w>
N ew</w>
kom plizi
gen ommenen</w>
compar ison</w>
gene tic</w>
benefi cial</w>
Mon itor
surro unding</w>
rig orous</w>
e ast</w>
T ot
genehmi gt</w>
it ably</w>
inev itably</w>
nachzu kommen</w>
pro hi
b ler</w>
flexi bler</w>
Zu ge</w>
bl ame</w>
prinzi p</w>
D abei</w>
Mach t
woh ner</w>
lauf ende</w>
Wahr ung</w>
clo thing</w>
Flug zeuge</w>
mi x</w>
verstär kte</w>
respec tively</w>
agre eing</w>
undoub tedly</w>
Fre ih
del ete</w>
Netz werke</w>
For ums</w>
l eng
so hne</w>
mi ddle</w>
unmittel bare</w>
Tri lo
ver lassen</w>
erschwer t</w>
Selbst be
ein t</w>
re turned</w>
Ver stär
Govern or</w>
Zerstör ung</w>
ur en</w>
Servi ces</w>
Frü h
adap tation</w>
angen ommene</w>
attemp ted</w>
frei willi
ziem lich</w>
ign ored</w>
ti p
Aus legung</w>
Menschen handel</w>
Ecof in</w>
Kenn tnisse</w>
xiz ität</w>
ermu tigt</w>
nen nt</w>
indic ation</w>
mar king</w>
bes i
besi des</w>
zer stör
frei willigen</w>
ar ding</w>
Europa- Mittelmeer-
inform ieren</w>
kürz t</w>
Ein flu
vergleich bar</w>
einzel staatlichen</w>
Gu inea</w>
De zentr
sa ys</w>
ex or
sil ence</w>
Bli ck
schnellst möglich</w>
stag ungen</w>
perr t</w>
e f</w>
Kandidaten länder</w>
Argen tin
Th ir
Mar kets</w>
te aching</w>
bru tal</w>
privi leged</w>
burden -sharing</w>
Auf enthal
S ici
L ob
pp ed</w>
pornograph y</w>
sor gt</w>
Versch lechterung</w>
normal erweise</w>
Ver fahrens</w>
er fordern</w>
Ver fol
up- to-date</w>
würdi ge</w>
Britt an</w>
Dring lichkeits
B A
wel cher</w>
Somm er</w>
piec es</w>
var iety</w>
writ e</w>
m icro
rapi dly</w>
enthusias tic</w>
yc ling</w>
s low
Rechts sicherheit</w>
budge ting</w>
Sch wedi
Peti tionen</w>
vis iting</w>
bi zar
üs si
Elek tro
söh nung</w>
Gefan genen</w>
vi ability</w>
w ind</w>
Sch uld</w>
wi es
forc eful</w>
entfer nen</w>
quot a</w>
ck p
Gibr altar</w>
dict ator
Tun is
hol ders</w>
histor ical</w>
manufactur er</w>
passen ger</w>
zu gehört</w>
Pro paganda</w>
lan gem</w>
ri ffe</w>
Kur z
Dring lichkeit</w>
Technolo gie
beiträ gt</w>
k opp
public ity</w>
ass assin
Wahrschein lichkeit</w>
deliber ately</w>
hau l</w>
Gesetzgeb ungen</w>
un annehmbar</w>
ein gehend</w>
Sub stanz</w>
Lei d</w>
e z</w>
durch führt</w>
ge be</w>
ges prä
Auf stockung</w>
Nor thern</w>
schüch terung</w>
Ein schüchterung</w>
Sub ventionen</w>
optimis m</w>
ausge geben</w>
gel der</w>
go t</w>
divi de</w>
Ein sicht</w>
condem nation</w>
kurzfris tig</w>
capit alist</w>
umfassen der</w>
zü ge</w>
less er</w>
berühr t</w>
weis ung</w>
Russ lands</w>
D a</w>
territori alen</w>
ger ade
feder alist</w>
rank ungen</w>
Wer den</w>
vor haben</w>
Legitim ität</w>
Armuts bekämpfung</w>
leh nt</w>
up hold</w>
unver einbar</w>
sub mit</w>
kohär enten</w>
ehrgeizi gen</w>
moder ne</w>
Ver la
Verla gerung</w>
detailli erten</w>
auf recht</w>
ex ports</w>
Conserv ative</w>
EU- Ebene</w>
ver haltens</w>
mani fes
dem zufolge</w>
durchschn it
tra ft</w>
pic ture</w>
del ic
delic ate</w>
Verfol gung</w>
aushal t</w>
T üren</w>
kti ves</w>
compati bility</w>
fair er</w>
weak nesses</w>
Tats achen</w>
c e-
adminis tered</w>
chann elling</w>
Fak ten</w>
Wor t
contradi c
contradic tory</w>
Reser ve</w>
Erwar tungen</w>
Agen turen</w>
aus senden</w>
B löcke</w>
zu gefügt</w>
po chen</w>
Risi k
redu ziert</w>
kür zen</w>
nive aus</w>
gen auen</w>
accord ed</w>
Spiel zeug</w>
Qu ecksil
simil arly</w>
erneuer bare</w>
determin ation</w>
proz en
Flexibil ität</w>
exclu sive</w>
Den noch</w>
gr aus
niedri gsten</w>
sac rif
organis iertes</w>
path ie</w>
sch riften</w>
Govern ments</w>
B ou
Che chen</w>
ministeri um</w>
hal be</w>
E d
Ger ichte</w>
her zustellen</w>
under lined</w>
kan di
ger ing
A lev
vor behalt
Er b
Mehr wert
deep ening</w>
l tes</w>
en tail</w>
ein beziehen</w>
contradi ctions</w>
ator ischen</w>
an sehen</w>
aus einander</w>
surpris ed</w>
be kämpft</w>
einzu mischen</w>
zuzu weisen</w>
gener elle</w>
S akharov</w>
Er wachsen
c r
a .</w>
hand led</w>
denk bar</w>
earthqu ake</w>
bri ck</w>
attribu table</w>
Beschluss fassung</w>
un wider
Fischereisek tor</w>
we ge</w>
de ter</w>
ex changing</w>
blo cks</w>
Imp ul
system atic</w>
draf tsman</w>
Prof it</w>
anzu gehen</w>
Felip e</w>
bürger schaft</w>
Staats bürgerschaft</w>
dar gestellt</w>
beantwor tet</w>
Bil dungs
mittl eren</w>
verschieden er</w>
him self</w>
boo st</w>
her bei
fle et</w>
Dec laration</w>
punish ment</w>
a in
expor ter</w>
w est</w>
en tz
Wäh ler</w>
Kun st
express ing</w>
Ge fahr
streng th</w>
Schwell en
S ar
ein gebrachten</w>
resu med</w>
Behör de</w>
re venue</w>
ver einfach
en ables</w>
pflan zen</w>
embr yos</w>
certi fic
cam p</w>
fül len</w>
di gungen</w>
promin ent</w>
integr al</w>
extre m</w>
bel gischen</w>
bedeuten der</w>
sett led</w>
recommen ded</w>
ergrei fe</w>
fash ion</w>
Des halb</w>
produc tivity</w>
Religions freiheit</w>
wissen schaftliche</w>
ta ils</w>
strö me</w>
commen d</w>
erläu tert</w>
Straßen verkehrs
hard ship</w>
cau ght</w>
Einwander ungs
Pir ker</w>
europa weit</w>
be zweif
Ital ien
Richtlin ien
är msten</w>
gelehr t</w>
Eff e
experi ences</w>
Fre edoms</w>
f it</w>
wel le</w>
Schatten berichterstat
Energies icherheit</w>
affor d</w>
ge wässer</w>
L iefer
se as
sprech end</w>
be came</w>
verantwortungs volle</w>
ihr erseits</w>
zeu g
Gewerk schafts
respon ses</w>
p ick</w>
- die</w>
regi mes</w>
ber ries</w>
s we
in sul
Hunder tt
R -
kl eines</w>
poln ischen</w>
be absichti
bre eding</w>
glau b
Tier schutz</w>
Wür de</w>
Co ordin
grundle gend</w>
li fer
Spani ens</w>
eigen er</w>
ab gehalten</w>
autom atic</w>
Handels -</w>
ster eotyp
co ws</w>
ges unden</w>
widersp iegeln</w>
Environ mental</w>
Er stellung</w>
Überein kommens</w>
ar ab
aufge worfen</w>
Bi otechnologie</w>
Hei mat
enjo ying</w>
zeit raum</w>
Rau chen</w>
gelten de</w>
ag gression</w>
un den
declar ations</w>
biom ass</w>
witn essed</w>
versu chten</w>
wa ffen</w>
ur ring</w>
ent s
Plen ar
wei ght</w>
wettbewerbs fähig</w>
Kandidaten ländern</w>
satis fy</w>
re tain</w>
Z eu
Lu ft</w>
sat zes</w>
Flug zeugen</w>
ein gehenden</w>
w unsch</w>
auszu bauen</w>
c -
verursach en</w>
N SA</w>
Ugan da</w>
par t-
sicher heits
p el</w>
In sel</w>
d ollars</w>
n el</w>
Est onia</w>
besit zen</w>
parla mentarische</w>
pro lifer
An kla
län gere</w>
terror ists</w>
um faßt</w>
proportion ality</w>
Tro ika</w>
Rückverfol gbarkeit</w>
territori ale</w>
her unter
sozial demokratischen</w>
cor responding</w>
atta ch</w>
simpli fying</w>
redund ant</w>
mi xed</w>
acc es
Wäh ler
öffent lich-
ak tionen</w>
bo x</w>
Fahr zeuge</w>
Sacharo w</w>
unter sch
ad ä
gew öhnen</w>
parti te</w>
mittelfris tigen</w>
in ju
Tab ak</w>
t ta</w>
as c
M our
schü tz
ab omin
en er</w>
h a</w>
öder man</w>
vor gestellt</w>
s ales</w>
fronti ers</w>
gän ge</w>
ignor ance</w>
K unden</w>
ide mi
pl ary</w>
con form</w>
Marin os</w>
bi ang</w>
reak toren</w>
Kapit eln</w>
li pp
mis interpretations</w>
Beru f</w>
demokrati sch</w>
ein nehmen</w>
Tex te</w>
far ming</w>
organis ing</w>
ern t</w>
Sec ch
regul ates</w>
glie derung</w>
10 3</w>
blo ß</w>
S S</w>
Po inte
Ansch luß</w>
gre ichs</w>
destabil is
advis ory</w>
sha ken</w>
Mit tal</w>
č ovi
an dem</w>
ri c
irgend welche</w>
Sy ner
opp t</w>
In su
rech te
depar ture</w>
arab ische</w>
so il</w>
E M
ro ll</w>
angem er
Er fin
l ou
zu machen</w>
un rest</w>
su dan
mün dlich</w>
isti sch
ti an
M eines</w>
verwen deten</w>
O z
Mil ler</w>
Ander sson</w>
finan ced</w>
demo s</w>
re vers
ell o</w>
all ation</w>
Se attle</w>
ub b</w>
heil volle</w>
Se es
Wirtschafts beziehungen</w>
demon stri
Sp iele</w>
slo du
le u
ter nach
vor sorge</w>
Alger ia</w>
cher ries</w>
gesun ken</w>
mor dung</w>
Ge brauch</w>
garan tiert</w>
um ulation</w>
Ver trieben
hör er</w>
lar ín</w>
stan des</w>
inform ationen</w>
In stan
ex porteur</w>
cat ches</w>
stex ten</w>
Welt wirtschaft</w>
mi thin</w>
IN CE</w>
chil en
A us</w>
eri den</w>
Govern ing</w>
schlech tes</w>
Kat aly
gu ard</w>
Genehmi gungen</w>
ti ér
wirtschaf t
gleich er</w>
è s</w>
Syri en</w>
Di j
wer s</w>
ep est</w>
la im</w>
- B
ment are</w>
overwhel ming</w>
defini tive</w>
broa der</w>
h n-
Produktions -</w>
li an
u ti
tu ung</w>
Ru f</w>
europa weite</w>
dec ou
ab lehnen</w>
unterstü tz
br en
um a</w>
ir ren</w>
tei gert</w>
contrac tual</w>
in da</w>
stec kt</w>
la eys</w>
or an</w>
N am
fo witz</w>
En ri
letz tere</w>
our os</w>
deta in
detain ees</w>
Er run
wen de</w>
be hagen</w>
tsch er</w>
ar tig</w>
mul titude</w>
transpar enten</w>
B ag
Auf gaben
secon dar
suici dal</w>
wi de-
To te</w>
ie vel
it ative</w>
des tiny</w>
alle mal</w>
tor i
nament liche</w>
refuge e</w>
s einerseits</w>
brin i
et ab
den ov</w>
assassin ations</w>
künf ten</w>
ror s</w>
er rors</w>
Op port
läß lich</w>
wunder ung</w>
harmon ized</w>
un vermei
sexu eller</w>
ab duc
S eit</w>
Sü den</w>
ft -
Flü ge</w>
Her n
San tini</w>
interpre tationen</w>
as us</w>
Ver boten</w>
on ment</w>
Andre a</w>
ar men</w>
Li am</w>
POSE I
trav ell
Tunes ien</w>
el zen</w>
t ings</w>
pli an
EU- Regelungen</w>
miss braucht</w>
Manu el</w>
- Manuel</w>
pra ise</w>
V assi
Sozial partnern</w>
der maßen</w>
ternach t</w>
Är z
K enia</w>
do g</w>
Län der
radio active</w>
imag ined</w>
Vic tim</w>
consis ts</w>
ü bt</w>
Ge tr
Her kunfts
Sch är
g d
schw ung</w>
re vol
ic ker</w>
loc ations</w>
fo urs</w>
Kür ze</w>
formu li
schle uni
me is
digit alen</w>
ex- ante</w>
Schwei zer</w>
Tei lung</w>
appe aling</w>
E EV
o gle</w>
ar t</w>
is ms</w>
Zu weisung</w>
ti ful</w>
deut sche</w>
gi g</w>
ra id</w>
bel s</w>
Effe ktivität</w>
Mittel stand</w>
6 20</w>
Vo ice</w>
durch gehen</w>
b unden</w>
un fällen</w>
En th
harmon ised</w>
Entschä digung</w>
stei gende</w>
re a</w>
c ure</w>
Luftfahr t</w>
n ar
poten zial</w>
tu e</w>
hy dro
win det</w>
ver bieten</w>
beschä men
mobil ised</w>
beru hte</w>
nachvoll zieh
sti f
t aus
exceed ed</w>
Städ te</w>
schä tzt</w>
er suche</w>
speed ing</w>
Europe an
A4-0 10
present ative</w>
Se ven
B2-9 01</w>
A su
far mer</w>
Groß zügigkeit</w>
wit ness</w>
ö l</w>
sel tenen</w>
P aul</w>
ur ch</w>
Jugend lichen</w>
Lebens standards</w>
Ju st
öh lt</w>
am ts</w>
klein eren</w>
lon ged</w>
Gesch eh
Kra j
auf er
gend sten</w>
h us
arbeit eten</w>
v á
Aussch uss
vi rus</w>
cau tion</w>
c lub</w>
democ racies</w>
ti tle</w>
govern s</w>
Erwachsen en
energie effizi
j æ
uni a</w>
Hö k
Cham bers</w>
Wieder ver
bel s
spec ulation</w>
li ehen</w>
k arten</w>
gesetz ge
geis terung</w>
Urspr ung</w>
Qualifik ationen</w>
Bel et</w>
ass esses</w>
Ide ale</w>
An stren
pe z</w>
ó pez</w>
Eta ppe</w>
be wiesen</w>
ra kis</w>
Opt- out-
Ne y
avi ation</w>
ce a
g al
Tit le</w>
erhe ben</w>
hus band</w>
st unde</w>
We ichen</w>
ge äußer
e mentioned</w>
for ementioned</w>
t tung</w>
belon ging</w>
bel t</w>
Re ich
Kabelj au</w>
defini tions</w>
ci ano</w>
descri be</w>
ho c-
High lands</w>
As se
gebie tes</w>
199 8
1998 -
A ung</w>
spec tive</w>
Per spective</w>
N et
Sch atten</w>
pha sing-
es cap
ungs lose</w>
Nord -
Nam a
stell end</w>
ro tation</w>
Will kü
tal es</w>
sinn los</w>
Fal con
ha s
Nutz en
si mul
Barro s</w>
Russi ans</w>
er zen
sch ränken</w>
M s</w>
Cam is
par ks</w>
A -
iegel t</w>
ap point</w>
den ial</w>
man gel</w>
Vor ab
en vo
comp ul
dis solve</w>
EU- Bürger</w>
sh andels
F P
corpor ate</w>
sei l
seil la
fil tration</w>
Kar to
15 -
Syner gie
arri val</w>
T ed
non- commercial</w>
Erwar tung</w>
simul tane
X in
Aus weg</w>
olo gien</w>
Verkehrs sicherheit</w>
79 a</w>
D ritte</w>
nu tri
i vi
gew in
war ming</w>
unabhängi ges</w>
men ge</w>
al together</w>
hil ox
stu fung</w>
fores try</w>
An fan
Anfan gs
ge besser
L ok
sover eign</w>
contra sts</w>
bewilli gten</w>
ung stru
fail ures</w>
S eh
B in
si le</w>
ur v
P urv
B ü
W esen</w>
Cam re</w>
funktion s
stream lined</w>
Al y
em b
han en</w>
wei ß
i reach
secondar y</w>
y i</w>
Wort laut</w>
habit ats</w>
Er hebung</w>
ergän zen</w>
Finanz per
Finanzper spektive</w>
wit sch</w>
ok ra
Vo j
Ko di
gen schaften</w>
vor leg
sub stitute</w>
aus genommen</w>
cul tivation</w>
Vertrie b</w>
asser ted</w>
friedi gen
Zivil bevölkerung</w>
I vor
verfassungs mäßige</w>
Bren n
om ie
sup po
F ah
a waiting</w>
gebäu den</w>
acc av
Inter ventions
swi f
swif tly</w>
A T
Aus wärtige</w>
om ed</w>
Friedens prozeß</w>
sc ep
eig net</w>
- Peter</w>
Gesch ick</w>
B5-0 123</w>
a be
Del ga
5 80</w>
worsen ing</w>
per ation</w>
Ko slodu
Arbeit nehmern</w>
j c</w>
an wachsen</w>
ä r</w>
ele mentary</w>
cross- compliance</w>
Er suchen</w>
T ok
li ou</w>
ein er
Ent fer
st ory</w>
auf gesch
d heit</w>
AT E</w>
g gi
g ü
Ein greifen</w>
ra cial</w>
steu er</w>
out comes</w>
t- Jos
t-Jos se</w>
au stausch</w>
ver gangen</w>
C5-06 85</w>
f ed</w>
in hei
clari fied</w>
Be ach</w>
Op timis
Optimis mus</w>
äl er</w>
UN O-
impor tieren</w>
excep tionally</w>
seu che</w>
finanzi eren</w>
refra in</w>
Cor bey</w>
M eine</w>
trans mit</w>
ap pa
og ma</w>
basi erende</w>
bin ation</w>
en ciano</w>
Wechselkur s</w>
ticul ture</w>
aci fic</w>
lang sam</w>
d dam</w>
Produ zenten</w>
wor ding</w>
diskrimin ierungs
for tige</w>
ob struc
é union</w>
Al t
qu icker</w>
katastrop hal
so ya</w>
Sees chi
um so</w>
vi ane</w>
et union</w>
j etunion</w>
de posit
arbeit enden</w>
p a</w>
José -Manuel</w>
Versch är
Verschär fung</w>
DI H
fe ver</w>
beizu bringen</w>
über denken</w>
uneingeschrän kten</w>
ma them
än derungen</w>
m äch
ul tur
seilla ise</w>
be achten</w>
Industri alisierung</w>
edo va</w>
co m</w>
richti ger</w>
enz eiten</w>
ad da
adda fi</w>
in e-
In tel
Abb as</w>
lu ten
alo g</w>
tor n</w>
über gangen</w>
am al</w>
un rein
L utz</w>
Regi mes</w>
ti zi
compli ment</w>
ub l
ge table</w>
Domin y
Stabilitätsp akt</w>
i x</w>
Gesichtsp unkte</w>
über trag
li zit</w>
Jun il
tin es</w>
Nach druck</w>
C lau
Clau de</w>
sign atory</w>
zu trifft</w>
prefer ably</w>
ut ro
Insel lage</w>
Nu clear</w>
Indi vidu
T ür
over do
correc tions</w>
Mar gin
län en</w>
accur acy</w>
dor ado</w>
El dorado</w>
zu gegeben
finan z
Nachbar schaft</w>
wo von</w>
Chi ra
über leben</w>
main tains</w>
Kol ar
Cypri ots</w>
pe tr
per petr
Bulgari ens</w>
kapit alistische</w>
er stellten</w>
S re
in el
Sp inel
wick elt</w>
12 4</w>
pa int</w>
systemati sche</w>
Ent wur
Vermittlungs verfahren</w>
e volution</w>
N it
luxembur gische</w>
Kraft werk</w>
ab sichtlich</w>
civi c</w>
fel ds</w>
bere ichs</w>
Anwendungs bereichs</w>
av is</w>
ge trü
Gü tern</w>
Weiter gabe</w>
en ya</w>
Sa j
kir schen</w>
forwar ded</w>
ob lige</w>
Bar ri
tre ats</w>
mer its</w>
ab el</w>
por tra
inform elle</w>
Stad t
emer gen
exp lizit</w>
Auf forderungen</w>
frag würdig</w>
da ktion
and re
Pap andre
illeg ale</w>
heik len</w>
Sü ß
hum ili
and ed</w>
dictator ships</w>
vis ten</w>
Turk men
Besch ei
a er
Corn el
co alition</w>
total it
da gas
über sehen</w>
we ich
Ri pa</w>
wer tung</w>
Menschenrechts bericht</w>
S ehr</w>
siden tin</w>
Ta i
versch windet</w>
dru cks</w>
weiß pflanzen</w>
politi sches</w>
Informations fluss</w>
Lern ens</w>
A5-0 200</w>
rü pel</w>
Co hn-
Betrie bsprä
Betriebsprä mie</w>
organis ational</w>
Lan cker</w>
la ß</w>
K laß</w>
To ia</w>
Be tro
man t
nütz liche</w>
ma an</w>
he um
1 70</w>
zukunfts fähige</w>
introdu ces</w>
explic it
lan des</w>
cho v
Kapit al
Al z
T hier
H it
gi ano</w>
Chi ap
Chiap as</w>
k er
jem als</w>
demokrati scher</w>
le hear
CITE S</w>
differ ential</w>
Ro yal</w>
A V</w>
einzu treten</w>
Energieeinspar ung</w>
Abfall vermei
g ischer</w>
Val enciano</w>
ra ñ
Legitim ation</w>
tari ff</w>
un angemessen</w>
jæ r</w>
hin zu</w>
Kontroll mechanismen</w>
Ver d
ggi o</w>
Be griffen</w>
prev ented</w>
keep s</w>
Hei k
Heik k
fest zu
aul -</w>
Vis um</w>
siden ts</w>
dis sidents</w>
gd ong</w>
Spani er</w>
aly st</w>
az itäten</w>
m pf
Fin ance</w>
ef čovi
efčovi č
univers ellen</w>
emis sionen</w>
Treibhaus gas
a ievel
fa ß
Abfallvermei dung</w>
de gener
18 60</w>
effizi entes</w>
Ge genden</w>
v ri
besch ränkungen</w>
an er</w>
8 3</w>
electri c</w>
fundament alism</w>
doub ting</w>
Bren ner</w>
Verhältnis mäßigkeit</w>
20 2</w>
st an</w>
we aring</w>
dien ungs
Go ogle</w>
m are</w>
tri ert</w>
schä dlichen</w>
reco ver</w>
Verbesser ungs
interoper able</w>
B P</w>
no tic
Ver sagen</w>
ver altet</w>
a th
drin genden</w>
Synergie effe
Synergieeffe kte</w>
l est</w>
S as
slow down</w>
Vereinheit lichung</w>
iti v</w>
defin itiv</w>
ken ende</w>
verän der
[...]
