e </w>
n </w>
e r
s </w>
t </w>
e n</w>
c h
t h
, </w>
d </w>
i n
e n
u n
er </w>
a n
t i
. </w>
th e</w>
r </w>
d i
a l
r e
i ch
g </w>
o n</w>
i s
y </w>
o n
o r
i n</w>
o </w>
a r
e s</w>
e s
f </w>
r o
e l
d er</w>
i t
m </w>
di e</w>
w i
s t
a u
o f</w>
t o</w>
s i
e in
a t
an d</w>
d a
i s</w>
a t</w>
ich </w>
o m
e i
un d</w>
l i
o u
d en</w>
s ch
z u
e d</w>
a </w>
un g</w>
a ti
in g</w>
m en
g e
l </w>
a n</w>
l e
b e
g en</w>
a b
r a
d e
ch </w>
p o
al </w>
u r
o r</w>
a s</w>
th at</w>
i t</w>
o l
u s
t e</w>
v er
r i
ro p
t en</w>
om m
v e</w>
d er
u rop
t er
p ro
f ü
e h
n o
w h
l e</w>
zu </w>
E urop
a s
e c
d en
l y</w>
t s</w>
men t</w>
ich t</w>
g e</w>
s p
l a
is ch
f or</w>
f f
ati on</w>
w e</w>
k </w>
e m
I </w>
s u
fü r</w>
th is</w>
is t</w>
g en
ti on</w>
h r
di es
c on
w er
c i
t z
a m
d e</w>
v on</w>
wi r</w>
g i
h a
ein e</w>
b e</w>
da s</w>
o p
a c
n e
i l
omm is
s s</w>
th </w>
e it
po s
f or
si on</w>
V er
ei t</w>
l ich
ar e</w>
d es</w>
s e
v i
c e</w>
b er</w>
p or
au f</w>
s o</w>
U n
l d</w>
b er
da ss</w>
t e
l o
g es
m a
t r
w </w>
l ich</w>
m it</w>
ati on
- </w>
n icht</w>
no t</w>
s h
un gen</w>
s e</w>
i m
u l
ou ld</w>
wi r
si den
er e</w>
q u
e m</w>
ha ve</w>
g h
e d
isch en</w>
ommis sion</w>
t a
i on</w>
i m</w>
s a
wer den</w>
wi th</w>
c o
s en</w>
e x
ä n
ti on
un g
s t</w>
l l</w>
e an</w>
a h
P ar
; </w>
w or
z i
w e
en t
de m</w>
wh ich</w>
R e
it y</w>
el l
m en</w>
c om
an d
Europ ean</w>
b es
a f
el </w>
a g
i c
u m</w>
au ch</w>
k e</w>
al l</w>
t er</w>
po li
s o
e in</w>
a r</w>
ti m
wi ll</w>
S t
h ab
s in
at e</w>
b y</w>
i r
n en</w>
b u
siden t</w>
& a
&a pos
ung s
s ol
ß </w>
H er
d u
Un ion</w>
p re
ei </w>
al s</w>
g r
I n
m o
st r
ou r</w>
w en
sch af
A n
a d
r ä
ü r
c k
i e
p ar
h as</w>
t u
m e
s er
w as</w>
B er
t ra
wi e</w>
h al
m us
wir d</w>
s ich</w>
au s
a ch
en t</w>
ü ber</w>
0 0
v or
u m
E n
a p
hab en</w>
f in
g t</w>
B e
ti c
p </w>
al l
sin d</w>
E U
t ed</w>
th er</w>
Europ ä
d ar
ein er</w>
M r</w>
M it
t en
P re
( </w>
al so</w>
m e</w>
ur e</w>
si e</w>
t o
) </w>
g er
m ö
i e</w>
ä r
e b
por t</w>
h at</w>
o b
P ro
ou t</w>
A r
p e
at es</w>
eh r</w>
g an
t ri
ein en</w>
men ts</w>
z </w>
ch te</w>
C ommission</w>
A us
i g
S ch
z w
t s
a ch</w>
in ter
r au
K ommission</w>
h o
w ould</w>
u t
: </w>
li e
g el
st a
lich en</w>
ch en</w>
is e</w>
c y</w>
at en</w>
co un
d s</w>
an t</w>
n u
E r
g o
P rä
b ei</w>
on e</w>
i er
dies e</w>
u s</w>
isch e</w>
da ß</w>
V or
sh ould</w>
bu t</w>
Her r</w>
zu r</w>
f ro
s ti
an n</w>
ab le</w>
ou r
ö n
a hr
d ur
al ly</w>
ge b
fro m</w>
ü s
em ber</w>
n ation
ti ve</w>
0 </w>
es s</w>
e t
der n</w>
ge h
p er
e y</w>
d o
m or
w el
au s</w>
k en</w>
mus t</w>
EU </w>
s en
Pre sident</w>
o t
v er</w>
En t
Par la
m in
tion s</w>
k t</w>
g re
g u
k eit</w>
li a
sch en</w>
e u
r it
es t
l en</w>
s am
ich ti
A b
&apos ;</w>
un d
l u
por t
in g
t ei
ou </w>
k ön
th ere</w>
au f
be en</w>
is h
re c
s el
ch t</w>
be it
f i
h eit</w>
er s</w>
it s</w>
y ou</w>
or d
o h
h i
un s</w>
ation s</w>
? </w>
st ell
si on
t re
m üs
b le
&apos ;
poli ti
dies er</w>
omm en</w>
A u
r u
le g
F ra
lia ment</w>
Mit g
Europä ischen</w>
v o
2 00
lich e</w>
&apos; s</w>
a m</w>
Par liament</w>
c an</w>
ver y</w>
g ro
o un
di es</w>
wen n</w>
es e</w>
an der
müs sen</w>
mor e</w>
i hr
for m
un ter
m ar
j e
en d</w>
w ur
w a
d es
ich t
h in
ü n
E in
er en</w>
e t</w>
ö r
m an
t schaf
e p
v or</w>
i ti
fü hr
w ar
li c
ic </w>
an ce</w>
l in
g ra
mö chte</w>
n ah
u p</w>
M a
w eit
v en</w>
t ro
no ch</w>
f ol
ar y</w>
c omm
gh t</w>
ch e</w>
el y</w>
M ember</w>
Mitg li
k ing</w>
ci al</w>
l an
re port</w>
er n</w>
d o</w>
ge m
ab er</w>
it ä
th ese</w>
c es</w>
tz t</w>
G r
in c
r in
St ates</w>
s ec
tim m
th ey</w>
er ung</w>
Prä sident</w>
eh en</w>
men t
g er</w>
th ei
p f
en s</w>
n ach</w>
li ke</w>
Mitgli ed
thei r</w>
con c
C oun
f re
wh at</w>
n eh
m it
Coun ci
si b
Counci l</w>
! </w>
p u
kön nen</w>
dur ch</w>
no w</w>
re s</w>
st en</w>
m u
o ther</w>
ü ber
e urop
nu r</w>
e ff
pro pos
re g
su p
st at
f t</w>
ec t</w>
dies em</w>
t ing</w>
a k
es s
str u
en s
Mitglied sta
zu m</w>
S ie</w>
s om
F rau
be t
ne u
i f</w>
k ann</w>
Europ e</w>
re sp
ein em</w>
m i
im port
europ ä
tz en</w>
t ung</w>
du c
v es</w>
as s
w ä
er t</w>
se in</w>
er n
y st
G es
pre s
te t</w>
ac c
Ber icht</w>
sti tu
sol l
al en</w>
t ur
ou s</w>
for e</w>
v el
au se</w>
K on
b t</w>
Parla ment</w>
r ü
o der</w>
l ung</w>
s ehr</w>
eit en</w>
di s
qu ot
m s</w>
s on
v ol
Mitgliedsta aten</w>
r an
Un ter
k on
tri es</w>
p le
th er
gh </w>
f en</w>
gra m
l t</w>
coun tries</w>
wor k</w>
f ac
d ing</w>
lie ß
wi ck
m y</w>
m on
M en
ges ch
i d</w>
l ä
& quot
&quot ;</w>
g n
i h
r is
ich er
at ed</w>
ag re
al is
Re gi
eh r
a re
l as
k ommen</w>
b o
b </w>
vel op
w ichti
w ei
m an</w>
ff en</w>
da </w>
th o
5 </w>
h and
b el
ati ve</w>
C omm
ab out</w>
y e
st ü
e ment</w>
v en
tz ung</w>
h er
k l
op le</w>
f a
el t</w>
s it
g ung</w>
c ause</w>
at e
f ir
sch ließ
on om
dies es</w>
G e
r ati
tim e</w>
n ung</w>
un ser
mar k
ne ed</w>
on ly</w>
m er</w>
wh o</w>
f ra
f er
in n
re as
un s
tr an
o d</w>
nation al</w>
t el
ein es</w>
Z us
on der
F or
po si
Vor sch
import ant</w>
pe ople</w>
de velop
– </w>
vi el
sp e
p ri
D i
i en</w>
p la
/ </w>
U m
ec onom
h e
ne w</w>
b en</w>
p l
itä t</w>
B es
i el
d ung</w>
be cause</w>
h e</w>
Frau </w>
n o</w>
b eit</w>
g le
mus s</w>
is t
wi th
poli cy</w>
m ehr</w>
c le
ag a
po in
re l
st ri
1 </w>
is su
i </w>
em p
op er
al le</w>
u ation</w>
or t</w>
com e</w>
en ce</w>
ahr en</w>
b lic
neh men</w>
tic al</w>
il ity</w>
pro c
qu es
f o
ti gen</w>
on s</w>
w n</w>
gh ts</w>
fin an
P o
2 </w>
da y</w>
wur de</w>
su ch</w>
Europä ische</w>
en den</w>
re ch
re gi
s yst
Europ a</w>
1 9
ther e
la r</w>
Ar beit
te e</w>
bes onder
ed o
o ff
al e</w>
i f
Her r
ol le
eh t</w>
su b
v ed</w>
pro ble
Z u
v ing</w>
g y</w>
de c
f e
d ed</w>
B ür
sch e</w>
Ent wick
ver n
ommis sion
ie ve</w>
schaf t</w>
b en
hal b</w>
ä ch
de mo
hi er</w>
h er</w>
am men
for der
ta ke</w>
ch an
mö g
Zus ammen
t n
nah men</w>
sib le</w>
stell en</w>
there fore</w>
j us
ch n
sup port</w>
% </w>
f u
ti g</w>
c k</w>
an k</w>
wa y</w>
r on
st än
ich en</w>
wh en</w>
ihr e</w>
il li
ein g</w>
un ity</w>
h eu
f un
tho se</w>
In ter
ing s</w>
n e</w>
us s
L än
wir k
we ver</w>
ges t
in s
par tic
ap p
ge gen</w>
Pro ble
a ge</w>
c </w>
ber eit
Au f
v is
an s</w>
m er
ho wever</w>
di ff
g keit</w>
an y</w>
ma ke</w>
ish </w>
sam e</w>
w ür
gem ein
R at</w>
in to</w>
bes t
l ar
de b
t wor
t in
3 </w>
we en</w>
bet ween</w>
wir tschaf
sol u
som e</w>
h um
zw ischen</w>
hal ten</w>
at ing</w>
f ä
da mit</w>
w o</w>
ar d</w>
ti es</w>
tion en</w>
l au
Ma ß
sp ec
k s</w>
ge w
gel e
Ä n
p en
den en</w>
m is
st e</w>
dies en</w>
k te</w>
it tee</w>
th ing</w>
europä ischen</w>
b ar
t y</w>
Ü ber
di rec
Än der
uns ere</w>
u e</w>
hab e</w>
am p
a d</w>
gi bt</w>
man y</w>
7 </w>
ä m
er i
ar ly</w>
t or
as e</w>
ar i
w ar</w>
resp on
u res</w>
ri ghts</w>
pro gram
un der
politi k</w>
l än
ein i
8 </w>
b eing</w>
a si
geb en</w>
b ei
l and</w>
sch ei
Ber ich
pro duc
an n
lo s
T h
w är
f e</w>
tra g</w>
6 </w>
poli tical</w>
wer e</w>
es t</w>
tr y</w>
com p
C ommission
th em</w>
H au
Re ch
men d
x t</w>
en er
ge t</w>
a ff
econom ic</w>
te u
c re
ri e
S ta
j ec
ar s</w>
ol o
un ter</w>
on g</w>
z ei
de ut
ungs an
t or</w>
gro ß
k eine</w>
en z
ma de</w>
n at
ti v
m ich</w>
g es</w>
m at
Fra ge</w>
re ad
W ir
iti es</w>
4 </w>
b rau
u tz
mo st</w>
M in
vi e
c an
k tion</w>
heu te</w>
G em
edo ch</w>
th an</w>
or der</w>
fir st</w>
j edoch</w>
S o
ü ck
gan is
Commission er</w>
ra p
th in
w oh
Ber e
9 </w>
as t</w>
h el
d an
K ommis
bel ieve</w>
p a
ar beit
wä hr
un kt</w>
c ri
ro u
ri f
Gem ein
K o
pro t
son dern</w>
g ab
R icht
us s</w>
for m</w>
de t</w>
ation en</w>
h ere</w>
la g</w>
Gr und
pu blic
d ann</w>
u p
W e
re d</w>
tr ä
sa y</w>
am en</w>
m eine</w>
c er
c ul
in st</w>
Herr n</w>
Po li
we ise</w>
aga inst</w>
soll te</w>
cle ar</w>
h ar
geh t</w>
en de</w>
conc ern
ti z
wi e
l ei
y s</w>
Maß nahmen</w>
it e</w>
k rati
ander en</w>
Prä siden
propos al</w>
me as
ier ung</w>
ß er
jus t</w>
soll ten</w>
re s
gen t
fac t</w>
19 9
ab l
deb ate</w>
ti ge</w>
e k
unter stü
sh al
ge gen
Aus sch
i el</w>
F in
ell en</w>
p ra
in form
z e
h eit
h ä
lo w
S tr
J ah
so cial</w>
d ra
ci tiz
ment al</w>
y ing</w>
s at
d el
public </w>
sch ie
den n</w>
m p
in stitu
mark et</w>
en tr
sch </w>
lich keit</w>
on en</w>
M ar
dec is
inc lu
so wie</w>
eb en</w>
f ul
poin t</w>
au </w>
geh en</w>
le tz
le v
z eu
wh ere</w>
c ur
el le</w>
bereit s</w>
thin k</w>
e ven</w>
con si
sch en
te chn
is l
develop ment</w>
pos sible</w>
S icher
f all
sp ar
Comm ittee</w>
cer ta
oper ation</w>
sa gen</w>
en g
n ec
inc reas
to day</w>
st an
2 0
bu d
Men schen</w>
im mer</w>
h an
sit uation</w>
woh l</w>
s timm
issu e</w>
t ly</w>
ad op
pro vi
K olle
g s</w>
ques tion</w>
ö l
wei l</w>
A l
’ </w>
al le
ye ars</w>
vie w</w>
hum an</w>
Bes ch
do es</w>
besonder e</w>
us e</w>
Wir tschaf
Fin an
ri ght</w>
is sen</w>
Entwick lung</w>
o ver</w>
f ut
em ber
Parla ments</w>
al i
h nen</w>
ff ent
t el</w>
so zi
coun try</w>
ou gh</w>
con tin
ho w</w>
is se</w>
in nen</w>
op e</w>
ä f
fut ure</w>
st and
je tzt</w>
wel l</w>
Hau shal
syst em</w>
read y</w>
w ol
vi ron
t ure</w>
wur den</w>
F re
re su
citiz ens</w>
a mend
go vern
Änder ungsan
er h
b in</w>
da zu</w>
ha d</w>
unser er</w>
c c
i r</w>
rü ck
t wo</w>
dar auf</w>
can not</w>
da für</w>
solu tion</w>
m al</w>
ci p
th en</w>
b asi
meas ures</w>
par t</w>
reg ul
c ould</w>
t lichen</w>
lo b
S it
an twor
C on
c our
w ant</w>
gle ich
nation alen</w>
ap pro
gan z</w>
p ec
do ch</w>
vo m</w>
R ah
b il
er re
Vorsch lag</w>
ar beit</w>
stru c
b i
f ahren</w>
n ach
ob </w>
leg isl
lin ie</w>
e tz
com pe
th rou
EU -
er k
ha p
gi e</w>
al ity</w>
da her</w>
sel b
ge ment</w>
cur r
las sen</w>
bes ch
M r
G ro
demo c
l ungen</w>
bes ser
ord nung</w>
x </w>
p rin
wen di
mi r</w>
de u
ä u
sa id</w>
s or
Men schen
ent ly</w>
s icher
str ate
im ple
emp lo
vo te</w>
da m</w>
gen en</w>
Ver ein
st ar
posi tion</w>
kl är
w er</w>
en n
b r
agre ement</w>
ter stat
sh i
mu ch</w>
in e</w>
o wn</w>
nah me</w>
stän di
dis c
al ready</w>
tro l
prot ec
with in</w>
st e
se tzen</w>
en z</w>
is p
is ten</w>
ex c
Poli ti
D e
Bür ger</w>
go od</w>
di c
Th em
lo w</w>
se e</w>
k eiten</w>
des halb</w>
D em
i es</w>
Fra ktion</w>
gen ommen</w>
T re
et y</w>
to o</w>
gen er
ins besondere</w>
con su
at s
ye ar</w>
ember s</w>
ar ds</w>
Kolle gen</w>
bo th</w>
j ect</w>
t es</w>
ta ken</w>
f as
n um
or ity</w>
f est
st and</w>
u lar</w>
führ en</w>
sti ll</w>
en viron
ihr er</w>
ter s</w>
En er
Mr s</w>
O </w>
finan cial</w>
gest ell
qu i
w es
in v
R </w>
un der</w>
k un
en ti
leg al</w>
re chen</w>
sp ra
rap por
per i
O r
ö s
be g
g lich</w>
diff er
wh y</w>
ne ed
tur al</w>
be wer
t lich</w>
f ur
M e
fu l</w>
eff ec
partic ular</w>
se tzung</w>
b rin
neu en</w>
eini ge</w>
it ed</w>
k now</w>
comm on</w>
Berich terstat
wür de</w>
ma chen</w>
du stri
en en</w>
v al
sa r</w>
d re
acc ep
pla ce</w>
wel t
führ t</w>
inter national</w>
tion al</w>
th re
co operation</w>
t al
y our</w>
sion s</w>
Kommis sar</w>
a st
ac t</w>
Län der</w>
wichti g</w>
at er</w>
ti n</w>
la ge</w>
z un
Comm unity</w>
Dem o
ser vi
s ich
Ar beit</w>
lev el</w>
ti g
ou s
be d
G eb
cour se</w>
nec ess
Rech ts
m einer</w>
at or
l ungs
ur ity</w>
z ah
h ope</w>
L is
kön n
Pro gram
ens ure</w>
is m</w>
o f
ac tion</w>
at te</w>
h än
be gr
dar über</w>
emplo y
ou se</w>
dur ch
oh ne</w>
so ci
ti al</w>
r or
las t</w>
wor ld</w>
Zusammen arbeit</w>
si gn
d ly</w>
lich er</w>
im pro
h is</w>
nat ür
S </w>
k re
s tim
t liche</w>
ter n</w>
I hnen</w>
gr ation</w>
mit tel
f ri
A </w>
mu ß</w>
ti eren</w>
a ir
or ganis
wol len</w>
der ung</w>
em s</w>
sec on
n al</w>
c ase</w>
sat z</w>
b is</w>
eb en
st är
proble m</w>
th ank</w>
teu r</w>
Arbeit s
e ments</w>
Unter stü
alle m</w>
politi schen</w>
pu t</w>
are a</w>
ar an
som e
k om
ab ility</w>
Bere ich</w>
de m
M ein
au th
pres ent
re chte</w>
Z eit</w>
ich ts</w>
I ch</w>
E </w>
T ei
g lau
el n</w>
H and
G el
ö ß
as ed</w>
with out</w>
in iti
i ci
M on
es sen
all en</w>
re it
Richt linie</w>
Pre siden
ass ung</w>
ord in
wor den</w>
B eit
ze ich
Jah r</w>
s eine</w>
or ities</w>
proc ess</w>
ord ne
m us</w>
Unterstü tzung</w>
ma y</w>
st ehen</w>
ander e</w>
be k
utz </w>
w al
inform ation</w>
f le
min is
in ten
neu e</w>
z en</w>
ge ordne
ener gy</w>
k tion
rappor teur</w>
om en</w>
ma j
al o
ven tion</w>
throu gh</w>
ci es</w>
i a</w>
ö ffent
at y</w>
heit s
te xt</w>
e ver
nu n</w>
ur o</w>
me ans</w>
ob jec
hal f</w>
s ä
c ed</w>
ten s</w>
vor sch
Rah men</w>
amp le</w>
G er
d ru
gent le
num ber</w>
b ar</w>
isch er</w>
trä ge</w>
gestell t</w>
ex ample</w>
in vol
is en</w>
ä h
h ol
gentle men</w>
as k</w>
ier en</w>
Bür ger
necess ary</w>
if ic
J ahren</w>
i ons</w>
gi ven</w>
in de
wär e</w>
g lob
v öl
natür lich</w>
In form
sin ce</w>
lo o
ö g
P </w>
proble ms</w>
ü ß
i k
al th</w>
i b
viel e</w>
la dies</w>
en d
H ouse</w>
go ti
l er</w>
sp rechen</w>
compe ti
Län dern</w>
fall s</w>
e ch
st re
M ög
be fore</w>
tu n</w>
h en</w>
e f
ul es</w>
c al</w>
direc tive</w>
z ep
ge t
i li
ti k
consi der
si ve</w>
L and</w>
a ffen</w>
an ges
be tri
ne goti
no t
t bewer
tz e</w>
ex p
c u
s icht</w>
Re cht</w>
T a
sch on</w>
el ec
partic ul
zi eh
la gen</w>
Ent schei
s ichti
ac k
se t</w>
fin den</w>
program me</w>
ne t</w>
fa v
particul arly</w>
me di
z ü
i ce</w>
bud get</w>
shi p</w>
ff t</w>
Ma dam</w>
Ab geordne
Proble m</w>
op port
gi ve</w>
re ich
B eh
brau ch
b in
es en</w>
äm pf
at ely</w>
Ent schließ
selb st</w>
ier t</w>
gre at</w>
Z iel
sec urity</w>
b al
gen heit</w>
pres ent</w>
est abl
zw ei</w>
protec tion</w>
p unkt</w>
stimm ung</w>
sel f</w>
issu es</w>
e tzt</w>
N amen</w>
S p
th ough</w>
ma in
brin gen</w>
e g
Str ate
ein mal</w>
au ßer
Präsiden tin</w>
str eng
kun ft</w>
tri bu
illi on</w>
20 1
comm it
reg ard</w>
tor s</w>
r ise</w>
c ar
i gen</w>
j o
h eiten</w>
Unter nehmen</w>
ri ti
are as</w>
for t
chan ge</w>
wh e
re solution</w>
ma cht</w>
resp ect</w>
tic </w>
Sta aten</w>
w omen</w>
Min is
f ahr
sam en</w>
zu sam
ün f
sib ility</w>
Them a</w>
la w</w>
Tre aty</w>
F all</w>
sol l</w>
employ ment</w>
sp ort</w>
N ach
e qu
f t
vi el</w>
p h
00 </w>
ti ert</w>
Sicher heit</w>
2 0</w>
k omm
europä ische</w>
mat ter</w>
spra che</w>
el l</w>
mög lich</w>
whe ther</w>
gr öß
af ter</w>
B ed
li m
stell t</w>
ag t</w>
in te
Be deut
proc ed
i l</w>
ff e</w>
bes timm
f ar</w>
re qui
et was</w>
amend ments</w>
Bedeut ung</w>
J ahr
por ts</w>
Ener gi
k o
ges am
w s</w>
aga in</w>
Fra gen</w>
ges etzt</w>
Gro up</w>
hi gh
ic ul
Politi k</w>
Q u
k u
diff icul
H in
not wendi
us ed</w>
P ri
los sen</w>
ig er</w>
ti ce</w>
Mein ung</w>
L age</w>
k ten</w>
st er</w>
R ates</w>
ri cul
P er
uss es</w>
k ed</w>
k ey</w>
me work</w>
com ple
wa ys</w>
sec tor</w>
fä l
rit t</w>
certa in</w>
Ver brauch
k ehr
w issen</w>
best eht</w>
c all
ihr en</w>
con di
fur ther</w>
se qu
L ös
ge führt</w>
han g</w>
regi on
be deu
rif ten</w>
c ris
n i
M embers</w>
ein f
W et
le t</w>
il fe</w>
g o</w>
ser i
s ehen</w>
w ach
Un ited</w>
op in
en cy</w>
geb n
zu g</w>
Z iel</w>
d r
dar f</w>
ac coun
unterstü tzen</w>
Inter es
ti ves</w>
s c
sa m</w>
th ir
stell ung</w>
su cc
z e</w>
l ess</w>
wie der</w>
k es</w>
Ges ch
le ich
k ur
be half</w>
conc lu
basi s</w>
our ces</w>
D is
con tribu
ro le</w>
inter es
hand elt</w>
propos als</w>
si mp
ne xt</w>
f an
go ing</w>
führ ung</w>
St ra
begr üß
ent schei
in di
zw ar</w>
Regi erung</w>
z el
K ol
schließ lich</w>
Proble me</w>
Geb ie
tra de</w>
Aus sprache</w>
s s
V ol
finan zi
pro gre
I hr
ation s
g ten</w>
da bei</w>
m il
ter ms</w>
li dar
t sch
ges agt</w>
pra c
pf lich
ein zu
ch ten</w>
Wet tbewer
servi ces</w>
ou t
aus sch
pro mo
on -
Di en
gen den</w>
m es</w>
ß t</w>
Sit uation</w>
Zu kunft</w>
ful ly</w>
fav our</w>
Frau en</w>
u es</w>
wirk lich</w>
decis ion</w>
tre ten</w>
ol le</w>
zw eit
a v
er forder
T ran
lä ge</w>
K om
d one</w>
war ds</w>
a id</w>
r ules</w>
- 0
a de</w>
ab il
r en
F isch
fol low
i de
n am
ever y
ä hr
le gen</w>
betri fft</w>
differ ent</w>
fi ed</w>
ma in</w>
n er</w>
c ap
Mit tel</w>
k ti
L and
de fin
is ed</w>
ver schie
tei li
Zusammen hang</w>
Wirtschaf ts
M illi
h ei
f el
war d</w>
pres s
K in
he alth</w>
adop ted</w>
legisl ation</w>
al ität</w>
bet ter</w>
c olle
E C
R olle</w>
D ie</w>
re co
o ver
f ör
T </w>
geh ör
at ten
i le</w>
gr und
u d
Finan z
g ar</w>
r icht
u c
Haushal ts
c or
l es</w>
en th
imple ment
tra gen</w>
r ichti
u b
politi sche</w>
t -
gele gt</w>
hel p</w>
agre e</w>
ta in
S yst
ous ly</w>
letz ten</w>
p rop
währ end</w>
Ver hand
p lan
tran s
p p
j a</w>
gan g</w>
B el
ti gung</w>
ent sp
st eht</w>
Ab stimmung</w>
äm lich</w>
I s
C hin
ar ch</w>
glau be</w>
and s</w>
ben e</w>
need s</w>
ic ation</w>
aus ge
n ämlich</w>
Er gebn
we isen</w>
In stitu
St and
I r
fra mework</w>
z eit</w>
ig n
Z eit
ex is
m ers</w>
tei l</w>
tu r</w>
par tn
ic al</w>
en ces</w>
cris is</w>
ma king</w>
al er</w>
f l
Re gel
ges timm
W or
l it
Kol leg
at t
p rä
W elt</w>
is mus</w>
Demo krati
b lei
contin ue</w>
L i
k tur
Pro du
is ch</w>
E u
im p
Mit tel
Regi er
So zi
a gement</w>
ac k</w>
opin ion</w>
sub ject</w>
p rü
institu tions</w>
unser en</w>
ag ricul
ul ation</w>
d ings</w>
olo gi
f ish
gen d</w>
dru ck</w>
wh ol
sel ves</w>
s einer</w>
progre ss</w>
ih r</w>
da von</w>
s m
w ish</w>
k ra
re se
e -
icht lich</w>
s eit</w>
Dis k
y p
gestimm t</w>
L eb
men te</w>
h </w>
weit er
B ar
D eb
posi tive</w>
prin cip
d ür
gro up</w>
N </w>
sh o
ig keit</w>
str y</w>
G re
a gen
sch n
i g</w>
ra cy</w>
l on
c ou
au en</w>
lie gt</w>
vo ted</w>
stim men</w>
w eit</w>
vis ion</w>
Ar tik
ge währ
concern ed</w>
hä t
h n
h ör
re fer
gr at
st o
demo krati
Besch äf
dan ken</w>
gr und</w>
Eu ro
ück sichti
j en
p as
g ing</w>
ti gt</w>
ver s
Ges und
d lich</w>
ie der
an other</w>
Be isp
könn te</w>
ä l
t able</w>
der s</w>
arbeit en</w>
G o
ma ß
rati c</w>
Um welt
dur ing</w>
l l
St ate</w>
s eit
ex tre
all er
rit te</w>
T ur
at er
some thing</w>
g ed</w>
n ing</w>
wel come</w>
In iti
l ong</w>
N or
ch il
dar an</w>
no v
ent wick
lin e</w>
L </w>
resu lt</w>
h ö
wor king</w>
ach ie
wh ile</w>
Ver antwor
whol e</w>
r än
i zi
der t</w>
fe w</w>
n äch
fun da
al ten</w>
zu rück
to wards</w>
wen dung</w>
thre e</w>
on ds</w>
for ward</w>
ati ves</w>
ing ungen</w>
ig n</w>
mer k
We ise</w>
Menschen rechte</w>
at s</w>
su ff
W ah
bes s
geb ra
k tionen</w>
gab en</w>
blic k</w>
der en</w>
at ten</w>
ac e</w>
it al</w>
per son
di sa
00 0</w>
appro ach</w>
vol l
A gen
gu aran
e v
b it
ge ther</w>
k er</w>
p ur
condi tions</w>
spec if
gab e</w>
U S
gen de</w>
to gether</w>
du stry</w>
l ab
E bene</w>
Europ as</w>
l ed</w>
P unkt</w>
gro w
in tro
Gemein schaft</w>
Herr en</w>
tran spar
g s
hän gi
es sion</w>
Ges etz
er te</w>
t om
e very</w>
b us
le icht</w>
gegen über</w>
fo re
res ources</w>
de f
b ased</w>
comm un
us sion</w>
di d</w>
b ur
pec i
F ol
princip le</w>
ati ven</w>
itä ten</w>
ho ffe</w>
Artik el</w>
sa f
sch ein
s y
ß en
enz en</w>
besonder s</w>
Tei l</w>
wel che</w>
du ce</w>
Sch utz</w>
cle arly</w>
establ ish
ess es</w>
curr ent</w>
dar in</w>
kom men
fin ally</w>
For sch
inclu ding</w>
s ab
an ge
sch i
k ein</w>
dre i</w>
so wohl</w>
groß e</w>
sp rä
b s
war en</w>
an zu
gu t</w>
g ri
el s</w>
200 0</w>
specif ic</w>
t ungen</w>
For tsch
st ate</w>
g te</w>
sh all</w>
viel en</w>
T er
tran sport</w>
import ance</w>
Kon trol
den ce</w>
k no
k ünf
re duc
or ts</w>
zusam men
v ement</w>
pro chen</w>
Berichterstat ter</w>
propos ed</w>
certa in
ta king</w>
le isten</w>
opport unity</w>
on ce</w>
or y</w>
regul ation</w>
re ally</w>
Vorsch läge</w>
air s</w>
do wn</w>
vor gesch
We g</w>
Gr ün
is ti
as es</w>
w ün
h au
D amen</w>
her vor
poli cies</w>
Jahr e</w>
es peci
P l
m illion</w>
brau chen</w>
auth orities</w>
we gen</w>
especi ally</w>
y et</w>
E uro</w>
provi de</w>
Sozi al
cri min
An sicht</w>
schaf ts
qu ite</w>
inn en
increas e</w>
e k</w>
b an
Presiden cy</w>
wor k
v ari
inn er
zi ehen</w>
B em
all er</w>
secon d</w>
vi ol
k ehr</w>
Mög lichkeit</w>
E x
negoti ations</w>
gener al</w>
Strate gie</w>
rop ri
M ehr
Lös ung</w>
Re chte</w>
in stru
ver b
in dustry</w>
ad di
reco gn
ra ther</w>
Deb atte</w>
ann t</w>
si de</w>
Kolleg innen</w>
strate gy</w>
An gele
environ mental</w>
EU R</w>
produc ts</w>
gre ater</w>
app ropri
er ten</w>
z o
respon sibility</w>
s ur
t ungs
resu l
k lar</w>
accoun t</w>
en nen</w>
saf ety</w>
zun eh
sch affen</w>
cou ra
rese arch</w>
acc ord
weit er</w>
J u
le a
fin d</w>
völ k
zi erung</w>
f ar
den t</w>
er halten</w>
st s</w>
ih nen</w>
ger e
ab </w>
R us
L u
gen u
ä ß
ter ror
inter nationalen</w>
be come</w>
A fri
com ing</w>
ür k
Um setzung</w>
Par tn
ter m</w>
effec tive</w>
it self</w>
Änderungsan träge</w>
ger ade</w>
ü h
Entwick lungs
tro l</w>
erh in</w>
s k
B il
seri ous</w>
er zi
weit erhin</w>
M i
lich keiten</w>
b le</w>
h and</w>
or i
Beisp iel</w>
Ar t</w>
bus in
komm t</w>
Chin a</w>
wes ent
a k</w>
Änderungsan trag</w>
d ungen</w>
le ast</w>
vi du
gu e</w>
w an
g le</w>
Be zug</w>
ben ef
gemein samen</w>
er fol
Z ah
ri min
gre i
sta in
Ab kommen</w>
pre v
ger n</w>
Leb ens
U </w>
un de</w>
stand ards</w>
Abgeordne ten</w>
groß en</w>
k ämpf
ab hängi
aller dings</w>
v es
dür fen</w>
ell schaft</w>
Rus si
c all</w>
B r
entsp rech
gle ich</w>
democ racy</w>
re present
gebra cht</w>
edo m</w>
comp an
for ce</w>
aff ung</w>
B ei
fra gen</w>
ac tu
it är
st ly</w>
des sen</w>
sa che</w>
wirtschaf tlichen</w>
democ ratic</w>
B innen
Kommis s
ver besser
Fisch er
uns er</w>
N o
pro mis
inde ed</w>
hum an
fre e</w>
regi ons</w>
ha ving</w>
ich ten</w>
tei lung</w>
indi vidu
ti gkeit</w>
den ken</w>
A m
b ro
acc ess</w>
di en
e ts</w>
w rit
y o
sozi alen</w>
re al</w>
T at
alis ierung</w>
al ways</w>
al y
de al</w>
all es</w>
ber e
ein zel
In stru
c ing</w>
Verhand lungen</w>
zieh ungen</w>
reas on</w>
am ili
ber ücksichti
difficul t</w>
m ul
th ings</w>
inner halb</w>
Demokrati e</w>
fre edom</w>
b on</w>
äch st</w>
Go vern
ur al</w>
S teu
con f
b ri
Hin blick</w>
e ach</w>
atten tion</w>
funda mental</w>
k ung</w>
k an
lie gen</w>
essen tial</w>
pri v
o th
mar kt</w>
Milli onen</w>
ak zep
kon kre
t ä
dar um</w>
viel leicht</w>
Ver trag</w>
R at
ati s
implement ation</w>
eini gen</w>
wirtschaf t</w>
syst ems</w>
Ver ordnung</w>
sm all</w>
interes ts</w>
soci ety</w>
thir d</w>
stri c
s weise</w>
Er klär
k t
f all</w>
ach ieve</w>
fü r
5 0</w>
al low</w>
Ziel e</w>
maj or</w>
th em
regi on</w>
wie der
mit t
c los
be tre
An twor
an im
re cht</w>
nation ale</w>
c lo
a w
a il
t ent</w>
ver su
h il
Aussch usses</w>
R om
A spe
fra ge</w>
sign ific
Verein ig
spe zi
F ör
com men
qu ality</w>
poin ts</w>
fi el
d at
Gr und</w>
den ke</w>
me et
be isp
inter nal</w>
Arbeit sp
jo in
k e
1 0</w>
l uss</w>
sol len</w>
sol che</w>
vari ous</w>
gemein same</w>
forder t</w>
tschaf t</w>
Wirtschaf t</w>
bei m</w>
d y</w>
le ist
Entschließ ung</w>
h ist
tiv </w>
H ilfe</w>
govern ment</w>
bu il
loo k</w>
in dustri
al though</w>
Is ra
wichti ge</w>
eff orts</w>
E -
econom y</w>
mon ey</w>
beisp iel
Ver fahren</w>
b ack</w>
aus zu
reg ar
um fas
In dustri
erre ichen</w>
er sten</w>
li ber
T O</w>
F un
schaf ten</w>
E s</w>
Beh ör
re form</w>
Verantwor tung</w>
ter n
de ci
pre c
t sp
W o
ver stän
er st
rec ei
gesch lossen</w>
d lichen</w>
n or
n ei
er st</w>
all gem
wirk ungen</w>
en lar
Institu tionen</w>
wer de</w>
environ ment</w>
tei l
f te</w>
sta at
sä tz
L e
i heit</w>
f al
k in
inv est
deut lich</w>
ati v
s ei
colle ag
wor ds</w>
sh </w>
ol d</w>
b ie
Sicher heits
un i
consi der</w>
fä h
com es</w>
follow ing</w>
su m
Regi onen</w>
un den</w>
comm ittee</w>
er mög
sp r
En de</w>
Ver besser
pl es</w>
par ti
Dien st
d ungs
Grund lage</w>
per s
an s
zei gt</w>
ir e</w>
Pro je
app lic
weit ere</w>
ab ly</w>
A mer
fun ds</w>
amend ment</w>
Pro z
op en
Aussch uss</w>
l ing</w>
D o
d rück
zei tig</w>
grei fen</w>
m ehr
notwendi g</w>
sch ä
ge macht</w>
zü glich</w>
Be völk
A ff
P al
M o
proced ure</w>
außer dem</w>
is sen
O ff
wi esen</w>
den ti
su stain
th s</w>
ex ten
G leich
in dem</w>
competi tion</w>
ver sch
Or ganis
ta in</w>
T ex
an ti
äu ßer
R ück
zu stellen</w>
m äß
initi ative</w>
grow th</w>
dr en</w>
invol ved</w>
m eines</w>
F rie
re m</w>
wür den</w>
sch er</w>
v ot
fort un
bei den</w>
ges ehen</w>
e th
hau p
con trol</w>
N ot
er klär
Tat sache</w>
tei len</w>
3 0</w>
con sequ
sch rif
gegen wär
Me di
B o
compan ies</w>
gi lt</w>
C h
gen au</w>
G ener
län dern</w>
st er
n ichts</w>
fü l
ch all
wh o
concern s</w>
ut es</w>
ed uc
L an
alo gue</w>
Aus wirkungen</w>
chil dren</w>
p ris
po wer</w>
Mitg lie
z ung</w>
D ur
lar ge</w>
mit tel</w>
S ek
certain ly</w>
tic le</w>
er wä
minis tr
con grat
t ar
beispiel sweise</w>
ah r</w>
min d</w>
congrat ul
program mes</w>
s ichtlich</w>
Aff airs</w>
are d</w>
Govern ment</w>
fer enz</w>
tion ed</w>
eff ici
Ver f
sin gle</w>
hi gh</w>
W ir</w>
seit s</w>
res s
gr an
US A</w>
Li ber
pl an</w>
ful l</w>
ge geben</w>
s si
eben falls</w>
bes t</w>
ste p</w>
ats äch
ab o
Ge gen
v an
alis ation</w>
Au ßen
work ers</w>
agre ements</w>
t atsäch
st ra
li g</w>
fin det</w>
Lis sab
auf grund</w>
pre ss</w>
Lis bon</w>
fer ence</w>
gr enz
Per son
glob al</w>
f er</w>
objec tives</w>
tim es</w>
E ra
le ben</w>
ap pe
o cc
b our
wen iger</w>
Str u
y -
spec i
be w
ex peri
d ate</w>
ß en</w>
en coura
u ß</w>
ver fahren</w>
W el
unterstü tzt</w>
li eren</w>
fo od</w>
zw ei
Aus druck</w>
anges ichts</w>
inter est</w>
Ver tra
in s</w>
gen e</w>
h r</w>
und ing</w>
Inform ationen</w>
tr u
1 5</w>
maj ority</w>
intro duc
sa ge</w>
gleich zeitig</w>
Syst em</w>
rec ent</w>
f li
d ou
of ten</w>
St ell
ein zi
ar in</w>
gro up
t ation</w>
con stitu
sch wi
decis ions</w>
Ver pflich
er neu
G i
un kte</w>
v e
extre m
b re
hal te</w>
k einen</w>
re gel
form s</w>
pe ace</w>
aw are</w>
man agement</w>
produc tion</w>
200 1</w>
simp ly</w>
av ail
an gem
er seits</w>
i tion</w>
agricul tural</w>
R i
hap p
re ques
stat t</w>
S ach
J un
g a
chall en
Arbeit neh
m t</w>
jec ts</w>
ver fol
Rat sprä
öffent lichen</w>
Ihr e</w>
zun ächst</w>
lo s</w>
Au ff
vorsch riften</w>
Entschei dung</w>
För derung</w>
T ürk
weit erung</w>
Interes se</w>
h in</w>
po p
R ei
ü hr
ei genen</w>
se ver
vi c
vol l</w>
Behör den</w>
rit t
om ent</w>
ob li
re i
rel ations</w>
schi ed
gu te</w>
Be ziehungen</w>
R es
S e
D ank</w>
region al</w>
m ati
t le</w>
Regi on</w>
po ten
verschie denen</w>
d ort</w>
ser v
al low
s einen</w>
appropri ate</w>
Tur key</w>
ad ministr
men tioned</w>
co ordin
br ing</w>
group s</w>
extrem ely</w>
ra g</w>
di alogue</w>
Dur ch
ter in</w>
conc ern</w>
bedeu tet</w>
Türk ei</w>
Wettbewer bs
h on
A k
Di alo
Ter ror
n er
F lu
ch o
h atte</w>
fle x
W ähr
hin aus</w>
der ungen</w>
be tra
Ver tre
in es</w>
Kommiss arin</w>
Um wel
olo g
la ck</w>
Vereinig ten</w>
ques tions</w>
hap s</w>
lei der</w>
parti cip
tur n</w>
B al
i an</w>
hal tung</w>
w o
ag o</w>
st eh
gehör t</w>
fä hr
call ed</w>
en der</w>
pro f
pos e</w>
accep t</w>
ch tens</w>
M il
cre ate</w>
per haps</w>
enlar gement</w>
St abil
ob s</w>
v il
Sch affung</w>
m ise</w>
pro du
E m
hin sichtlich</w>
u t</w>
Er weiterung</w>
ves ti
Pro to
fiel d</w>
Era chtens</w>
ci vi
is tet</w>
actu ally</w>
g sten</w>
P e
Minis ter</w>
mi ght</w>
eben so</w>
Not wendi
pu b
respon sible</w>
bess er</w>
me chan
oth ers</w>
develop ing</w>
k a</w>
con text</w>
Antwor t</w>
do cu
concern ing</w>
l ück
in ing</w>
Verbrauch er</w>
tro tz
i ly</w>
N u
so gar</w>
mon it
I ra
r y</w>
re commen
is ation</w>
zah l
li fe</w>
me tho
N o</w>
f ris
P or
st ates</w>
syst em
in -
en ter
objec tive</w>
f ung</w>
b or
con s
Program m</w>
li es</w>
C O
avail able</w>
peri od</w>
R u
an y
curr ently</w>
pro mise</w>
einf ach</w>
j obs</w>
pos ed</w>
A mend
ris k</w>
erforder lich</w>
ich e</w>
d rin
par lia
f onds</w>
hät te</w>
C har
sich er</w>
forder ungen</w>
com b
U r
k ol
j u
ti vi
de mon
könn ten</w>
ch ar
W ach
for dern</w>
g än
Ar ticle</w>
har mon
Z i
auf ge
c lim
K rise</w>
s ei</w>
be züglich</w>
un fortun
an u
a im
ation al</w>
l s</w>
entschei den
Notwendi gkeit</w>
b au</w>
Zu gang</w>
je der</w>
Pri or
fi ght</w>
g ges
consu mers</w>
impro ve</w>
stat t
in nov
Ab sch
C our
F </w>
Ver wal
m als</w>
sion en</w>
T ra
lin ien</w>
Be kämpf
Bed ingungen</w>
ein ge
star t</w>
ich tet</w>
op en</w>
ger ung</w>
kon n
J us
w le
ou ght</w>
ig ung</w>
näch sten</w>
al tung</w>
ment ary</w>
n on-
Gebie t</w>
ist an</w>
ac tions</w>
In vesti
er inn
lich es</w>
Bekämpf ung</w>
resul ts</w>
pf eh
in f
Arbeitsp lä
b ish
se tz
Russi a</w>
umfas sen
ro w</w>
m einen</w>
r e</w>
Cour t</w>
en e</w>
län der</w>
meet ing</w>
er weise</w>
l üs
el ess</w>
de ta
entr al</w>
an genommen</w>
rau m</w>
tiv ely</w>
Ko so
imp act</w>
au m</w>
fo c
tei le</w>
fa il
jen igen</w>
Bevölk erung</w>
disc uss
li ght</w>
gen ann
T he</w>
200 6</w>
u te</w>
Menschen rech
flex ib
Ta ges
2 5</w>
tei lt</w>
secon dly</w>
tn is</w>
Wach st
So lidar
Gel e
re ly</w>
200 2</w>
hal t</w>
abl ed</w>
w in
under stand</w>
er sch
v o</w>
schließ en</w>
Über ein
Sch ritt</w>
vi ous</w>
kin d</w>
Di rec
do ing</w>
D </w>
P ol
ob wohl</w>
Beit rag</w>
zweit ens</w>
li ed</w>
Auf gabe</w>
educ ation</w>
need ed</w>
wichti gen</w>
An wendung</w>
Vol k
sozi ale</w>
ich te</w>
c ases</w>
199 9</w>
clim ate</w>
der zeit</w>
is ierung</w>
se k
si di
wer s</w>
G en
K ul
so lidar
Stru ktur
m embers</w>
ab zu
ver ur
Energi e
er war
them selves</w>
wei ß</w>
sam keit</w>
Verbesser ung</w>
i z
dis ku
lan g</w>
Her aus
ver fü
hei ßt</w>
fäh igkeit</w>
l icht</w>
zuneh men</w>
p s</w>
legisl ative</w>
ei gent
ge ts</w>
w ander
wle d
schrif tlich</w>
tra c
tei di
du e</w>
mon ths</w>
dat a</w>
Rei he</w>
mat ters</w>
re li
prin ci
vor zu
lo c
200 4</w>
conf lic
f ication</w>
Hau p
ih rem</w>
requi re
regar ding</w>
erre icht</w>
con struc
Initi ative</w>
de ter
th an
der n
ari an</w>
F r
am ong</w>
sub stan
er ungs
verstän dlich</w>
rin zi
b reit
Off ice</w>
Por tu
wirtschaf tliche</w>
f ern
mo ve</w>
am oun
ig keiten</w>
princi ples</w>
e uro</w>
K ra
Er fol
gan gen</w>
n ed</w>
re ach
ch t
en ts</w>
c en</w>
si s</w>
reas ons</w>
ec ted</w>
of f</w>
ator y</w>
fa ir</w>
accep table</w>
Fortsch ritte</w>
w ahr
im mi
ne g
gan genen</w>
Amer ic
or ig
eff izi
In te
A gr
Re g
K amp
Stand punkt</w>
Dienst leist
zo gen</w>
ti schen</w>
en ough</w>
Agr ar
tro ffen</w>
Program me</w>
lä u
on g
richti g</w>
F äl
z eh
d n
exc ell
Berich ts</w>
maß nahmen</w>
ru p
ic k
ven ess</w>
d est
ver antwor
fir stly</w>
K oh
ge fähr
Verein bar
tatsäch lich</w>
Bes timm
200 3</w>
h es
an der</w>
blei ben</w>
ständi g</w>
D in
de al
F l
ih m</w>
Hand el
or s</w>
ein deu
f unding</w>
hand eln</w>
Ko sten</w>
pro z
reg ards</w>
ran k
op </w>
inv es
tivi ties</w>
ex press
Forsch ung</w>
da r</w>
re ports</w>
ä ß</w>
d liche</w>
nach hal
Gi pf
par ties</w>
pro jects</w>
del i
di re
us t</w>
z entr
ex am
Ge f
sustain able</w>
se t
e ver</w>
gemein sam</w>
för dern</w>
com promise</w>
co sts</w>
Ge wal
K enn
schwi eri
demon str
signific ant</w>
e ar
begrüß e</w>
S er
gem äß</w>
ber u
kehr s
no thing</w>
sit z
individu al</w>
at ast
op p
unter schied
T e
Kontrol le</w>
R uss
por ted</w>
pri ority</w>
kon trol
atast rop
bar en</w>
pre p
B est
Sp an
us ing</w>
join t</w>
mul ti
W ieder
er fül
ac tivities</w>
achie ved</w>
1 2</w>
Interes sen</w>
fü n
Beschäf tigung</w>
l er
pec ts</w>
Bere ichen</w>
to t
ist ance</w>
e p</w>
abo ve</w>
schließ end</w>
writ ing</w>
inde pen
D ec
fe el</w>
rit eri
Koso vo</w>
ag es</w>
im mt</w>
l at
mittel n</w>
l and
c ru
t a</w>
Richt ung</w>
D E</w>
L eben</w>
er ste</w>
Ver fü
Gesch äf
i denti
W ort</w>
unfortun ately</w>
ih n</w>
gen heiten</w>
govern ments</w>
ch er</w>
commit ment</w>
olo gy</w>
ti veness</w>
J anu
ex ter
lo cal</w>
solu tions</w>
w ob
ta x</w>
tr ue</w>
Gele genheit</w>
eri es</w>
Con vention</w>
p ly</w>
C hr
lon ger</w>
dra ft</w>
200 5</w>
ide a</w>
grund le
ru ch</w>
Partn er
For m</w>
a gi
Ergebn is</w>
st u
tra di
lit tle</w>
k ul
H aus</w>
Gemein schafts
car ri
a z
min des
gr ün
contin u
Ges ellschaft</w>
Präsiden tschaft</w>
erwä hn
bed au
Mitglie der</w>
lan g
sp iel
unter nehmen</w>
M är
ru pp
Auff assung</w>
ver än
äußer st</w>
promo te</w>
R o
K ommission
Isra el</w>
europä ischer</w>
chan ges</w>
rit er
su gges
Tages ordnung</w>
pa y
richt ung</w>
tic s</w>
wür di
c aus
einzel nen</w>
ass ess
omm un
m einem</w>
Bürger innen</w>
nu clear</w>
provi ded</w>
D as</w>
ges etz
sever al</w>
e ven
„ </w>
p ast</w>
gu i
a im</w>
th us</w>
or ing</w>
Tran spar
solidar ity</w>
we der</w>
wen den</w>
inte gration</w>
Erklär ung</w>
U N
agen da</w>
h ier
congratul ate</w>
s es</w>
fan g</w>
ter rit
cre di
Re form</w>
arbeit et</w>
c r
speci al</w>
eit e</w>
m es
yo ung</w>
excell ent</w>
Po si
Mehr heit</w>
so li
s ure</w>
m ean</w>
fi zi
pro vis
str ong</w>
an aly
be hin
Regier ungen</w>
mil it
ator s</w>
c tion</w>
L in
200 9</w>
f y</w>
li ma
i ge</w>
is ing</w>
im um</w>
Vorsch riften</w>
201 0</w>
ver stär
ges prochen</w>
1 .</w>
stan den</w>
up p
zu sätz
ti l</w>
“ </w>
get ary</w>
eg ation</w>
eff ect</w>
fin al</w>
R ed
S or
le ad</w>
obli g
a de
mark ets</w>
in dic
Umwel t</w>
wur f</w>
mög lich
prev ent</w>
bere ich</w>
inte gr
200 7</w>
Ri ghts</w>
Kom promis
schein t</w>
Steu er
ber eit</w>
ou th</w>
re alis
be teili
st ance</w>
ein ander</w>
ü bri
dan ke</w>
N e
über zeu
ar o
en nung</w>
lab our</w>
inclu de</w>
dis crimin
Proto kol
P ra
sch t</w>
suff ici
st ability</w>
Bürger n</w>
h t</w>
b order</w>
to o
wer t</w>
se en</w>
K lima
Z w
selb st
Gesund heit</w>
völ lig</w>
en or
transpar ency</w>
m ember</w>
ver ein
guaran tee</w>
ü l
em is
gewähr leisten</w>
M </w>
agre ed</w>
ver hin
in n</w>
gesam ten</w>
Ein führung</w>
o re
m ein</w>
p ack
Land wirtschaft</w>
Rechts vorschriften</w>
as pects</w>
ta x
pla y</w>
un ities</w>
t yp
h as
or row</w>
sicher heit</w>
am e</w>
ma kes</w>
mor gen</w>
Jah res</w>
m oment</w>
Sch ul
tom orrow</w>
consu mer</w>
Berichterstat terin</w>
t an
un ion</w>
Mar kt</w>
b lo
Mög lichkeiten</w>
M an
w a</w>
F ran
ac ro
gi c</w>
rel ation</w>
pre sen
Fischer ei
hist or
ta ge</w>
h om
fore ign</w>
dra w</w>
re main
benef it</w>
ver m
ob en</w>
s ci
every one</w>
le di
a vo
S ep
acc ession</w>
Dialo g</w>
nu tzen</w>
Verfü gung</w>
h en
si eht</w>
o ds</w>
st in
F amili
sp ä
s ha
vot ing</w>
re stric
terror ism</w>
W TO</w>
ci r
f eh
Gesund heits
w and
re main</w>
Transpar enz</w>
in- Office</w>
Presiden t-
ch es</w>
pop ulation</w>
stru k
Kon fli
S an
war um</w>
le ar
e ful</w>
ver kehr</w>
a -
pro ject</w>
auf en</w>
Rah men
re sol
p i
Sta ats
wen ig</w>
d ri
en ten</w>
S eite</w>
f rie
ren e
Beschäf tig
demokrati schen</w>
un til</w>
W oh
Disk ussion</w>
Direc tive</w>
s el</w>
D ritt
men sion</w>
re lev
in gt</w>
civi l</w>
app ly</w>
best ehen</w>
for men</w>
or gan
bo dy</w>
co hes
gn isse</w>
tre ffen</w>
contribu tion</w>
up on</w>
B an
ili ties</w>
is ten
po l
S ec
E le
erh eb
h im</w>
gen t</w>
mo d
best eh
busin ess</w>
auf zu
Entschei dungen</w>
respon se</w>
Lissab on</w>
ch en
bish er</w>
le gi
Em pfeh
colleag ues</w>
verbesser n</w>
U kra
Er zeu
Do ku
T o
techn ical</w>
l ö
m ed</w>
l en
Kin der</w>
I tal
gle ichen</w>
f rü
w ing</w>
commun ication</w>
Te chn
prac tice</w>
President- in-Office</w>
po ver
G u
con nec
guaran te
wün schen</w>
m ing</w>
des p
ab schließend</w>
b are</w>
b an</w>
invest ment</w>
kommen s</w>
disc ussion</w>
F R</w>
struc ture</w>
spe ak</w>
üh ungen</w>
pres sion</w>
addi tion</w>
tu rel
our selves</w>
jus ti
En g
exis ting</w>
ktion s
d rit
t ei</w>
n immt</w>
se tzt</w>
itä ts
su ch
tr au
val ues</w>
bal ance</w>
l ands</w>
pa y</w>
S u
hel d</w>
unser em</w>
ro ad</w>
riteri a</w>
riter ien</w>
deter min
200 8</w>
viol ence</w>
Sep t
h atten</w>
n ess</w>
ing ly</w>
r ate</w>
kl ar
provis ions</w>
wä h
c riteria</w>
5 -0
g ungs
schaf t
sh are</w>
S ub
et wa</w>
he ar
le it
sch ul
men ted</w>
servi ce</w>
V </w>
A C
se ems</w>
stand ing</w>
bit te</w>
leg ung</w>
institu tion
elec tions</w>
In di
u r</w>
K ap
Sept ember</w>
fall en</w>
ans wer</w>
je den</w>
ständi gen</w>
proced ures</w>
cohes ion</w>
beit ra
Kamp f</w>
O pf
priv ate</w>
re fle
re pe
get an</w>
ti er
ei g
bek ämpf
ur ing</w>
cul tural</w>
desp ite</w>
exc lu
Amend ment</w>
am b
Angele genheit</w>
ass istance</w>
ex pen
ple ased</w>
it t</w>
B </w>
re ichen</w>
l an</w>
con fi
d -
gr upp
R is
Bestimm ungen</w>
äu ß
al tern
‘ </w>
be für
se x
wi ll
so on</w>
fish ing</w>
sh e</w>
M or
increas ing</w>
R ats
con tain
Gewal t</w>
pre siden
da tion</w>
sen se</w>
Menschenrech ts
Arbeitneh mer</w>
wob ei</w>
inn e</w>
c ally</w>
Tex t</w>
et ary</w>
hel fen</w>
ab solu
pover ty</w>
P ak
Geschäf ts
ologi cal</w>
vi ously</w>
z er
C o
unser es</w>
far mers</w>
accord ing</w>
tra ff
Ergebn isse</w>
cre ation</w>
f ten</w>
I n</w>
milit ary</w>
sta ge</w>
N ationen</w>
vorgesch la
sion s
sor gen</w>
hap pen
gen d
gi en</w>
ad van
G rupp
k ür
hä l
stat ement</w>
4 0</w>
1 1</w>
succ ess</w>
No v
b zw
S pra
Russ land</w>
bzw .</w>
re gre
Entschließ ungsan
B ud
c are</w>
U N</w>
s einem</w>
g ar
ex press</w>
ne ver</w>
prü fen</w>
th en
beitra gen</w>
cru cial</w>
den noch</w>
D er</w>
tra ining</w>
Bem ühungen</w>
I m
t abled</w>
W es
tor en</w>
sh or
f ern</w>
sit z</w>
P unkte</w>
D el
K </w>
every thing</w>
basi c</w>
sä tze</w>
ep t</w>
erh ö
fa ci
pub li
sa ying</w>
om s</w>
our able</w>
lin es</w>
Gef ahr</w>
regul ations</w>
Solidar ität</w>
c ro
as ked</w>
a ir</w>
gra ph
sa gte</w>
carri ed</w>
Be g
wi l
zeich net</w>
F est
el en</w>
ste ad</w>
Sch i
P ap
Erfol g</w>
emp has
Finan zierung</w>
trotz </w>
Binnen markt</w>
il legal</w>
r ichten</w>
de pen
bil dung</w>
V iel
g lichen</w>
Them en</w>
fac e</w>
blei bt</w>
c a</w>
isch es</w>
tro ff
cor rec
increas ed</w>
al ist</w>
un abhängi
fas sen</w>
organis ations</w>
equ al</w>
groß er</w>
g or
co ver
vor lie
Ar mu
succ ess
selbst verständlich</w>
berücksichti gt</w>
s an
Gel d</w>
Aussch uß</w>
fre i
nation aler</w>
ch tung</w>
Angele genheiten</w>
S lo
lan ge</w>
at en
adop t</w>
schaf tlichen</w>
g -
Auf merk
consequ ences</w>
W il
da durch</w>
Aufmerk samkeit</w>
b ility</w>
z ed</w>
trä gen</w>
pers ön
sol chen</w>
it em</w>
di </w>
zei gen</w>
pra kti
Zeit punkt</w>
Din ge</w>
ledi glich</w>
ser ve</w>
sch ü
applic ation</w>
inter nationale</w>
Gro ß
V öl
eigent lich</w>
ish ed</w>
rel ating</w>
Industri e</w>
tr auen</w>
throu gh
Ein wander
reli gi
Ukra ine</w>
minis ter</w>
lan gu
ein heit
St u
Wel t
sel s</w>
Nov ember</w>
ach t</w>
Mar k
t es
nam ely</w>
O p
reques t</w>
in ed</w>
prot ect</w>
s atis
b ür
Präsiden ten</w>
Ko ordin
ver gangenen</w>
G </w>
through out</w>
ord n
An satz</w>
Fre iheit</w>
institu tional</w>
eff ek
ermög lichen</w>
eh e</w>
re duce</w>
ver pflich
M is
Inte gration</w>
vorgesch lagen</w>
genann ten</w>
ni em
Fol gen</w>
ei ther</w>
stim me</w>
o ft</w>
M E
bestimm te</w>
Inform ations
T ä
att emp
ru le</w>
read ing</w>
Ir an</w>
gen der</w>
Stell ung
K rie
sho w</w>
rif f</w>
w issen
prop er
instru ments</w>
dre ss</w>
c ol
geh end</w>
Inter net</w>
er ster</w>
sch reit
ac tive</w>
program m</w>
consu l
requi red</w>
require ments</w>
present ed</w>
in stead</w>
P rinzi
f ast</w>
wi er
ad ing</w>
w ater</w>
opport unities</w>
clo se</w>
di sp
Am ster
z eit
le ch
ag ed</w>
n or</w>
st eu
develop </w>
D ru
rit ts
im medi
sidi ar
y ed</w>
Hand el</w>
clos ed</w>
W i
val ue</w>
fol gt</w>
vor gelegt</w>
Par ty</w>
1 2
H ar
partn er
ap pl
our cen</w>
bud getary</w>
Änder ung</w>
L eit
E i
sch utz
tei en</w>
Ver b
am eri
aro und</w>
me et</w>
C </w>
ade qu
fol ge</w>
S tim
me isten</w>
sch utz</w>
ta kes</w>
st ei
to ber</w>
Grün den</w>
wieder hol
Investi tionen</w>
men ten</w>
Min der
m as
spe ak
verschie den
an erk
s on</w>
streng ungen</w>
pri orities</w>
ver ab
H e
wichti ger</w>
schie den</w>
Arbeitsplä tze</w>
cir c
jus tice</w>
Sch en
Proz ess</w>
nat ure</w>
Be teili
Sch wier
v </w>
than ks</w>
hil fen</w>
Bil dung</w>
ex pec
erfol gre
n ü
Flu g
ell er</w>
c lar
E N</w>
tu al</w>
fur ther
Con stitu
W er
Volk s
tiv ity</w>
st or
di e
wen det</w>
hä lt</w>
ier ten</w>
Er fahr
Wah l
instru ment</w>
fo und</w>
pur su
wled ge</w>
K re
kon z
men tion</w>
j ob</w>
Person en</w>
zweit e</w>
ad s</w>
y l
hin weisen</w>
ab sol
hät ten</w>
initi atives</w>
poten tial</w>
ut ely</w>
u tion</w>
Wettbewer b</w>
enth alten</w>
Aspe kte</w>
Gr enz
val u
K l
weit eren</w>
Sach e</w>
con v
bur g</w>
begrüß en</w>
ger ungen</w>
ung sh
bew us
M än
T at</w>
t on</w>
wi der
il leg
beg inn
I de
d ress
direc t</w>
Portu g
b ank</w>
fun ktion
ke ep</w>
publi k</w>
establ ish</w>
vi er</w>
Sit zung</w>
r .</w>
prep ared</w>
Agen da</w>
An strengungen</w>
dem and</w>
f ron
sp or
is ts</w>
we ek</w>
Regel n</w>
N A
pre par
st off
F ahr
h eben</w>
comm unity</w>
lo si
ent ri
us sions</w>
it arian</w>
um s</w>
h ung</w>
ag rap
ment ar
em er
B ul
po wers</w>
An nahme</w>
press ure</w>
Ö ffent
Verpflich tungen</w>
S ü
Terror ismus</w>
Haushal t</w>
further more</w>
pre vious</w>
sex u
versu chen</w>
besch äf
spiel en</w>
amoun t</w>
su chen</w>
ti ven</w>
Gr enzen</w>
la st
li mit
K an
conflic t</w>
exter nal</w>
Vor aus
Verf assung</w>
as soci
streng then
sek tor</w>
de a
U hr</w>
monit oring</w>
ä stin
ern s
H ins
A f
be hör
re f
zeich ne
n ommen</w>
erinn ern</w>
lu ß</w>
F eh
ak tu
deci ded</w>
St at
Pal est
N eu
mo vement</w>
experi ence</w>
die jenigen</w>
establish ed</w>
fi ve</w>
vel s</w>
arbeit ung</w>
d om
rec ently</w>
Bar ro
si ert</w>
reach ed</w>
Zah l</w>
betre ff
tal king</w>
el ten</w>
geb ie
da ys</w>
Z entr
los sen
decis i
relev ant</w>
li ve</w>
St är
ö ff
ge wiesen</w>
zu setzen</w>
ten ce</w>
as ser
fish eries</w>
r aten</w>
f our</w>
f am
geb o
1 0
20 20</w>
ad dress</w>
angem essen
zieh ung</w>
D aten</w>
es sen</w>
is es</w>
F le
k enn
Hins icht</w>
mö chten</w>
acro ss</w>
rou ght</w>
l uss
ch s</w>
f est</w>
gh tly</w>
imple mented</w>
F und</w>
Protokol l</w>
Be wer
tion s
Bem erk
con t
express ed</w>
zu dem</w>
ater al</w>
ra ised</w>
Zi vil
auf genommen</w>
Instru ment</w>
setz ungen</w>
t ask</w>
Lan des</w>
ti ger</w>
wol l
her r
le vels</w>
Änder ungen</w>
Ver kehrs
losi gkeit</w>
Mit teilung</w>
De ut
N at
al es</w>
stru ktur
n t</w>
fun den</w>
Vertra gs</w>
kur z</w>
ne ver
Qu alität</w>
sci enti
wa ste</w>
B ank</w>
vic tim
e ks</w>
zusam men</w>
en able</w>
Mitgliedsta at</w>
th eless</w>
cri tic
discrimin ation</w>
bed ingungen</w>
zeh n</w>
di o
Frie den
h u
conclu sion</w>
drück lich</w>
Wo che</w>
a men
z lich</w>
foc us</w>
m a</w>
Schwier igkeiten</w>
entwick eln</w>
qu ick
T i
H oh
S we
Dienstleist ungen</w>
troff enen</w>
cri me</w>
poin ted</w>
re view</w>
b ein
bie ten</w>
bel ie
bal an
Af gh
challen ges</w>
bi o
Ratsprä siden
icht sh
ges sen</w>
schn ell</w>
who se</w>
U S</w>
p er</w>
b riti
v al</w>
N r.</w>
j ün
Gesetz geb
eindeu tig</w>
ad dress
an ia</w>
th y</w>
e vi
k eit
k ein
alle in</w>
victim s</w>
agricul ture</w>
konz entri
direc tion</w>
ter ran
tel l</w>
bek annt</w>
inclu ded</w>
Abgeordne te</w>
never theless</w>
eff ort</w>
li gen</w>
be m
aus reich
berücksichti gen</w>
ec e</w>
Rats vor
refle c
I rel
Portug al</w>
Irel and</w>
be handelt</w>
ell ing</w>
än de</w>
f -
c are
immi gration</w>
sp ruch</w>
port ing</w>
e ed
partn ers</w>
drin gend</w>
k riti
Haup t
ar gu
L es
Öffent lichkeit</w>
tu res</w>
einf ach
Un i
1 4
an z</w>
absol utely</w>
R ess
Fr ance</w>
o s</w>
co st</w>
ver standen</w>
quick ly</w>
gab </w>
v ital</w>
end lich</w>
K riterien</w>
Mitgli ed</w>
ge o
dar stellt</w>
Demo cr
effec ts</w>
dou bt</w>
as p
zah l</w>
G lob
Pl en
gri ffen</w>
4 -0
fü h
Unter such
In nov
er greifen</w>
Wettbewerbs fähigkeit</w>
Fl ü
bor ders</w>
Amster dam</w>
po st
ur s</w>
Armu t</w>
B u
Ges am
f il
M al</w>
ten den</w>
imple ment</w>
sec tors</w>
f ig
Kon ferenz</w>
a vi
ver gessen</w>
S um
K rank
d au
er e
no te</w>
bal d</w>
re st</w>
fern er</w>
ehr te</w>
gh bour
re ality</w>
kra ft
verhin dern</w>
an nu
par agrap
con fir
ol er
Bel ar
t ely</w>
W ar
sup ported</w>
s po
re forms</w>
pl om
Posi tion</w>
too k</w>
tre at
mat eri
b illion</w>
struc tural</w>
tal k</w>
suffici ent</w>
stan ces</w>
ec k</w>
reduc tion</w>
. .
Opf er</w>
on d</w>
erk ennung</w>
P L</w>
off en
der zei
Wachst um</w>
al ong</w>
al most</w>
K ern
da ma
un employment</w>
fel low</w>
z es</w>
lan gen</w>
con trol
zu mindes
gi ving</w>
sh ort</w>
g ül
öffent liche</w>
ck en</w>
som it</w>
Ta g</w>
ger ichtet</w>
lon g-
mis sion</w>
gehör en</w>
A sy
erneu t</w>
gew o
zumindes t</w>
De velop
1 3</w>
sib ilities</w>
ob ach
wir ken</w>
stre ss</w>
gesam t</w>
Mar kt
comple tely</w>
bet onen</w>
resp ec
s la
2 7</w>
out side</w>
ben ö
W eit
li ance</w>
Organis ation</w>
S inne</w>
der ar
be kommen</w>
techn ology</w>
st ep
ta g</w>
terran ean</w>
pack age</w>
Ver teidi
ein gesch
Nach bar
An erkennung</w>
re over</w>
w ise</w>
ter t</w>
Con ference</w>
b rought</w>
busin esses</w>
Fre ih
ins gesamt</w>
in fra
hö ch
Develop ment</w>
su per
lo se</w>
Medi terranean</w>
Afri ca</w>
del ines</w>
H ö
er ing</w>
Ira q
P P
l ist</w>
I I</w>
spezi f
kul turel
E ast</w>
gesch affen</w>
ier ungs
sch wer
em e</w>
exp lo
bess ere</w>
re ach</w>
gen au
c el
B riti
ac ity</w>
lo t</w>
Handel s
fä hi
wä l
d .</w>
can di
L a
parlia mentary</w>
mit ted</w>
pos sibility</w>
1 8</w>
develop ed</w>
we is</w>
F ren
mo tion</w>
Stellung nahme</w>
n ö
ä lt</w>
haup t</w>
ung sp
presiden cy</w>
mo reover</w>
Rech t
x i
fün f</w>
Vertre ter</w>
ass ungs
best ä
stat us</w>
wichti gsten</w>
zu führen</w>
sta aten</w>
a king</w>
represent atives</w>
Wah len</w>
Minis ter
S icht</w>
ver treten</w>
Z wei
g el</w>
S el
kl einen</w>
coordin ation</w>
appro ved</w>
H o
f ic</w>
Beschäftig ungs
Gemein samen</w>
A pri
ex tent</w>
1 4</w>
cre ating</w>
pri ce</w>
ge funden</w>
ob il
K ön
recei ved</w>
addi tional</w>
ens uring</w>
ein schließlich</w>
cro ss
Ener gie</w>
app lied</w>
vers ity</w>
Frie den</w>
E- Fraktion</w>
Mon aten</w>
treat ment</w>
M al
gre ement</w>
H um
ra h
st ens</w>
pre hen
fi g</w>
nat ural</w>
prop er</w>
a y</w>
he ard</w>
di se
sel y</w>
V is
me dic
Briti sh</w>
stär k
encoura ge</w>
Par teien</w>
H altung</w>
behin d</w>
f ran
P -
competi tiveness</w>
a way</w>
is ely</w>
Vereinbar ung</w>
gu ten</w>
ck s</w>
Fran kre
erwähn t</w>
circ um
Apri l</w>
k rä
lä ssi
Mittel me
N ations</w>
p un
re qu
hör en</w>
finan cing</w>
hä u
Ver trauen</w>
Gipf el</w>
An g
di enen</w>
199 8</w>
ge fordert</w>
assess ment</w>
ent er</w>
befür wor
L eg
pri ces</w>
neh m
über haupt</w>
spec ific
Sek tor</w>
Fren ch</w>
b auen</w>
S y
an ischen</w>
discuss ed</w>
Les ung</w>
zwei fel
tic ally</w>
ander er</w>
Beit ritts
For derung</w>
inf lu
disc ussions</w>
Dec ember</w>
dan ger
e qui
lie be</w>
Lu ft
F ühr
gn is</w>
s us
Re public</w>
De z
de p
li ving</w>
I T</w>
rech t
V i
Re publik</w>
mod el</w>
Beit ritt</w>
bed ingt</w>
docu ment</w>
even ts</w>
Regier ungs
p at
ges und
Über wach
fre ue</w>
lö sen</w>
sp ir
bestimm ten</w>
Ver bin
ander erseits</w>
z äh
our s</w>
prac tical</w>
sicher zustellen</w>
rene w
gegenwär tig</w>
su l
consider ed</w>
tr on
th ern</w>
Heraus forderungen</w>
Dru ck</w>
li erung</w>
cap acity</w>
gui delines</w>
lang fris
EC </w>
je des</w>
z t</w>
con duc
St elle</w>
hin zu
off er</w>
ei den</w>
Ein zel
emis sions</w>
Land wir
c ent
finanzi ellen</w>
K ommun
.. .</w>
streng then</w>
ri gen</w>
sich ern</w>
li ert</w>
administr ative</w>
z one</w>
kan ischen</w>
f amili
st ä
tr äch
ho ffen</w>
annu al</w>
adop tion</w>
timm ung</w>
Regel ung</w>
men sch
re jec
Ein igung</w>
beg in</w>
enth ält</w>
um -
x is</w>
Re formen</w>
g ste</w>
sin n
c amp
h op
un ver
Initi ativen</w>
um gesetzt</w>
Afgh an
ob viously</w>
Dez ember</w>
An frage</w>
confi dence</w>
tran si
g liche</w>
erzi elt</w>
- 00
sicher lich</w>
zü gi
remain s</w>
le ft</w>
kno wn</w>
effici ency</w>
as yl
legi tim
unterstü tze</w>
Kommission s
erst ens</w>
aff ected</w>
Verein ten</w>
re fu
c la
bit ten</w>
connec tion</w>
st au
H ung
human itarian</w>
lo k
gro und</w>
equ ality</w>
Prior itäten</w>
regi me</w>
disc uss</w>
ad d</w>
konkre te</w>
sc ope</w>
8 0</w>
in tel
Barro so</w>
un acceptable</w>
g ungen</w>
prec isely</w>
go ods</w>
al loc
k rise</w>
k ün
da tions</w>
or d</w>
Geschäfts ordnung</w>
einzi ge</w>
f lo
direc tly</w>
gel ten</w>
st abil
Belar us</w>
fre ien</w>
te te</w>
akzep tieren</w>
deta il
pris es</w>
kur z
bewus st</w>
sor gung</w>
ex er
D ro
kon ferenz</w>
exp ect</w>
fest gelegt</w>
ger ech
it ing</w>
schü tzen</w>
N etz
buil ding</w>
for ces</w>
fre iheit</w>
ne t
P f
Europ e
f es
ge troffen</w>
plan s</w>
g aran
ge kommen</w>
en te</w>
stat ed</w>
neg ative</w>
gesam te</w>
tr itt</w>
re in
com prehen
in gen</w>
lau b
aussch uss</w>
versu cht</w>
Inter national</w>
tiv itäten</w>
refer ence</w>
Democr ats</w>
m and
S eiten</w>
hon ourable</w>
c tions</w>
con dem
g as</w>
ex pla
Ihr er</w>
Or gan
Stabil ität</w>
konn te</w>
je de</w>
ver an
me t</w>
st op</w>
sit ting</w>
C entral</w>
ir gend
ti sche</w>
C han
p il
aussch usses</w>
in ation</w>
avo id</w>
überzeu gt</w>
spe e
Flü cht
di ent</w>
6 0</w>
d on
or en</w>
Kra ft</w>
adequ ate</w>
eth n
j ud
Fäl len</w>
k raten</w>
ermög licht</w>
Regi on
effec tively</w>
se par
än dern</w>
aim ed</w>
tr ying</w>
nei ghbour
re ad</w>
le istet</w>
z ös
o -
fam ily</w>
gew esen</w>
Palest in
r ates</w>
o s
p li
y es</w>
difficul ties</w>
F ak
je dem</w>
person al</w>
star k</w>
le b
Wir k
künf tigen</w>
Entschließungsan trag</w>
Koh ä
human itär
comm er
1 .
W ahr
an ge</w>
zw eiten</w>
ein gehen</w>
Zus timmung</w>
fäl le</w>
Disk rimin
gh ted</w>
Ver wendung</w>
anges prochen</w>
E ff
Berich te</w>
v ements</w>
presen ts</w>
Wor ld</w>
es ter
P T</w>
sum mit</w>
st en
ü ro
vi a</w>
gele istet</w>
Wi der
asyl um</w>
vol le</w>
A chtung</w>
le gt</w>
Bal k
A greement</w>
car ry</w>
1 00</w>
Ge or
Zu ständi
x em
Finan zi
con om
beg lück
Kul tur</w>
E conom
ch tet</w>
contribu te</w>
impro ving</w>
ber ech
O st
Jun e</w>
occ a
Be tri
on es</w>
ro ati
sch es</w>
fa ir
enter prises</w>
stär ker</w>
vie ws</w>
sa fe
B i
di schen</w>
li </w>
j un
open ha
safe gu
besch lossen</w>
Ress ourcen</w>
erwar ten</w>
alis ed</w>
Frankre ich</w>
steh enden</w>
ver bin
zu frie
ür f
innov ation</w>
inter pre
sh own</w>
Kön ig
off ens
Sch utz
un bedingt</w>
partner ship</w>
def ence</w>
An trag</w>
accord ance</w>
richti ge</w>
ger t</w>
vor gesehen</w>
con trac
Milli ar
ver stehen</w>
über schreit
ati c</w>
c l
cul ture</w>
be ziehen</w>
gele gten</w>
at or</w>
rup tion</w>
O -
rel ated</w>
w ell
ac y</w>
circum stances</w>
Beh and
t our
ver tre
la gs</w>
grat u
success ful</w>
over all</w>
go es</w>
ac ts</w>
ab kommen</w>
1 6</w>
n isse</w>
bour g</w>
ativ </w>
provi ding</w>
hu ge</w>
mechan is
zahl reich
strate g
ester day</w>
gre if
Binnen mark
199 7</w>
ass er</w>
t on
gel an
ge tragen</w>
di stri
th af
is tung</w>
Lebens mittel
brin gt</w>
e ed</w>
Stär kung</w>
B ot
orig in
hin gewiesen</w>
distri bu
Gener al</w>
consider ation</w>
min imum</w>
kl are</w>
str en
y esterday</w>
h .</w>
zi eht</w>
Ger many</w>
K atastrop
Haushal tsp
ier te</w>
cre ated</w>
gre at
t ali
Afghan istan</w>
loo king</w>
call s</w>
lä s
ch ed</w>
mes sage</w>
tot al</w>
specific ally</w>
r at</w>
besch rän
besteh enden</w>
est ing</w>
Durch führung</w>
Bere iche</w>
inves tig
Kon zep
S en
Instru mente</w>
effici ent</w>
zuneh men
I t</w>
tor y</w>
w ron
ges ellschaft</w>
per spec
disku tieren</w>
N i
Jus tice</w>
inten si
r ural</w>
Poli cy</w>
m y
ge eig
Klima wand
commit ted</w>
olo gie</w>
implement ing</w>
Währ ungs
A L
Al l
ge ments</w>
allow ed</w>
a da
particip ation</w>
com ments</w>
indepen dent</w>
conclu sions</w>
challen ge</w>
ju di
eh er</w>
Ges prä
t oler
beginn ing</w>
So ci
gran ts</w>
un er
consider able</w>
Bei hilfen</w>
k or
Ver än
re ign
heu tigen</w>
r icht</w>
Ratsprä sident</w>
benef its</w>
spee ch</w>
Ger ichtsh
paragrap h</w>
f el</w>
Organis ationen</w>
Br us
fal t</w>
p r
st elle</w>
Kenn tnis</w>
ge worden</w>
b ra
qu al
proz ess</w>
s äm
qu ali
Ber u
ut ting</w>
re agi
provi des</w>
b ah
sa chen</w>
zu stimmen</w>
er zeu
si zed</w>
ri ghtly</w>
des ign
Lin ie</w>
di plom
A P</w>
allgem einen</w>
ausge zeichne
comple te</w>
Reg ulation</w>
größ ere</w>
spe aking</w>
d d
hol d</w>
Sel b
för dert</w>
sen si
promo ting</w>
Nu tzung</w>
durch geführt</w>
sup ply</w>
neu er</w>
K or
or den
wi de</w>
pa id</w>
on nen</w>
propos e</w>
E mis
Lös ungen</w>
Deut sch
P rü
lä gen</w>
si x</w>
erfül len</w>
comb at</w>
as sen</w>
li ves</w>
be y
A ktion
crimin al</w>
en ding</w>
accep ted</w>
disa p
wer te</w>
pro vision</w>
i um</w>
conv inc
mar k</w>
G rie
refu ge
re turn</w>
alis m</w>
ar ing</w>
organis ation</w>
om men
B .</w>
G ed
wan ted</w>
and el
bie tet</w>
aus gewo
we ist</w>
vern ünf
strate gic</w>
ha f
Econom ic</w>
zeich nung</w>
exc ep
Br üs
o il</w>
entschei den</w>
bey ond</w>
y nam
E reign
deal ing</w>
oper ate</w>
medi um-
we is
W e</w>
dea th</w>
be vor</w>
Fra ktionen</w>
Währ ung</w>
Brus sels</w>
con tent</w>
be finden</w>
Kompromis s</w>
N G
govern mental</w>
aus es</w>
scienti fic</w>
ün sti
F onds</w>
transpar ent</w>
mis s
Re de</w>
I tali
konn ten</w>
s ession</w>
refer red</w>
da gegen</w>
erklär t</w>
par ty</w>
sel f-
ti sch</w>
läs st</w>
Sor ge</w>
step s</w>
vo c
tra v
fran zös
le tzt</w>
Re chn
cap ital</w>
eb ru
introduc tion</w>
finanzi elle</w>
seri ously</w>
W erte</w>
EC U</w>
sch ar
9 8</w>
Grund satz</w>
cross -
c ame</w>
prof es
fas st</w>
an a</w>
pur pose</w>
fest stellen</w>
201 3</w>
l ei</w>
la m
mil itär
H af
ten en</w>
recei ve</w>
colleag ue</w>
ur gent</w>
h under
for ced</w>
th ous
F ebru
h ard</w>
b ung</w>
br ing
exer c
h eb
Ver gan
NA TO</w>
demokrati sche</w>
Vor sitz
K ar
Par tei</w>
Aspe kt</w>
A t
1 7</w>
Forsch ungs
staat lichen</w>
ex per
on s
ro o
Pra xis</w>
um än
clo sely</w>
M U</w>
S ol
simp li
ver si
Gesch ichte</w>
ex ac
respon d</w>
te ten</w>
competi tive</w>
gen cy</w>
altern ative</w>
letz te</w>
w n
des wegen</w>
erzi elen</w>
Re ak
Rom a</w>
reg is
hist ory</w>
v eh
f ach
gel t</w>
Sta at</w>
politi scher</w>
t op
long- term</w>
R O</w>
stär ken</w>
gel ö
vorlie genden</w>
entsprech enden</w>
tain ed</w>
o ffen</w>
w it
b ack
t licher</w>
notwendi gen</w>
deci de</w>
Produ kte</w>
sy m
Vergan genheit</w>
eingesch rän
A s
re mind</w>
pas sen
tra g
geh ö
el i
rel ation
W issen
la un
re ich</w>
Zwei fel</w>
A ut
kno wledge</w>
1 3
con ci
den ts</w>
alis ts</w>
glau ben</w>
ast ern</w>
An fang</w>
ber icht</w>
Erklär ungen</w>
st ud
limit ed</w>
Ein satz</w>
ständi ge</w>
expen di
H ei
f rau
te x
verpflich tet</w>
b rie
set ting</w>
spr ün
pro duce</w>
el ek
industri al</w>
balan ced</w>
D en
ih res</w>
Proje kte</w>
l in</w>
wesent lich</w>
T ier
Ab satz</w>
ti e
ear li
Jun i</w>
medi a</w>
ac tivity</w>
vorgeschla genen</w>
R au
Gebie ten</w>
meas ure</w>
ver gen
inten ded</w>
erk ennen</w>
an no
happ en</w>
aff t</w>
commit ments</w>
a in</w>
requi res</w>
ge zeigt</w>
ge wäh
th e
Constitu tion</w>
di versity</w>
Iraq </w>
dn is</w>
ma x
Lu xem
Ger man</w>
k ts</w>
ck t</w>
lea ve</w>
kommen den</w>
Ei gen
äh n
mäß ig</w>
H off
Tei l
verab schie
Grie chen
fl icht</w>
künf tig</w>
Proje kt</w>
H il
Europe ans</w>
expendi ture</w>
N ahr
faci lit
A si
ex ist</w>
system e</w>
any thing</w>
ur sprün
weit en</w>
erns thaf
Ein haltung</w>
m ern</w>
Ent wurf</w>
h nung</w>
brau cht</w>
e asi
So cial</w>
keit s
Arbeits losigkeit</w>
pro b
dem ands</w>
sup porting</w>
Au stri
Pri v
Gre ece</w>
bo t</w>
al ise</w>
Ak tivitäten</w>
dec lar
ein gere
Koordin ierung</w>
tur en</w>
conc entr
sch o
dra wn</w>
N ieder
Regel ungen</w>
Chr isti
bo dies</w>
me an
Auf gaben</w>
end or
po or</w>
camp a
gre e</w>
en ds</w>
gesch ehen</w>
hel p
gan ze</w>
establish ing</w>
verfol gen</w>
main tain</w>
f s
Behand lung</w>
some times</w>
Ir ish</w>
ada p
Deutsch land</w>
produc t</w>
my self</w>
R aum</w>
qu o
Janu ary</w>
W ei
ges t</w>
openha gen</w>
Prior ität</w>
drit tens</w>
inc or
entsprech end</w>
dd le</w>
offens ichtlich</w>
ein gesetzt</w>
her aus
st erre
T ag
amb iti
we g</w>
sam m
Vor bereit
ästin ens
Kap it
Sch luss
An p
bet on
Liber alisierung</w>
richt ungen</w>
u </w>
Aktion sp
Stim me</w>
9 7</w>
e as
sa gt</w>
construc tion</w>
Pro c
b ly</w>
re a</w>
al one</w>
gegen sei
sch le
c entral</w>
ev ent</w>
- B
si mi
enti re</w>
je wei
bi g</w>
ter ung</w>
par ts</w>
Me tho
richt linie</w>
S E</w>
199 6</w>
dar stellen</w>
über nehmen</w>
proper ly</w>
re -
gew is
v ely</w>
posi tiv</w>
ve au</w>
anim al</w>
i ben</w>
b s</w>
pro sp
trä gt</w>
w ah
be halten</w>
Verwal tung</w>
ol l
simi lar</w>
au c
wer t
asp ect</w>
S M
pri mar
pre ci
gere cht</w>
gegenwär tigen</w>
our ce</w>
b au
Ver häl
tu de</w>
o c
tion ing</w>
sub si
ex change</w>
bei de</w>
Beg inn</w>
di gung</w>
Ir land</w>
ach tet</w>
D ar
k rimin
ges tern</w>
Verpflich tung</w>
Inform ation</w>
so fern</w>
ger ne</w>
r a</w>
E S</w>
fol low</w>
gen s</w>
c ement</w>
hin ter</w>
prü ft</w>
wron g</w>
be darf</w>
it ation</w>
Ber eit
typ e</w>
an tly</w>
pa in</w>
ste ts</w>
a den</w>
re mo
1 5
ar ran
verfü gen</w>
E l
sp i
v an</w>
er lei</w>
medium- sized</w>
c en
f ru
ari a</w>
develop ments</w>
alis mus</w>
H inter
Sum mit</w>
Grund rechte</w>
d aten</w>
z ö
Pro di</w>
Ein richtung</w>
su s</w>
nat ur
Min utes</w>
ent schieden</w>
go sla
auf merk
G an
emp ha
Diskrimin ierung</w>
at ti
call ing</w>
poli ce</w>
re present</w>
durch aus</w>
j ähr
genu ine</w>
i eht</w>
Verwal tungs
sho ws</w>
ambiti ous</w>
anti -
reas on
wär en</w>
at z</w>
sich ten</w>
konzentri eren</w>
zahlreich e</w>
gelö st</w>
kti ven</w>
jo in</w>
ein erseits</w>
discuss ing</w>
Sch ritte</w>
entwick elt</w>
f und</w>
genu g</w>
sch wer</w>
strengthen ing</w>
Kolle ge</w>
re fer</w>
du ty</w>
ver l
impro ved</w>
con tr
n ie</w>
produc ed</w>
conclu de</w>
t ten</w>
grenz überschreit
bes ten</w>
con tra
fi zierung</w>
F ore
isti schen</w>
hom e</w>
auth ority</w>
caus ed</w>
zi el
we eks</w>
ic ally</w>
do m</w>
7 0</w>
produc ers</w>
high er</w>
Wor te</w>
olog ischen</w>
m el
w on
ist ent</w>
prü fung</w>
gi ves</w>
P s</w>
Partner schaft</w>
achie ving</w>
reduc ing</w>
zi ert</w>
Brüs sel</w>
Mittel n</w>
Ris ik
ell schaften</w>
t ab
ander s</w>
möglich erweise</w>
ab ge
increas ingly</w>
er ed</w>
who m</w>
a i
Beteili gung</w>
stud y</w>
Gesetzgeb ung</w>
Vol k</w>
un anim
Janu ar</w>
f ts
di st
op position</w>
colle c
Wo chen</w>
de ten</w>
re presents</w>
In fra
vor han
techn ologi
ris ks</w>
fol gerungen</w>
Del egation</w>
Ch ance</w>
prac tic
R ules</w>
l ater</w>
Er n
sc ale</w>
un sch</w>
Absch luss</w>
M obil
Zentr al
emphas ise</w>
ab gel
verantwor tlich</w>
end um</w>
op tim
verfol gt</w>
Nahr ungs
e arly</w>
Aus gaben</w>
contr ary</w>
aufmerk sam</w>
For derungen</w>
Milliar den</w>
Al ban
se chs</w>
c al
anim als</w>
des cri
F alle</w>
profes sion
high ly</w>
Eng agement</w>
cri tical</w>
Fortsch ritt</w>
an ts</w>
bar keit</w>
Har mon
stat ements</w>
fäl lt</w>
enor m
it able</w>
langu age</w>
docu ments</w>
ate gor
außer halb</w>
bo o
partn er</w>
happen ed</w>
Fre i
Überwach ung</w>
earli er</w>
Ma y</w>
lüs se</w>
schaf tliche</w>
s ent
En viron
ur ge</w>
wün sche</w>
po l</w>
Überein kommen</w>
be auf
so -
mon etary</w>
n ern</w>
wor d</w>
form er</w>
Th is</w>
häu fig</w>
k tive</w>
stimm t</w>
infra structure</w>
comp ens
w ish
verschieden e</w>
P u
curr ency</w>
pre vention</w>
nor m
re member</w>
e ad</w>
vorsch lag</w>
ho ch
our n
Ital y</w>
Unter neh
Asy l
verbesser t</w>
candi date</w>
te dly</w>
del egation</w>
Leit linien</w>
con sen
las s</w>
grund lage</w>
Span ish</w>
thre at</w>
end gül
Mar ch</w>
a str
19 8
shi ps</w>
nam e</w>
Mittelme er
sign ed</w>
comb ating</w>
Me chan
ack no
veh ic
ver k
stand s</w>
thin king</w>
m .</w>
aim s</w>
Selb st
us es</w>
H and</w>
si eren</w>
le ading</w>
li mit</w>
j e</w>
we t
Ver kehr</w>
fin de</w>
forder ung</w>
struc tures</w>
par la
Tur k
gan zen</w>
ze ß</w>
O b
Empfeh lungen</w>
ni ed
la ws</w>
C ar
requ ire</w>
no ch
h ase</w>
Fol ge</w>
. m.</w>
us eful</w>
del l</w>
intro duce</w>
le t
k il
convinc ed</w>
regre t</w>
multi l
h y
gleich e</w>
ne twor
ti s
man ner</w>
Sec urity</w>
Bei fall</w>
Ma i</w>
S ti
in ci
erfül lt</w>
beg innen</w>
li ation</w>
is en
mp tion</w>
re te</w>
te urs</w>
Europä er</w>
introduc ed</w>
J ap
comp any</w>
m ember
mehr ere</w>
he ar</w>
zah len</w>
künf tige</w>
Kon tin
Gre en</w>
des er
i ma
sa ys</w>
ger s</w>
Americ an</w>
ac qu
hervor ra
ran gi
ach ten</w>
cu t</w>
g ei
pol lu
b is
el ements</w>
Disk us
out come</w>
dama ge</w>
Program ms</w>
inte gri
recogn ition</w>
T sch
respon sibilities</w>
Sch wer
ent u
Bewer tung</w>
Maß e</w>
gel ungen</w>
än dert</w>
ther wise</w>
rä u
j äh
Mär z</w>
un mittel
M acht</w>
di schar
wan ts</w>
- Fraktion</w>
Di mension</w>
vi er
übri gen</w>
so- called</w>
pro fi
ten de</w>
welt weit</w>
liber alisation</w>
Kohä sions
analy sis</w>
Fischer ei</w>
an geht</w>
Agrar politik</w>
tr ust</w>
orig in</w>
be troffenen</w>
pos es</w>
coun ter
thir dly</w>
ad ded</w>
Au gen</w>
con ference</w>
rei ben</w>
A d
Or t</w>
rappor teurs</w>
Wieder auf
zeich nen</w>
k oh
wahr schein
ß er</w>
Hum an</w>
sch lagen</w>
wi d
territ ori
verm eiden</w>
Schen gen</w>
r ing</w>
Euro -
recogn ise</w>
spr icht</w>
enti rely</w>
Stra ß
conc ept</w>
S outh</w>
ap preci
Fore ign</w>
open ing</w>
er fre
reduc ed</w>
t ations</w>
S pain</w>
ol s</w>
Ratsvor sitz</w>
sen d</w>
ar ch
Glob alisierung</w>
enth al
ti ef
Pl an</w>
ver ehrte</w>
Landwir te</w>
fac ing</w>
Gr unde</w>
man u
entsprech ende</w>
influ ence</w>
ander em</w>
gan gs
Ira k</w>
spir it</w>
er lau
Ge w
comprehen sive</w>
mög lichen</w>
ho hen</w>
flexib ility</w>
verein bar
19 </w>
Spra che</w>
k ap
Z y
j ur
cross- border</w>
üro krati
bro ad</w>
Verbin dung</w>
ic ations</w>
d ro
ne ben</w>
Wor ten</w>
ac ci
un ds</w>
be coming</w>
establish ment</w>
Über zeu
gew al
am tier
be fassen</w>
prev ent
di mension</w>
com ment</w>
wesent lichen</w>
N L</w>
hand el</w>
Minis ters</w>
consen sus</w>
as king</w>
o therwise</w>
gen ommen
conc rete</w>
größ ten</w>
gewähr leistet</w>
Z un
Ver sch
är e</w>
p ati
lich erweise</w>
pla ced</w>
region alen</w>
ordn ungs
T our
fahr ens</w>
und ed</w>
Woh l
di sh</w>
Grund sätze</w>
i ken</w>
grow ing</w>
differ ences</w>
prob ably</w>
B ur
under standing</w>
Stra f
s ources</w>
To des
ati es</w>
Fle xi
satis fac
möglich st</w>
Flexi bil
natur ally</w>
beton t</w>
N icht
m ly</w>
jen e</w>
mit g
dire kt</w>
zu folge</w>
clos er</w>
danger ous</w>
noch mals</w>
mark s</w>
networ ks</w>
ein iger</w>
Richt linien</w>
st af
Ar gu
anno un
th ought</w>
zu g
B au
Wirtschafts -</w>
erforder lichen</w>
ein setzen</w>
ic king</w>
z .</w>
zweifel los</w>
schwieri g</w>
leit en</w>
recommen dations</w>
i k</w>
op h
pers on</w>
pe ten
Environ ment</w>
Um stän
nach dem</w>
san ctions</w>
inform ed</w>
Ged an
commer cial</w>
en heit</w>
relation ship</w>
Agen tur</w>
R umän
Struktur fonds</w>
practic es</w>
lä gt</w>
ra ise</w>
staf f</w>
K ris
Sp iel
W en
G aran
metho ds</w>
geh oben</w>
la g
M c
fest gestellt</w>
li k
incor por
ul tim
ei gene</w>
gen er</w>
happ y</w>
Tä tigkeit</w>
ic es</w>
cu st
Americ a</w>
Palestin ian</w>
buil d</w>
Bul g
struk tur</w>
Bel gi
Bed ürf
außer orden
ali en
entsp richt</w>
Zeit raum</w>
au ff
Best and
l ess
ver kehr
1 7
per man
Gebie te</w>
pe ac
San ktionen</w>
nachhal tige</w>
kon om
mo der
wirtschaf ts
disku tiert</w>
B us
derzei tigen</w>
Änderungsan trägen</w>
ac ks</w>
sit u
Grupp e</w>
Frieden s
unter nommen</w>
ver s</w>
m ün
er leich
as su
eli gi
exac tly</w>
Kra ft
refuge es</w>
we ap
str ong
An aly
Mein ungs
cover ed</w>
U K</w>
Proble men</w>
Innov ation</w>
Techn ologi
kl eine</w>
el se</w>
perspec tive</w>
r us</w>
bek ann
Ab stimm
direc tives</w>
viel mehr</w>
C an
län dlichen</w>
au tom
fol gen</w>
tain ing</w>
ti ally</w>
O c
Pe ople</w>
gel eit
s ent</w>
Griechen land</w>
fail ure</w>
maß en</w>
unter stre
König reich</w>
E G
be troffen</w>
prop or
strong ly</w>
app lies</w>
inter vention</w>
Dritt ländern</w>
absolu t</w>
defin ition</w>
Prinzi p</w>
sta g</w>
L ib
organis ed</w>
vor an
mor ning</w>
manu fac
ign or
wes halb</w>
stau sch</w>
au t</w>
Harmon isierung</w>
di gen</w>
sicher stellen</w>
bedau er
wahrschein lich</w>
ap </w>
re den</w>
forder e</w>
sch rän
Auf nahme</w>
for get</w>
co ver</w>
s ort</w>
Be denken</w>
antwor ten</w>
lan s</w>
Gemein schaft
p ass
be ar</w>
c ity</w>
re gu
ide as</w>
m är
t ac
Erfahr ungen</w>
beglück wünschen</w>
Un abhängi
Gener al
gew icht</w>
le hnen</w>
elec ted</w>
parla mentar
Min dest
integr ated</w>
j em
grupp en</w>
Ab kommens</w>
Fre m
olog ische</w>
sub mitted</w>
ME Ps</w>
re du
ch em
Gegen teil</w>
Ru le</w>
g la
erst ör
d ynam
Viel falt</w>
net work</w>
genu tzt</w>
lich ung</w>
high li
as h
govern ance</w>
beauf tra
Ratspräsiden tschaft</w>
sensi tive</w>
gratu lieren</w>
get ting</w>
ko sten</w>
grupp e</w>
erneu er
ein verstanden</w>
la id</w>
betra chtet</w>
A g
s ou
char ac
am ber</w>
Proc ed
attemp t</w>
prin zi
erhö hen</w>
S onder
institution ellen</w>
techn ischen</w>
N ah
begr enz
O sten</w>
k ungen</w>
9 6</w>
he al
p utting</w>
ch ance</w>
Sch lüs
Lis te</w>
se e
di sche</w>
u ß
K ur
Be fu
gi es</w>
administr ation</w>
bu re
unter breit
Partn er</w>
Doku ment</w>
ver rin
pen al
gemein sam
ä d
S pe
2 1</w>
ü hen</w>
serv ation</w>
agen cies</w>
Tag ung</w>
woll te</w>
Rom ania</w>
wh ere
enorm ous</w>
Ein k
war ten</w>
auth or
Fun da
Wil len</w>
Maß nahme</w>
bes it
deal t</w>
y a</w>
ver teidi
hervor heben</w>
D an
Pe ti
Bot schaft</w>
K yo
T un
mitt l
mechan ism</w>
construc tive</w>
gh ting</w>
b ed</w>
S ou
persön lich</w>
2 4</w>
Empfeh lung</w>
se ek</w>
fi z
frau d</w>
p ap
ger ä
parlia ments</w>
führ ungen</w>
w ed</w>
Er hö
erklär en</w>
l auf
5 00</w>
Proced ure</w>
Ital ien</w>
immedi ately</w>
dischar ge</w>
ah ead</w>
ge m</w>
occ up
stand ard</w>
Pap er</w>
au ßer</w>
H auses</w>
verb unden</w>
am bi
posi tions</w>
wet tbewer
writ ten</w>
ri eben</w>
Grün de</w>
Bo s
grund sätz
jün gsten</w>
A ss
Über prüfung</w>
gen e
i er</w>
en h
ver wendet</w>
tar gets</w>
Sch we
zi eren</w>
Itali an</w>
t ary</w>
es ischen</w>
K lar
ö k
Heraus forderung</w>
ti l
w at
konkre ten</w>
r un
impro vement</w>
correc t</w>
dar aus</w>
A ktionen</w>
ev entu
beteili gt</w>
be zogen</w>
il st</w>
wh ilst</w>
& #
t em
de ep
&# 9
thous ands</w>
pl ant</w>
n ennen</w>
ö konom
institu tion</w>
inter ven
address ed</w>
o de</w>
ra di
Zi ff
K ing
Regierungs konferenz</w>
rech tlichen</w>
man aged</w>
well -
y c
a kt</w>
le istung</w>
i cial</w>
Jus ti
Ein fl
vot es</w>
ges eh
oblig ations</w>
L am
akzep tab
Plen um</w>
O s</w>
aus drücklich</w>
h ne</w>
deb ates</w>
O k
om en
mand ate</w>
stoff e</w>
re ply</w>
mög liche</w>
b illi
Verän derungen</w>
person s</w>
el im
simp le</w>
Feh ler</w>
appl ause</w>
neu </w>
spä ter</w>
ein geführt</w>
bo ard</w>
abgel eh
lo g
ü ben</w>
contain s</w>
Hö he</w>
chan ged</w>
Char ter</w>
consul tation</w>
n on
Weit er
sat lan
199 5</w>
any one</w>
voll ständig</w>
co her
Kan di
un zu
niem and</w>
Bes or
mu tual</w>
traff icking</w>
um welt
metho d</w>
un able</w>
M ol
l aufen</w>
Krie g</w>
größ te</w>
Mi ddle</w>
st es</w>
statt finden</w>
Völ k
Ide e</w>
n un
f ish</w>
Pri me</w>
. 00</w>
co l</w>
ar ri
fac ed</w>
Kommun ik
bu ch</w>
Vorsch lägen</w>
aussch uß</w>
eh m
decisi on-
resp ek
Bar cel
Barcel on
T im
rech ts</w>
Ent last
P at
ge zogen</w>
h eren</w>
lo y
t äu
King dom</w>
politi sch</w>
main ly</w>
Erhö hung</w>
mer ely</w>
posi tiven</w>
re solutions</w>
disa st
Völ ker</w>
W asser
cho ice</w>
Produ ktion</w>
glob alen</w>
i ed</w>
briti schen</w>
ter en</w>
zusätz liche</w>
ut ter
te m</w>
Fest legung</w>
pe op
We ge</w>
betre ffen</w>
ent sch
dra mati
Agen cy</w>
e ten</w>
gesch ieht</w>
fun c
D aten
seit ens</w>
mechanis ms</w>
alis ten</w>
fü gen</w>
tra gs</w>
es tim
re p
é </w>
eas y</w>
ti ges</w>
r ying</w>
entr e</w>
ad ver
ha ft</w>
ed oms</w>
führ ten</w>
a war
Strate gy</w>
rejec ted</w>
appro val</w>
Entwick lungen</w>
Flücht lin
vi ce</w>
H a
C or
aff ec
ur ance</w>
schie de</w>
ep ing</w>
Ver mitt
substan tial</w>
com pla
be haup
continu ing</w>
vol un
An forderungen</w>
Verhand lungs
en jo
nei ther</w>
si g
erfolgre ich</w>
Span ien</w>
er ör
9 0</w>
lea ders</w>
fe ar</w>
Aus bildung</w>
inter ess
Ge währ
SM Es</w>
gen ü
lo st</w>
er griffen</w>
t old</w>
ific ation</w>
so ver
An sch
W unsch</w>
regel n</w>
D a
sub sidiar
st atis
chil d</w>
on d
p ien</w>
comple x</w>
an ten</w>
ten d</w>
Oc tober</w>
se em</w>
un sten</w>
rah men</w>
Vorsch lags</w>
disa ster</w>
subsidiar ity</w>
recommen dation</w>
Sub sidiar
B ro
k aum</w>
technologi es</w>
flexib le</w>
it alien
Fäl le</w>
Stand ards</w>
b ab
1 6
heb ung</w>
fig ures</w>
be ziehung</w>
exerc ise</w>
Politi ken</w>
r ich
A S
ge gangen</w>
ed on
T ab
exp lan
Nu tzen</w>
Konzep t</w>
renew able</w>
ati sti
per f
wichti ges</w>
Er stens</w>
ho he</w>
evi dence</w>
Turk ish</w>
bür ger
Ch amber</w>
De fin
abgeleh nt</w>
bring ing</w>
wor ked</w>
Christi an</w>
Klimawand el</w>
un kten</w>
mög lichkeiten</w>
resol ve</w>
itä tsp
ausreich end</w>
lin ked</w>
member ship</w>
Syst ems</w>
201 1</w>
ter e</w>
zeu ge</w>
ti </w>
indepen dence</w>
2 3</w>
Diskus sionen</w>
guarante es</w>
S k
str ö
im possible</w>
d t</w>
Re alität</w>
ob ser
An zahl</w>
K riti
te es</w>
E S
fel d</w>
N ation
p al
Tra de</w>
Justi z</w>
ge geb
strate gie</w>
besser en</w>
Kon ta
Hoff nung</w>
Verb rechen</w>
ließ en</w>
Vor teile</w>
pay ments</w>
lo sen</w>
Ver träge</w>
Re fer
inclu des</w>
Ho ch
in come</w>
qu e</w>
ander es</w>
so for
val uation</w>
speak ers</w>
ab sichti
be zug</w>
geeig ne
sec ure</w>
Ber ücksichti
o t</w>
nied ri
br auch</w>
re ck
y er</w>
ec tion</w>
ent wurf</w>
Garan ti
a ci
K rä
ö pf
Russi an</w>
bil den</w>
el ement</w>
W ert</w>
E isen
t led</w>
l us
In halt</w>
Berücksichti gung</w>
Wah l</w>
hän gt</w>
Ok tober</w>
2 2</w>
Rech nung</w>
Euro pol</w>
behör den</w>
Sit z
PP E-
vor geseh
Jap an</w>
zufrie den</w>
fin ance</w>
He alth</w>
gei zi
Überzeu gung</w>
promo tion</w>
n s</w>
An liegen</w>
Ein druck</w>
sa fe</w>
bure auc
K rimin
ko ordin
gr enzen</w>
be absichti
no on</w>
Wen n</w>
con ven
de gree</w>
gew isse</w>
traff ic</w>
co -
Afri ka</w>
B ra
gen des</w>
sel ben</w>
elec tion</w>
benö tigen</w>
off icial</w>
Frem den
inten tion</w>
mo bil
o l</w>
trotz dem</w>
Medi en</w>
zu legen</w>
ehr geizi
leg ungen</w>
ple ase</w>
g yp
har m
employ ed</w>
K MU</w>
Char ta</w>
allgem eine</w>
For t
er ous</w>
bur den</w>
tn isse</w>
Aus führungen</w>
über wach
erfol gen</w>
atti tude</w>
situ ations</w>
in t</w>
wish es</w>
ate ful</w>
Unabhängi gkeit</w>
dan ger</w>
l ate</w>
tot ally</w>
M as
ge halten</w>
Eink lang</w>
angem essen</w>
peop les</w>
politi ci
bes or
sig n</w>
conci liation</w>
des ire</w>
form u
repe at</w>
sch ung</w>
econom ies</w>
bereit et</w>
F inn
unterschied lichen</w>
s ehe</w>
Arbeitsplä tzen</w>
p an
tour ism</w>
Kin dern</w>
ak tiv</w>
A K
enn t</w>
P flicht</w>
emplo ye
wor ks</w>
Ta gen</w>
Kin der
letz ungen</w>
ic s</w>
cons istent</w>
control s</w>
in e
H ause</w>
t as
betra chten</w>
reason able</w>
n ä
Tran sport</w>
tre aty</w>
pl en
un ge
Gel d
sol cher</w>
off ici
ex pression</w>
Eisen bah
pub l
eu te</w>
t ürk
dic t
schwieri gen</w>
aus gesetzt</w>
famili es</w>
di g
I h
verabschie det</w>
R ent
u al</w>
F äh
aff airs</w>
cent ur
qu anti
um t</w>
ö hn
vor legen</w>
we ak
re d
in stance</w>
p unkte</w>
Kon sen
geo graph
territ ory</w>
sup ports</w>
eh em
Pak istan</w>
actu al</w>
n ieder
Bemerk ungen</w>
gr ateful</w>
Au di
Ver stän
ob vious</w>
fail ed</w>
1 8
G laub
E L</w>
kom pli
Jahr hunder
S inn</w>
au shal
ern st</w>
op posed</w>
wach sen
exten d</w>
j ahr</w>
be zieht</w>
invol vement</w>
bekämpf en</w>
S a
weiter er</w>
gew and
Rechn ungsh
yp rus</w>
C yprus</w>
z en
umfassen de</w>
Isra el
D on
intel li
län e</w>
ob st
er r
exis tence</w>
Voraus setzungen</w>
rit ten</w>
ä fen</w>
Freih eiten</w>
Ein beziehung</w>
unabhängi g</w>
adop ting</w>
Rech ts</w>
B asi
t est</w>
invol ving</w>
immedi ate</w>
glob alisation</w>
An spruch</w>
an wes
sti e
Al tern
säm tliche</w>
so und</w>
Hinter grund</w>
off ice</w>
bel an
Priv at
Einwander ung</w>
decision- making</w>
ger en</w>
ub a</w>
industri e</w>
Re gu
sch we
Mon ate</w>
high light</w>
judi cial</w>
su cht</w>
Kriti k</w>
dru gs</w>
St re
Nat ur
reagi eren</w>
protec ting</w>
H el
mo di
Verf assungs
Ber at
tal ks</w>
ent gegen
obst ac
I N
blo ck
inten d</w>
P act</w>
Rechts grundlage</w>
re le
for th
organis ationen</w>
si des</w>
t t
origin al</w>
L A
weap ons</w>
K ür
o d
fre i</w>
ari ly</w>
techn ische</w>
con soli
mi gration</w>
o .</w>
Str uc
ec k
er gän
aufge fordert</w>
Ser bi
aus sprechen</w>
see king</w>
recogn ised</w>
verur sa
Afri can</w>
aus führ
Flexibil ität</w>
dra f
gan gs</w>
Region al
Entwicklungs ländern</w>
happen ing</w>
tru ly</w>
ran ge</w>
Tre ffen</w>
Fun ds</w>
expec ted</w>
trav el</w>
f lu
ru n</w>
k o</w>
h or
r uss
voll kommen</w>
zu gleich</w>
Anp assung</w>
Mon etary</w>
Gesam t
substan ces</w>
ge fördert</w>
gran ted</w>
mo dern
Struc tural</w>
L o
A 5-0
besonder en</w>
f ying</w>
be handeln</w>
star ting</w>
Zy per
se a</w>
plen ary</w>
person ally</w>
Z e
e be</w>
Ver bot</w>
Minder heiten</w>
Verbrauch ersch
G eh
gesund heit</w>
Mi o.</w>
commit tees</w>
inter nationaler</w>
E G</w>
akzeptab el</w>
com par
region ale</w>
sp ent</w>
re ib
mon th</w>
go al</w>
y n
3 5</w>
great est</w>
under min
appe al</w>
Be obach
be hand
Ziff er</w>
Regier ung
subsi dies</w>
Er d
di g</w>
je tz
Ab sicht</w>
Um fang</w>
übri gens</w>
kom ple
mit tag</w>
pen sion</w>
nation s</w>
- up</w>
Eff izi
organ iz
Basi s</w>
Ihr en</w>
bestä tigt</w>
b ad</w>
off izi
entscheiden d</w>
bin ding</w>
bro ad
em bly</w>
fäl len</w>
ü b
w .</w>
samm lung</w>
da cht</w>
le bt</w>
g keiten</w>
credi t</w>
lik ely</w>
vol len</w>
Mitglie dern</w>
zu letzt</w>
advan tage</w>
gest atten</w>
Kon sequ
auff or
Politi k
lic k</w>
Schluss folgerungen</w>
zügi gkeit</w>
proc eed
kun fts
Hin dern
zug unsten</w>
Pol and</w>
rä f
No s</w>
grundle genden</w>
kein erlei</w>
bek räf
k bar</w>
wesent liche</w>
Entschei dungs
min orities</w>
ein ander
resol ved</w>
Ma astr
anerk annt</w>
kulturel len</w>
suff ering</w>
us w.</w>
follow ed</w>
inter esting</w>
Bemerk ung</w>
meet ings</w>
bil ater
er ungen</w>
Bi o
Wachst um
näch ste</w>
if y</w>
il l
spi elt</w>
appe ar</w>
di gt</w>
dise ase</w>
tur ing</w>
fre ie</w>
Kon sul
ong st</w>
am ongst</w>
Zw eck</w>
Swe den</w>
compe tence</w>
ex port</w>
def end</w>
sp rü
Besor gnis</w>
Unter schiede</w>
gest alten</w>
ass ure</w>
fish er
ameri kanischen</w>
reich ung</w>
Lissab on-
Ereign isse</w>
Amer ik
e valuation</w>
Ju ly</w>
u si
Kontrol l
spra chen</w>
bil ateral</w>
consequ ently</w>
bei zu
e chte</w>
mit einander</w>
steu er
Rumän ien</w>
wettbewer bs
gn issen</w>
um zusetzen</w>
lä ss
üs se</w>
un eingeschrän
Gerichtsh of</w>
fe der
conduc t</w>
or al</w>
Mär kte</w>
Prü fung</w>
sha red</w>
sp re
critic ism</w>
au er</w>
mo bility</w>
sch w
stell ungen</w>
sp ace</w>
Kolleg in</w>
9 9</w>
expla in</w>
se ts</w>
equ ally</w>
wach st
Dro gen
f are</w>
ver lei
belan gt</w>
UN -
Hoh en</w>
geleit et</w>
pro je
comp liance</w>
ung sin
g rie
tig keiten</w>
Dien ste</w>
care fully</w>
design ed</w>
harmon isation</w>
tax ation</w>
pollu tion</w>
erforder t</w>
tran satlan
Kl ein
A R
fähi g</w>
fri ed
fre und
detail ed</w>
Grupp en</w>
ass ungen</w>
t ack
T ri
re ject</w>
ar ms</w>
wil li
ch e
Re de
a ver
lau t</w>
al ities</w>
propos ing</w>
Besch luss</w>
tack le</w>
isti sche</w>
zahl reichen</w>
elec tri
an statt</w>
Pol en</w>
dr än
nü tz
Ver rin
flo or</w>
tiv ität</w>
h ilfe</w>
da t</w>
kti ken</w>
comp ly</w>
zu lassen</w>
Stell ung</w>
grenz ung</w>
an nehmen</w>
W al
Swe dish</w>
bekämpf ung</w>
2 6</w>
to b
D es
verstär kt</w>
oh n
größ eren</w>
Verstän dnis</w>
contin ues</w>
zu ständigen</w>
an belangt</w>
uni vers
Entwicklungs länder</w>
ens wert</w>
there by</w>
Au gen
Ju li</w>
Technologi en</w>
st ress
Gesetz </w>
Arbeits markt</w>
G az
äuß ern</w>
200 </w>
weit e</w>
Dienstleist ungs
ser ies</w>
fi f
P lan
pop ul
gr ant</w>
min ority</w>
Vor aussch
at z
ru fen</w>
Reak tion</w>
re form
Entwick l
Pre s
lan gt</w>
n ation</w>
invol ve</w>
l auf</w>
commun ities</w>
be träch
unterschied liche</w>
gener ally</w>
eini g</w>
f ly</w>
ju st
richti gen</w>
s mo
ab geschlossen</w>
Geor gi
Re form
E ur
low er</w>
akzep tiert</w>
Besch lüsse</w>
Gesetz e</w>
empha sis</w>
jewei ligen</w>
demo kraten</w>
gestell ten</w>
innov ative</w>
de ad
nachhal tigen</w>
gew öhn
tä tig</w>
s ed</w>
E astern</w>
Verrin gerung</w>
Proble ms</w>
p ul
sch lim
system ati
man gel
presen ce</w>
ffent lich</w>
ho ffentlich</w>
win den</w>
angemessen e</w>
är m
es sive</w>
letz ten
nun mehr</w>
hear t</w>
ad voc
h und
zu rü
wi der</w>
gelan gen</w>
minis ters</w>
k einer</w>
Er wä
por ary</w>
LA F</w>
gro unds</w>
ge arbeitet</w>
behör de</w>
äuß ert</w>
kein es
Ag ricul
perman ent</w>
certain ty</w>
Außen politik</w>
impro vements</w>
wer k
consu mption</w>
r ing
te ure</w>
Verbrauch er
Barcelon a</w>
Vorbereit ung</w>
aktu ellen</w>
einheit lichen</w>
lei den</w>
del ay</w>
Voraus setzung</w>
Vor gehen</w>
Mis s
funda ment
def ic
Nor th</w>
fu hr
Er war
de te</w>
P hase</w>
plan ning</w>
Balk ans</w>
is tic</w>
Ju gen
Kom peten
vo ice</w>
Pre is</w>
quo te</w>
c ra
di vi
s sel
terror ist</w>
K ü
b y
krä fte</w>
ho ch</w>
zurü ck</w>
mo ving</w>
Un gleich
ro r</w>
sol ange</w>
W h
J o
be an
L auf
Kontrol len</w>
ordin ary</w>
cla im
bar er</w>
w ann</w>
Entlast ung</w>
f our
Einfl uss</w>
Nor men</w>
E A
ge ber</w>
t wo
B lick</w>
st öß
Vor sitz</w>
Pre is
justi fied</w>
B as
betreff enden</w>
sup ple
L at
m illi
absolu te</w>
in a</w>
vehic les</w>
caus es</w>
bar ri
bedeu ten</w>
Strate gien</w>
An teil</w>
vor her
b ir
Amend ments</w>
Vereinbar ungen</w>
Effizi enz</w>
der ten</w>
Fun ktion
employe es</w>
tar get</w>
lim its</w>
füh l</w>
Defin ition</w>
Überein stimmung</w>
Se a</w>
G ra
ad v
religi ous</w>
rit ann
credi bility</w>
dien ste</w>
dar unter</w>
begrüß t</w>
ge ändert</w>
a .</w>
th or
G ü
P unkten</w>
k atastrop
gesch ü
spe ed</w>
Bud gets</w>
pr o</w>
er mu
wor th</w>
c at
ven tionen</w>
defin ed</w>
wes en</w>
g as
en try</w>
geb aut</w>
E st
com bin
R and
ü ck</w>
C ze
Be tru
F o
ra il</w>
auf zunehmen</w>
b ritann
d or
sat z
ich erung</w>
dom es
dou b
gemein schaftlichen</w>
tu t</w>
materi al</w>
aus schließlich</w>
mar i
M oment</w>
Groß britann
tradi tion
ex ec
Gre ek</w>
experi en
V ic
wir kt</w>
ö der
la stly</w>
Industri e
AK P-
im bab
deta il</w>
Audi tors</w>
sei en</w>
Red u
ro und</w>
Kul tur
Res ol
S V</w>
Betri eb
Konsen s</w>
betreff end</w>
el te</w>
acc o</w>
Jah res
lo ss</w>
Z oll
isch en
vi r
Kommission sprä
mul tin
ho od</w>
om e
campa ign</w>
distribu tion</w>
läu ft</w>
sec re
w and</w>
is ieren</w>
aff ect</w>
Analy se</w>
high -
immi grants</w>
reit er
dest ro
ta il
sign al</w>
räu men</w>
Frei zügigkeit</w>
ri ge</w>
und es
An ti
da n</w>
an genommen
N ord
Wes tern</w>
I hr</w>
h ours</w>
be obach
politici ans</w>
ver wal
un less</w>
particip ate</w>
max imum</w>
W aff
star ke</w>
S ig
trans fer</w>
L ehr
R ati
All gem
Beh in
nor mal</w>
oper ating</w>
in spec
Inter nationalen</w>
wa it</w>
dau er
sat zes</w>
Schlüs sel
of s</w>
Bil dungs
ma g</w>
charac ter
ff s</w>
fi k
7 -
elim in
fi ghting</w>
arran gements</w>
f assung</w>
ber eiten</w>
an g
wichti gste</w>
a da</w>
kür zlich</w>
z in
str on
af ter
komm e</w>
Volks gesundheit</w>
Zah len</w>
ec ken</w>
monit or</w>
s ource</w>
poli tics</w>
leist ungen</w>
initi al</w>
Haushaltsp lan</w>
op tion</w>
grundle gende</w>
wirk lichen</w>
f elt</w>
E N
zi elt</w>
be u
att acks</w>
staat liche</w>
compens ation</w>
Stat us</w>
letzten dlich</w>
Emis sionen</w>
A tom
n el</w>
Famili en</w>
gebo ten</w>
encoura ging</w>
en en
lau tet</w>
Voraussch au</w>
ef s</w>
langu ages</w>
be ein
star ted</w>
bud s
tran spor
z ation</w>
domes tic</w>
zep rä
k a
würdi gkeit</w>
ta ges</w>
oblig ation</w>
Binnenmark tes</w>
declar ation</w>
v a</w>
Gleich gewicht</w>
ag ing</w>
t ari
rap id</w>
sinn voll</w>
fac tors</w>
eingere icht</w>
ate ver</w>
represent ative</w>
vor rangi
aus gesprochen</w>
re k
dien st
gra du
pal ästinens
französ ischen</w>
i al</w>
wel chen</w>
außerorden tlich</w>
Ele mente</w>
ga ve</w>
Le ist
G ali
Sch ä
Vi zeprä
stra fe</w>
wh atever</w>
to -
regul atory</w>
ultim ately</w>
dies bezüglich</w>
Per spe
z nei
ger ing
ob tain</w>
ganis ation</w>
ehem ali
fre edoms</w>
go als</w>
P ati
nö tig</w>
wirtschaf tlicher</w>
Be am
Gleich stellung</w>
v ul
easi er</w>
fol gende</w>
Aktionsp lan</w>
W äh
vorzu legen</w>
men s</w>
Ris iken</w>
verur teilt</w>
ti ver</w>
bes ei
s al
lu ß
appe ars</w>
iel e</w>
Schwe den</w>
steh e</w>
Ö sterre
tob acco</w>
ich ts
contribu tions</w>
fre qu
mari time</w>
Stra ßen
Bulg aria</w>
vorgeschla gene</w>
profession al</w>
fa ßt</w>
sen sible</w>
H al
Nah en</w>
sp ie
di gn
im posed</w>
in form</w>
bem üh
E mp
at ta
ber s</w>
f oun
hn t</w>
7 5</w>
F ron
resp ected</w>
ei gen
sk i</w>
T O-
Verteidi gungs
US -
Commission ers</w>
gel assen</w>
ü nen</w>
F ern
fac tor</w>
fol genden</w>
Mit arbeit
be zo
Red ner</w>
determin ation</w>
constitu tional</w>
mindes tens</w>
W ie</w>
her zlich</w>
sto od</w>
notwendi ge</w>
t ment</w>
M us
k en
Untersuch ung</w>
wiederhol en</w>
sib ly</w>
2 8</w>
lok alen</w>
de bt</w>
ari es</w>
AC P</w>
zurück zu
b ol
speak er</w>
wel fare</w>
pay ment</w>
da mals</w>
ap par
reco very</w>
exper ts</w>
In v
fan gen</w>
z on
t ou
re icht</w>
Zuständi gkeit</w>
sp ending</w>
M ad
facilit ate</w>
Char ak
pro to
separ ate</w>
Kyo to</w>
CO 2</w>
an ische</w>
funktion iert</w>
Regi me</w>
lab elling</w>
ab stimmen</w>
mo dern</w>
contin ent</w>
siden ten</w>
m ier
Verein fach
p .m.</w>
ver sion</w>
t un
zusammen arbeiten</w>
fa il</w>
spre che</w>
Politi ker</w>
M ac
f s</w>
ra il
Ziel en</w>
cap able</w>
si vely</w>
wa iting</w>
sor g
a part</w>
ver hand
Sek toren</w>
p on
grie ch
Mobil ität</w>
Bes u
be we
spar tei</w>
vor anzu
si erung</w>
neu es</w>
k rie
ent sprechen</w>
Soci alist</w>
Famili e</w>
men ts
H i
ver langen</w>
ell s</w>
teil weise</w>
Verhäl tnis</w>
dies el
Institu tion</w>
sch efs</w>
Sch luss</w>
proble mati
continu ed</w>
n is</w>
ein bezogen</w>
k ennen</w>
ra sch</w>
deli ghted</w>
us h
du mp
co t
O m
F rü
anwes end</w>
T it
num erous</w>
realis tic</w>
I S</w>
wer k</w>
en ess</w>
restric tions</w>
d nung</w>
er fahren</w>
unterstre ichen</w>
allgem ein</w>
Sig nal</w>
Befu gnisse</w>
Umstän den</w>
e valu
feh l
D ut
tradi tional</w>
Ver such</w>
Pu blic
tri fft</w>
H om
func tioning</w>
opin ions</w>
ben e
in ts</w>
O S
inclu sion</w>
einge halten</w>
citiz en</w>
Chr ist
abl es</w>
zw ungen</w>
m om
sexu al</w>
si ehe</w>
negoti ating</w>
cri mes</w>
stric t</w>
ou l
nü pf
Verbesser ungen</w>
nach drücklich</w>
differ ence</w>
N utz
interes ted</w>
ho h
reach ing</w>
gen annt</w>
ur en</w>
g ä
An merk
conflic ts</w>
ungs verfahren</w>
centur y</w>
effec tiveness</w>
4 5</w>
help ing</w>
Mitglied s
dem and
begr ün
Erfahr ung</w>
s eines</w>
propos es</w>
Leg isl
staat lichkeit</w>
o st
mon o
ges ell
Cze ch</w>
tur ning</w>
St o
Bestand teil</w>
l is
län ger</w>
w om
B en
lin k</w>
si l
can c
Ne w</w>
Bed ro
wä ch
Ze ichen</w>
f is
endor se</w>
E hr
eth eless</w>
bemüh t</w>
ver sorgung</w>
R eligi
comp lic
l enn
Glaub würdigkeit</w>
ver lieren</w>
gle it
invest ments</w>
vul ner
even ing</w>
require ment</w>
Wirk lichkeit</w>
Über legungen</w>
en for
ethn ic</w>
fi l</w>
be ha
an den</w>
wirk sam</w>
Public </w>
Berichterstat ters</w>
Antwor ten</w>
Be weis</w>
er ter</w>
Absch affung</w>
verb reit
stie g</w>
y ers</w>
refer endum</w>
kon sequ
ti erung</w>
erfol gt</w>
genann te</w>
buds man</w>
erheb liche</w>
An rei
R in
ru hi
po wer
umfassen den</w>
Ener gy</w>
pre fer
tra ding</w>
Ne ther
allow ing</w>
Ver gleich</w>
Sor gen</w>
er öff
im pose</w>
Zivil gesellschaft</w>
em pf
er geben</w>
Vic e-
dra wing</w>
C ha
la w
O M</w>
Nether lands</w>
be wäl
Zentral bank</w>
guarante ed</w>
a di
illeg alen</w>
H -0
milli ons</w>
ph y
man ch
Nieder lan
groß es</w>
verkehr s</w>
zeh n
genau so</w>
bem ühen</w>
i ans</w>
sol ve</w>
wor se</w>
forth coming</w>
Di es</w>
contra dic
protec ted</w>
rech tliche</w>
A 4-0
avo i
Stra s
dise ases</w>
d opp
mehr eren</w>
Verteidi gung</w>
gr ations
appropri ations</w>
C roati
per c
For men</w>
volun tary</w>
fre ch
c au
ausgezeichne ten</w>
tas ks</w>
loy ment</w>
ed ly</w>
letz tlich</w>
reflec t</w>
we g
att le</w>
Agricul ture</w>
Auf bau</w>
Ang riff</w>
D P</w>
fo ot
will ing</w>
stell er</w>
ph ase</w>
län g
An n
da ble</w>
C openhagen</w>
kämpf en</w>
wirk sam
sp ru
gel tenden</w>
su m</w>
vis a</w>
leb ens
Stras bourg</w>
u de</w>
ver kehrs
B SE</w>
legitim ate</w>
cust oms</w>
dan ach</w>
verstär ken</w>
entscheiden der</w>
wel cher</w>
verfü gt</w>
p ic
s -
L ab
ach teili
Krank heiten</w>
v ent</w>
le hnung</w>
Ti ere</w>
ke eping</w>
ch air
Sch u
pur poses</w>
2 9</w>
rä ge</w>
sch lägt</w>
nach zu
derar tige</w>
alis tischen</w>
fir m</w>
oper ations</w>
Prinzi pien</w>
ess ing</w>
exam ine</w>
ir y</w>
ör per
tre iben</w>
Portu gu
C om
n icht
per form
Bal tic</w>
3 1</w>
Bed ar
exam ples</w>
Vor haben</w>
non etheless</w>
urop ä
ent stehen</w>
passen gers</w>
ma ß</w>
k am</w>
par all
dom in
techn ological</w>
verantwor tungs
gla d</w>
entwick lung</w>
Erzeu gnisse</w>
exis ts</w>
Über gangs
I C
fizi ert</w>
er scheint</w>
Katastrop he</w>
em bar
Organ e</w>
sk il
Famili en
be ziehungen</w>
tre ated</w>
spezif ischen</w>
3 0
g in
V an</w>
son st</w>
St ability</w>
Bos n
inform iert</w>
Ar znei
hervor gehoben</w>
klar en</w>
Großbritann ien</w>
2 -
Gesprä che</w>
u ten</w>
associ ated</w>
m ann</w>
disast ers</w>
um e</w>
go t</w>
fün f
g one</w>
and el</w>
einzi gen</w>
del a
let ter</w>
ü r</w>
ou b
serv ations</w>
ver langt</w>
ban ks</w>
Krimin alität</w>
poten zi
ex emp
e te</w>
offici als</w>
bestimm t</w>
ch ec
tra ge
Parla ments
herr scht</w>
ver sichern</w>
ehr ten</w>
M u
L ei
Austri a</w>
abl ing</w>
depen dent</w>
G est
Pro t
weiter es</w>
Portugu ese</w>
bes te</w>
geh ens
tac kl
E I
gel y</w>
Me er
ma ch
bed ro
set t
occa sions</w>
oper ators</w>
y e</w>
zw an
Arbeitsp lat
profi tieren</w>
elec tron
peac eful</w>
Fra mework</w>
Luxem bourg</w>
K am
pla ces</w>
att ack</w>
demonstr ated</w>
konkre t</w>
kno ws</w>
Mi ß
F ir
C AP</w>
demonstr ate</w>
condi tion</w>
Sy ri
ge prüft</w>
Gedan ken</w>
safegu ard</w>
comp ati
beru f
Tra g
hal ten
Konfli kt</w>
lear n</w>
hol ding</w>
di en</w>
gent ly</w>
ta k
Hand eln</w>
schn it
re marks</w>
ell ed</w>
bestimm ter</w>
ger u
Parla mente</w>
cor ruption</w>
imbab we</w>
spezi ell</w>
vis it</w>
h ous
manch mal</w>
be findet</w>
be wegen</w>
zah lt</w>
gest at
Gen ehm
dis krimin
elek tron
verl oren</w>
Ein richtungen</w>
ver dient</w>
l isten
au t
Leg al</w>
5 -00
Z eiten</w>
pas sen</w>
humanitär e</w>
chan ging</w>
vol ler</w>
B lo
ge is
I denti
ck ing</w>
W affen</w>
9 5</w>
en han
bene fi
jetz igen</w>
vorlie gende</w>
Risik o</w>
fal sch</w>
EU- Mitgliedstaaten</w>
au di
program ms</w>
nä her</w>
o g
drit ten</w>
entscheiden de</w>
tor al</w>
Vertra gs
in zwischen</w>
c ar</w>
z a</w>
individu als</w>
ori enti
prakti sch</w>
primar ily</w>
contain ed</w>
fin e</w>
st ed</w>
Erwar tungen</w>
Po ten
wen igen</w>
ch sel
an schließen</w>
Män nern</w>
re ment</w>
ts äch
er läu
ach tung</w>
Maastr icht</w>
alloc ated</w>
feh lt</w>
tri ed</w>
Om budsman</w>
wa k
b la
den kt</w>
enti tled</w>
Flüchtlin ge</w>
haup tsäch
P as
Bürger beauftra
sä tzen</w>
Comm un
geb ühr
institution elle</w>
über all</w>
schä tzung</w>
Ber lin</w>
Vereinfach ung</w>
Or dnung</w>
Eisenbah n
gra f
pass ed</w>
C ol
op pos
i ght</w>
o w
man age</w>
ig es</w>
Umwelt fragen</w>
sp rech
promis es</w>
consider ing</w>
Wei ß
tig ten</w>
vol ution</w>
ge äußert</w>
ig u
beteili gen</w>
durch zuführen</w>
im ports</w>
verlei hen</w>
e arch</w>
Res earch</w>
Ver k
A ber</w>
fol glich</w>
W ichti
s icht
lin ed</w>
hän gen</w>
und oub
vis ed</w>
über ein</w>
Kohäsions politik</w>
far ming</w>
conclu ded</w>
Zun ächst</w>
Qu o
Gemein same</w>
Indi a</w>
Regierung schefs</w>
dustri e</w>
ab gestimmt</w>
finanzi ert</w>
über nommen</w>
ech ten</w>
sp anischen</w>
Gesch lech
Ab lehnung</w>
amoun ts</w>
awar eness</w>
z erstör
civi li
O l
ei gn
A sh
D E-Fraktion</w>
Mark et</w>
201 2</w>
Rechts staatlichkeit</w>
pa th</w>
g an</w>
Pra ktiken</w>
CO M</w>
u ationen</w>
spar tn
Chin ese</w>
autom ati
Wirtschafts wachst
fl ation</w>
Syst eme</w>
aver age</w>
ator en</w>
gewäh l
I F
si ze</w>
invol ves</w>
e der
b ase</w>
ra c
re alise</w>
viol ations</w>
F ischer</w>
plan ned</w>
s li
las si
lab or
c t</w>
ordn ungen</w>
sab kommen</w>
Tre aties</w>
är kt</w>
den e</w>
ativ ely</w>
kl ein
b ien</w>
Mo dell</w>
m äch
t fer
Mark tes</w>
so weit</w>
vergen ce</w>
kra ft</w>
n issen</w>
dign ity</w>
constitu tion</w>
ful fil
Konsequ enzen</w>
j ah
Mit entschei
sugges t</w>
wo durch</w>
dan kbar</w>
Sicherheits politik</w>
over come</w>
c ke</w>
mensch lichen</w>
Waff en
tru th</w>
I P</w>
k la
w est
kon struk
ver öffent
auffor dern</w>
appro ve</w>
do w</w>
A T</w>
emer gency</w>
inform ieren</w>
An fragen</w>
vorgeseh enen</w>
wirk ung</w>
Febru ary</w>
Ab end</w>
n ungen</w>
bis lang</w>
m ur
niem als</w>
re vision</w>
Mittel punkt</w>
bür ger</w>
pla yed</w>
hand s</w>
sub sequ
sorg fäl
tur ned</w>
Män ner</w>
sch eme</w>
verb un
Berich ten</w>
sub stance</w>
ber ich
exten ded</w>
Uni vers
ger ia</w>
tä t</w>
struktur en</w>
kontrol le</w>
des tr
tem porary</w>
Todes strafe</w>
at ure</w>
tax es</w>
L eute</w>
proz esses</w>
b a
Vice- President</w>
no ted</w>
represent ed</w>
su rely</w>
Slo v
wor fen</w>
g utes</w>
Straß burg</w>
st able</w>
d ates</w>
NG Os</w>
Produ ktions
aus ende</w>
regel mäß
in sofern</w>
co operate</w>
führ te</w>
k i</w>
form ul
statis tics</w>
h ence</w>
Wor t
erheb lich</w>
eu ro
wen ige</w>
decisi ve</w>
vulner able</w>
sozi aler</w>
p ak
verteidi gen</w>
vor genommen</w>
L ond
inten sive</w>
B rit
gew innen</w>
comp ared</w>
vor ange
Febru ar</w>
Pak et</w>
quali fizi
ab gesch
Ni veau</w>
undoub tedly</w>
fest zulegen</w>
lich em</w>
f ach</w>
en des</w>
St ellen</w>
einheit liche</w>
garan tieren</w>
i ens</w>
mas sive</w>
in o</w>
Bul gar
ga in</w>
De fiz
Zusammen halt</w>
erwar tet</w>
I D
stre ben</w>
collec tive</w>
Di ese</w>
den s</w>
Gewähr leistung</w>
ab sur
Dialo gs</w>
effizi enz</w>
un fair</w>
x im
r ul
ph en
D ub
M ut</w>
aus gehen</w>
fir mly</w>
Wider spruch</w>
Ih rem</w>
ri ft</w>
zäh len</w>
fu el</w>
ver se</w>
D ol
prec e
geh and
de ckt</w>
fan gre
fisher men</w>
qu alität</w>
some what</w>
zeu gen</w>
ur teilung</w>
F ish
wirk same</w>
bere iche</w>
As sozi
Ass embly</w>
Ö l
gewand t</w>
proc eed</w>
heu tige</w>
Verbrauchersch utz</w>
At lan
St äd
B undes
confir m</w>
destr uc
ver trau
unzu reich
pro ve</w>
ri gi
ver bo
rech ts
N ich
obstac les</w>
quot as</w>
reques ted</w>
b ig
An hör
u en</w>
m üß
c e
um fangre
Pl atz</w>
s ü
ü bt</w>
happ ens</w>
introduc ing</w>
o se</w>
Un d</w>
prosp er
lä ßt</w>
An wen
exc essive</w>
gener ation</w>
Beg riff</w>
O ber
l ern</w>
Lond on</w>
cl ause</w>
Proz esses</w>
lossen heit</w>
ge zwungen</w>
Währungs union</w>
Dut ch</w>
prevent ing</w>
l ös
p ment</w>
imp lic
electron ic</w>
lat ter</w>
ernsthaf t</w>
beschäf tigen</w>
Di es
Wel th
ter ing</w>
mas s</w>
off ers</w>
ol z</w>
st am
proper ty</w>
199 4</w>
im pression</w>
el e
produc tive</w>
Redu zierung</w>
I m</w>
industri es</w>
sol ches</w>
o k
G as
mer ken</w>
b ruch</w>
S ar
Nat ur</w>
j ungen</w>
hier bei</w>
bei getragen</w>
Kre di
prepar ing</w>
penal ty</w>
D A</w>
än den</w>
verfü g
stan tly</w>
hauptsäch lich</w>
ment ari
ein stimm
re struc
M ul
Uni ons
appl ying</w>
For mu
erwä hnen</w>
Wes ent
pil lar</w>
breit ung</w>
allow s</w>
Res pe
Her zen</w>
Pro f
ha fte</w>
Be tra
fis cal</w>
Dien st</w>
la y</w>
ma k
Wohl stand</w>
H am
beschäf tigt</w>
li ere</w>
erleich tern</w>
Mal ta</w>
ab use</w>
Arbeit en</w>
Struktur en</w>
sur pris
B 5-0
tz </w>
einzu führen</w>
ri d</w>
ins urance</w>
ach es</w>
stu dies</w>
verrin gern</w>
j enen</w>
Nor di
ier ungen</w>
Inv est
spezif ische</w>
star ken</w>
gewähr t</w>
Finan cial</w>
An gaben</w>
3 00</w>
explo itation</w>
geschü tzt</w>
fin ding</w>
fe el
t op</w>
Gr ünen</w>
Schi ff
detail s</w>
d van
disa dvan
aut onom
it ten</w>
tin i</w>
prec ise</w>
Tei len</w>
sch afft</w>
sto cks</w>
accoun ts</w>
Hei mat
be ten</w>
gebie t</w>
län dliche</w>
- European</w>
wün sch
democ rati
M ann</w>
Bulgar ien</w>
prep are</w>
Re is
le un
mö gen</w>
ge -
ha ften</w>
ima g
erfre ut</w>
M au
2 5
spo ken</w>
at trac
cour t</w>
Am ts
agen cy</w>
an gehö
I V</w>
beg onnen</w>
H U</w>
rel ates</w>
ch st
app el
en su
par t-
il lu
Ko rea</w>
kor re
ho l</w>
gestat tet</w>
pas s</w>
fac ts</w>
du ties</w>
ne w
vorsch läge</w>
dr ing
an en</w>
announ ced</w>
ab and
Croati a</w>
unmittel bar</w>
tel e
Ge fahren</w>
le c
Gegen satz</w>
ec kt</w>
proc esses</w>
sich ts
ursprün glichen</w>
high est</w>
wel ches</w>
C hi
m al
europä isches</w>
woll ten</w>
Minister prä
besor gt</w>
qual it
sofor t</w>
er weit
con stantly</w>
oper ational</w>
St off
coura ge</w>
K roati
Con su
den falls</w>
T he
stron ger</w>
be vor
ter ed</w>
expec tations</w>
prosper ity</w>
entsch lossen</w>
Infra struktur</w>
Mitglied schaft</w>
Beru fs
min im
bud gets</w>
ur gently</w>
k es
d ritte</w>
es ti
kon fron
wissen schaftlichen</w>
E P
all zu</w>
multil ater
proceed ings</w>
ra el
verhand lungen</w>
stan de</w>
Ex per
Außen -</w>
eng agi
priv aten</w>
zu vor</w>
A ction</w>
jähr lich</w>
zi elen</w>
Österre ich</w>
jäh rigen</w>
lat est</w>
ent weder</w>
Mas sen
ler nen</w>
ful fil</w>
erhö ht</w>
er leben</w>
poli tically</w>
Plen ar
k ü
j ourn
beha vi
ci ties</w>
exclu sion</w>
zi em
b it</w>
einfach en</w>
ff nung</w>
spo ke</w>
Stu die</w>
determin ed</w>
en de
vorsch lagen</w>
is rael
ent fern
Deb atten</w>
occa sion</w>
unter zeichnet</w>
briti sche</w>
sp unkt</w>
Fish eries</w>
geru fen</w>
main taining</w>
tax pay
Vermitt lungs
pursu e</w>
je denfalls</w>
Y u
Ver zö
Ent sch
C 5-0
gu ter</w>
Bes it
phen omen
coordin ated</w>
M ach
appreci ate</w>
dump ing</w>
vor gelegten</w>
en det</w>
confir med</w>
Volk spartei</w>
ish ing</w>
s sive</w>
Gel der</w>
cont act</w>
c ard</w>
Beisp iele</w>
O LAF</w>
con vergence</w>
Man dat</w>
mom ent
pa ar</w>
t w
min utes</w>
em pfeh
glob ale</w>
Al liance</w>
argu ments</w>
co decision</w>
deut schen</w>
über tragen</w>
h ori
en tz
an on</w>
jun ge</w>
Arbeitneh mern</w>
b ul
descri bed</w>
M at
sto ffen</w>
D ring
form al</w>
brie f</w>
won der</w>
d ank</w>
le ment</w>
fra gt</w>
exten sion</w>
ing -
ser n</w>
strate gies</w>
Energi ever
typ es</w>
f and</w>
frü her</w>
pro hi
tim et
B on
c ent</w>
al tet</w>
ac ting</w>
In sel
Ele ment</w>
barri ers</w>
Hand els</w>
tn is
An sichten</w>
lossen en</w>
Indi en</w>
i en
associ ation</w>
x ed</w>
brie fly</w>
defin e</w>
m ung</w>
Funda mental</w>
läss lich</w>
grundsätz lich</w>
parall el</w>
g lück
Hi gh</w>
ver fahrens</w>
rati fication</w>
humanitär en</w>
rec ord</w>
gewäh lt</w>
ger ich
sover eign
bein hal
wieder um</w>
fron t</w>
fiel ds</w>
Pre ise</w>
Inter governmental</w>
contrac ts</w>
Aus nah
respec tive</w>
sicher ungs
l isten</w>
en dly</w>
abhängi g</w>
perf ec
inten ds</w>
mark et
gehens weise</w>
J oh
Entwickl ungsh
so eben</w>
ab sen
B ö
effek tiv</w>
behand lung</w>
histor ic</w>
en g</w>
Asi a</w>
dis pos
fri endly</w>
al ar
too l</w>
lin ks</w>
mär kte</w>
bein gs</w>
P atten</w>
Wir kung</w>
b om
Sto ck
al ien</w>
Kon vent</w>
ple as
un ruhi
ch ing</w>
Geb äu
schn ell
S timm
ackno wled
wor l
un ited</w>
G lück
ag ue</w>
sa w</w>
sor ganisation</w>
B la
Wahr heit</w>
Sec re
ad just
Ma ß</w>
Zah lungs
ür en</w>
quali fied</w>
berich terstat
Mil itär
rech ten</w>
em in
einzu setzen</w>
wiederhol t</w>
best and</w>
regu lar</w>
materi als</w>
we gs</w>
mittl eren</w>
m un
clar ify</w>
gest ärkt</w>
f f</w>
publ ished</w>
schi ed</w>
Sch wei
Ar ten</w>
Ver le
Charak ter</w>
k ar
f ein
om in
wer ten</w>
ir ischen</w>
Un gar
territori al</w>
so bald</w>
aus el</w>
ab gesehen</w>
i j
under stood</w>
strengthen ed</w>
gri ffe</w>
illeg ale</w>
Tran spor
behavi our</w>
wel com
welcom ed</w>
op s</w>
verhin dert</w>
se ven</w>
gen eh
mitt elt</w>
an gebracht</w>
schließ t</w>
politi sches</w>
mu tzung</w>
L ie
Balk an</w>
F ach
p el
por tu
es ts</w>
Fre ude</w>
bestä tigen</w>
Israel i</w>
lar gely</w>
sozi al
Ü bri
C am
einge gangen</w>
fun ction</w>
deb ating</w>
k ept</w>
jem and</w>
über prüfen</w>
equi pment</w>
is men</w>
Beteili gten</w>
l ing
Tra di
M ex
Au ch</w>
follow s</w>
Ger ech
re siden
c entre</w>
den k
sp here</w>
Meer es
v ar
li ties</w>
Tre ib
Tab ak
produ ktion</w>
äl fte</w>
tis ing</w>
electri city</w>
r ich</w>
Bedar f</w>
ck ung</w>
Bedürf nisse</w>
ur s
antwor tet</w>
neh mer</w>
be danken</w>
he ad
coher ent</w>
Mil lenn
G U
Investi tions
wer fen</w>
W est</w>
stärk ere</w>
ex tra
ati n</w>
k tur</w>
konfron tiert</w>
succ eed</w>
ur gency</w>
ent täu
komm un
amen ding</w>
n en
führ ungs
te en</w>
Kommissionsprä sident</w>
portu gi
Yu gosla
lar gest</w>
Nahrungs mittel
sovereign ty</w>
ans wers</w>
br ings</w>
derzei tige</w>
schwi er
spru ch
u ßt</w>
ab ol
ar di
Be we
S ie
Di kt
inter nation
Ti be
Be für
Be tre
Serbi a</w>
wen ig
al ter</w>
super vision</w>
Ko operation</w>
parlamentar ischen</w>
li ge</w>
Constitu tional</w>
be unruhi
sub mit</w>
Sp iel</w>
lea der
sy ch
medi zin
g ust</w>
schutz es</w>
em ar
um setzen</w>
a po
pap er</w>
kurz em</w>
Kor ruption</w>
fro h</w>
it ely</w>
Stoff e</w>
g mati
al itäts
kompli zi
ak tive</w>
W ür
al t</w>
gew issen</w>
Ratsvor sitz
Metho de</w>
kan ische</w>
pati ents</w>
pri vi
ins ist</w>
3 7</w>
br ut
g ünsti
ver wenden</w>
Wal d
steu er</w>
zusätz lichen</w>
Grenz e</w>
ri </w>
fa i
ziem lich</w>
fül lung</w>
strateg ischen</w>
Wirtschaf t
prä z
ass ess</w>
ben achteili
leader ship</w>
Energi en</w>
L atin</w>
eed ed</w>
wirk lichung</w>
Rati fizierung</w>
Gerech tigkeit</w>
l le</w>
A ID
gr ö
mor al</w>
Steu ern</w>
sa ch
t au
un be
se eing</w>
erinn ert</w>
italien ischen</w>
Untersuch ungen</w>
Agen turen</w>
me at</w>
Bereit stellung</w>
W asser</w>
Gegen stand</w>
sus p
is iert</w>
ver lassen</w>
in ely</w>
zu erst</w>
perfec tly</w>
beinhal tet</w>
der te</w>
Vor teil</w>
ta il</w>
gleich heit</w>
durch führen</w>
Ver kehr
restruc turing</w>
pro spec
multin ation
argu ment</w>
Resol ution</w>
ben u
under taken</w>
B ürokrati
s hap
War en</w>
verän dert</w>
Besch rän
us ers</w>
Pro zeß</w>
ge beten</w>
vor aus
Ver heu
signific antly</w>
Übri gen</w>
t te</w>
pro zeß</w>
Sol ana</w>
belie ves</w>
v on
3 .</w>
plan ts</w>
won ach</w>
an te</w>
GU E</w>
ti erten</w>
beru ht</w>
Ver wirklichung</w>
zer r
zusammen zu
Poli z
produc ing</w>
a y
S al
b es</w>
gel n</w>
pris on
min ute</w>
soli di
an sprechen</w>
o w</w>
univers al</w>
grö ßer
unter schei
on going</w>
suffici ently</w>
S port</w>
Ein schrän
s er</w>
Metho den</w>
suff er</w>
pro ved</w>
comp ul
Per son</w>
Verheu gen</w>
W TO-
Wirtschafts politik</w>
ab en</w>
st opp
tex ts</w>
cap it
fest gelegten</w>
nehm bar</w>
kurz fris
hinzu fügen</w>
Bes ei
mitg lie
medic al</w>
condem n</w>
vorhan den</w>
some one</w>
tig te</w>
n a
dri ving</w>
k n
Ash ton</w>
em m
Bud get</w>
Staats -</w>
ran g</w>
b ann
ver stehe</w>
pre -
sto ßen</w>
prä sen
off ered</w>
absen ce</w>
Abstimm ungs
strö m</w>
2 .</w>
E W
lear ning</w>
Sch aden</w>
G M
G AP</w>
är en</w>
teu erung</w>
adv ance</w>
H älfte</w>
care ful</w>
ein gebracht</w>
Ver sammlung</w>
zu ständig</w>
manufac tur
ra dic
af ri
C he
Consu mer</w>
Wirtschafts krise</w>
I T
Aus arbeitung</w>
acci dents</w>
be zü
Lebens mittel</w>
Besei tigung</w>
p le</w>
Ko oper
dispos al</w>
he av
den den</w>
P S
tu m
dür fte</w>
qu ar
identi ty</w>
beschrän ken</w>
Sta ates</w>
vir tu
T age</w>
län dischen</w>
Ver halten</w>
glau b
über ein
transi tion</w>
is ter</w>
M ü
pre ise</w>
zunehmen d</w>
ul ture</w>
signific ance</w>
Energie effizienz</w>
Zyper n</w>
re ser
In kraft
k amp
dec la
Teil nahme</w>
erlau ben</w>
h ü
Au gust</w>
regel ung</w>
Frü h
amen ded</w>
par liament</w>
ne ws</w>
ko st
un möglich</w>
Fak toren</w>
Stabil itäts
b li
del eg
unver züglich</w>
thre aten
ende av
extre me</w>
verur teilen</w>
genü gend</w>
lich ten</w>
en -
sor y</w>
Bereit schaft</w>
19 7
ex tr
wä s
politi ken</w>
difficul ty</w>
mark ed</w>
Ö ffnung</w>
sen den</w>
satis fied</w>
st -
betra cht</w>
den jenigen</w>
re stor
leg ally</w>
Gaz a</w>
refer ring</w>
An betracht</w>
S af
E R
0 -
shor t
ich s</w>
ac tively</w>
ves sels</w>
pla ying</w>
er lebt</w>
dist inc
Al li
roo m</w>
l a</w>
Haushal ts</w>
so dass</w>
ver letzungen</w>
grenz e</w>
ec ke</w>
sur vi
u tive</w>
ver trag</w>
Bedro hung</w>
Hung arian</w>
en vis
Mechan ismen</w>
Pati enten</w>
zusätz lich</w>
ackno wledge</w>
teil nehmen</w>
verursa cht</w>
Fäh igkeit</w>
tz ei
grenzüberschreit enden</w>
genu inely</w>
schwer wie
highli ghted</w>
L it
ex ports</w>
is ol
fu els</w>
ati schen</w>
vis ory</w>
ung er</w>
neu tr
Aus nahme</w>
Fisch ler</w>
Pal ästin
mit teilen</w>
sp h
bew ußt</w>
resul ting</w>
Prot ection</w>
Zu ck
Eng l
hei m
bre ak</w>
zi g</w>
ab ilities</w>
wär tige</w>
rech tzei
langfris tig</w>
pro ch
re m
f ak
He ads</w>
p sych
Lebensmittel sicherheit</w>
Chan cen</w>
interpre tation</w>
don es
asi de</w>
kehr en</w>
Hindern isse</w>
bre ite</w>
frü heren</w>
sch reck
gan g
beein träch
ben en</w>
en kt</w>
sustain ability</w>
Chan cen
Mon at</w>
negoti ation</w>
Vol l
Vol kes</w>
kulturel le</w>
wat ers</w>
besteh ende</w>
überzeu gen</w>
tex ti
Emp loyment</w>
Wirtschaftswachst um</w>
valu able</w>
sicher gestellt</w>
inves tieren</w>
beabsichti gt</w>
er hält</w>
deli ber
primar y</w>
St and</w>
Fin land</w>
E F
Au stausch</w>
gerä umt</w>
bish eri
zentr ale</w>
gew ün
ste chn
ch in
ver lässi
v ings</w>
mi en</w>
Ur spr
Liber alen</w>
ei ra</w>
an sch
ag ne</w>
ge ehrte</w>
Rech ten</w>
Er weiter
gegenwär tige</w>
H O</w>
Beit räge</w>
N ein</w>
defic it</w>
ver weisen</w>
S ing
f ert</w>
inv est</w>
Frau en
sha dow</w>
befürwor ten</w>
199 2</w>
compul sory</w>
ti ere</w>
schä tzen</w>
Demo kraten</w>
cho ose</w>
re min
fig ure</w>
ni veau</w>
ger in
ut ung</w>
Proto col</w>
et te</w>
ter nal</w>
D u
consider s</w>
Vor lage</w>
Ein stellung</w>
d ated</w>
Th urs
Au to
si eben</w>
Gipf el
G DP</w>
cla im</w>
J ourn
Er forder
angenommen en</w>
le ads</w>
Krä fte</w>
Führ ung</w>
Su dan</w>
tele vision</w>
satisfac tory</w>
A ktions
gen ce</w>
isch em</w>
entfern t</w>
Re present
off enen</w>
te in</w>
M ot
inf rin
Program men</w>
gere gelt</w>
buil t</w>
spezi ellen</w>
gen ie
4 8</w>
sch reiben</w>
laun ch</w>
dien st</w>
e f</w>
E Z
cons ci
Sek tors</w>
mo bi
PPE- DE</w>
Georgi a</w>
h aus
neighbour s</w>
Chancen gleichheit</w>
de x</w>
an gehen</w>
pe ti
mangel n
ber n</w>
mi ß
Men ge</w>
gem äß
bedauer lich</w>
Ele k
M ich
Wh ite</w>
A T
prepar ation</w>
enjo y</w>
ausgezeichne te</w>
sta at</w>
h im
Ban ken</w>
Ge werk
Thurs day</w>
k tiv</w>
Lauf e</w>
gewähr en</w>
türk ischen</w>
destruc tion</w>
F eder
Allgem einen</w>
dies bezü
p rise</w>
co de</w>
Vertre tern</w>
Vertra ges</w>
stim ul
Entsch lossenheit</w>
Sen kung</w>
Man gel</w>
th -
Fremden verkehr</w>
e fully</w>
Is lam
K openhagen</w>
c ars</w>
koh är
mil k</w>
Bevölk erungs
w ine</w>
in folge</w>
on e-
Um struktur
bed ing
er er</w>
regre t
reques ts</w>
be ur
spe ech
Mr d.</w>
el se
Nach hal
acc es
st ant</w>
mes sen</w>
compati ble</w>
Pre mier
else where</w>
pre viously</w>
demo graph
Verle tzung</w>
run ning</w>
sch em
sugges ted</w>
vis ib
da ily</w>
Mo dern
hö here</w>
an spruch
gefähr det</w>
Nor thern</w>
disap pe
Ide en</w>
liber al</w>
assu me</w>
be comes</w>
Schi ffe</w>
avi ation</w>
mensch liche</w>
weit gehend</w>
würdi g</w>
militär ischen</w>
a des</w>
gesch ä
ur ban</w>
Mechan ismus</w>
attemp ts</w>
neighbour ing</w>
par tly</w>
Gre ens</w>
Sou verän
Hand lungs
laun ched</w>
ev a</w>
M erk
D e</w>
Lissabon- Strategie</w>
F ang
regar ded</w>
sup p
tar ge
mati k</w>
proble me</w>
200 7-
ehemali gen</w>
ver häl
g a</w>
Fischerei politik</w>
multil ateral</w>
transi tional</w>
medic ines</w>
an da</w>
ange kün
t al</w>
fri ends</w>
St atisti
main tained</w>
sen sib
speech es</w>
col labor
th eit</w>
an zunehmen</w>
Ur sachen</w>
Verbrauch ern</w>
constitu te</w>
K lim
Con trol</w>
Schul z</w>
Kontin ent</w>
environ ment
auf nehmen</w>
Zus atz
steh ende</w>
Er haltung</w>
Umwelt schutz</w>
ri es</w>
le y</w>
N iz
Energi es
wirk liche</w>
ori ent
Austri an</w>
promis ed</w>
Spra chen</w>
stru g
con vic
benö tigt</w>
Abgeordne ter</w>
entwick elten</w>
pos sibly</w>
hori zon
Nach druck</w>
trans l
V AT</w>
Stock hol
Kon vergen
b ürokrati
arbeit s
Bürgerbeauftra gten</w>
Ver halten
Krank heit</w>
bereit gestellt</w>
decla red</w>
be zeichnet</w>
dou ble</w>
K ategor
n ischen</w>
num bers</w>
welt weiten</w>
lo gi
schwieri ge</w>
ziel e</w>
spra ch
me ant</w>
ac compan
För der
ob je
fest zustellen</w>
umfassen d</w>
neh me</w>
investig ation</w>
angemessen en</w>
indic ated</w>
g ischen</w>
Protokol ls</w>
gro ß</w>
Brit ain</w>
ung ar
Tei le</w>
Be w
Person en
Vor rang</w>
ven ts</w>
Kon text</w>
than king</w>
rele ase</w>
oc cur
Stru ktur</w>
essen tially</w>
Rechnungsh of</w>
or ies</w>
be einf
je gliche</w>
ar t</w>
ein geleitet</w>
geh enden</w>
re ds</w>
K op
geb illi
Aus grenzung</w>
oppos ite</w>
1 1.
wirtschaf tlich</w>
phy si
y mp
Sit uationen</w>
an -
rel ativ</w>
au dio
versch är
Gesetz es
über winden</w>
is on</w>
an ces</w>
Ge ist</w>
pro of</w>
Ver ab
cle ar
th ly</w>
Ver ts</w>
6 -0
obli ged</w>
prison ers</w>
re in</w>
poin tment</w>
Gef än
identi fy</w>
concentr ate</w>
beschrän kt</w>
intel lec
An lass</w>
Bel ast
Ex ternal</w>
3 2</w>
N ice</w>
An gebo
Schwer punkt</w>
Dub lin</w>
spec ies</w>
da fri
ein sei
Wesent lichen</w>
great ly</w>
wen t</w>
rap i
Weit eren</w>
gemein schaft</w>
Inter nal</w>
stitu tion</w>
Par lia
viel er</w>
veran k
eri ode</w>
EI B</w>
über ra
Tä tigkeiten</w>
Din gen</w>
al -
Nachbar n</w>
befürwor tet</w>
sch ritt
pas siert</w>
letz ter</w>
K OM</w>
adver tising</w>
Sch atten
gebie ten</w>
al co
Perspe ktive</w>
Ziel setzungen</w>
in adequate</w>
i ed
1 1.</w>
enfor cement</w>
open ed</w>
Ern ähr
deli ver</w>
schrif tliche</w>
funktion ieren</w>
12 .00</w>
sor gungs
gn is
ar d
jud g
Arbeitsplat z</w>
Genehm igung</w>
identi fied</w>
am s</w>
Hin weis</w>
zu künftigen</w>
groß em</w>
1 ;</w>
&#9 1;</w>
Bro k</w>
Respe kt</w>
Wiederauf bau</w>
ep tion</w>
Leist ungen</w>
bewäl tigen</w>
näch ster</w>
tes ts</w>
an er</w>
fav ourable</w>
In dones
pos sibilities</w>
Op position</w>
where as</w>
militär ische</w>
T amp
Proble matik</w>
en ing</w>
A -
offen bar</w>
AID S</w>
Sch luß
behaup ten</w>
neg ativen</w>
tra gic</w>
complic ated</w>
zurück zuführen</w>
d ul
in er
Konfli kte</w>
Unter schied</w>
len ken</w>
interes siert</w>
schle cht</w>
zi vil
re construction</w>
Ge fühl</w>
ad t</w>
palästinens ischen</w>
ei m
Ver trau
compe tent</w>
fi es</w>
hon our</w>
Entwicklungsh ilfe</w>
th u
Gemein schaften</w>
hund reds</w>
fahr ens
s eh
deser ves</w>
voll ständige</w>
sus pen
it age</w>
necess arily</w>
finanzi eren</w>
P läne</w>
re move</w>
stell te</w>
einzel ne</w>
con tain</w>
gele gte</w>
es ten</w>
Posi tionen</w>
Bur ma</w>
ener gie</w>
vor sieht</w>
Ur teil</w>
stei gen</w>
at ures</w>
aff ir
la p
exten sive</w>
San ter</w>
ge g
comple ted</w>
ger aten</w>
propor tion</w>
Tamp ere</w>
Presiden ts</w>
timet able</w>
o wn
Kooper ations
komple x
Mil ch
def en
Vorsitz enden</w>
di stor
besonder er</w>
i on
wer ke</w>
Nation al
über aus</w>
le m</w>
guarante eing</w>
Kandi dat
conf ron
an gewandt</w>
Er reichung</w>
un il
T isch</w>
ed ing</w>
E D
Ungar n</w>
Ab hängi
ic ate</w>
G ar
tri eben</w>
deb ated</w>
Regu lierung</w>
ac ted</w>
S omm
will ing
Ru ß
Her kunfts
him self</w>
woh l
scho ol</w>
ex por
garan tiert</w>
Verhalten s
Er richtung</w>
car rying</w>
au stausch</w>
or e</w>
Alli anz</w>
co ast
bes u
Qu es
S cot
St ro
vor bereitet</w>
gener ell</w>
e ties</w>
wesent licher</w>
Er füllung</w>
op tions</w>
ver z
se kre
ali a</w>
4 .</w>
Kon vention</w>
affec ts</w>
vor liegen</w>
su itable</w>
Belgi an</w>
gen -
der er</w>
implic ations</w>
fre uen</w>
w -
suff ered</w>
exp lic
hal ts</w>
Sach ver
cho sen</w>
Energi equ
f isch
ran che</w>
cent res</w>
be antworten</w>
S ad
ate g
top ic</w>
2 1.</w>
appro xim
Durch setzung</w>
help ed</w>
W all
heal thy</w>
z ungen</w>
sou thern</w>
in ev
rau ms</w>
E M
b all</w>
bro a
n one</w>
ze go
be fasst</w>
faci lities</w>
kon stru
l eng
es ische</w>
r ichtet</w>
su che</w>
s lo
spezi elle</w>
Her zego
issu ed</w>
geh ende</w>
Völk er
Dritt staaten</w>
J e
ra ising</w>
gerech tfer
H </w>
Poten zi
Ver ordnungen</w>
hear ing</w>
Aus weit
&#9 3
&#93 ;</w>
compe ten
Re vision</w>
conduc ted</w>
Kroati en</w>
tri eb
pri or
Partn ern</w>
Auf hebung</w>
enn ess</w>
chair man</w>
re ven
ich ert</w>
after noon</w>
tradi tion</w>
ir re
v it
A ktion</w>
d wide</w>
tz ungen</w>
zah ler</w>
ge führten</w>
Min uten</w>
ic k</w>
Ju gend</w>
ne ar</w>
T en
ge teilt</w>
ore st</w>
ü st
no body</w>
Wahr ung</w>
vor stellen</w>
pp ing</w>
N RO</w>
Kap az
R oh
willing ness</w>
man che</w>
Saf ety</w>
för derung</w>
se eks</w>
Verab schied
be aring</w>
Ab fall
ta r</w>
po orest</w>
es day</w>
verbun denen</w>
is mus
wa ffen</w>
soci eties</w>
Ausweit ung</w>
Garanti en</w>
C S</w>
Hal b
Doku mente</w>
ateg ory</w>
Ex isten
Aus maß</w>
religi ö
c op
ssi er</w>
Techn ologie</w>
op enness</w>
zu gän
trage dy</w>
sh aushal
gel ingt</w>
Aut onom
su gar</w>
u l</w>
I M
defin itely</w>
verab schieden</w>
Verabschied ung</w>
address ing</w>
exten ding</w>
prospec ts</w>
audio vis
W issen</w>
d ol
Prä sidi
Menschenrechts verletzungen</w>
müs ste</w>
geb unden</w>
uni form</w>
I mp
Niz za</w>
ell es</w>
Mehr wert
he ad</w>
em en</w>
Klar heit</w>
d sch
us h</w>
N S</w>
Bürokrati e</w>
J a</w>
B IP</w>
ati ver</w>
diplom atic</w>
C i
Don ner
Represent ative</w>
rati fied</w>
Besch luß</w>
de als</w>
schem es</w>
W omen</w>
Ges ellschaften</w>
sp read</w>
Dem on
os oph
fl ü
consider ations</w>
Reg el</w>
D än
zu gr
fu sion</w>
be fu
gemeinsam es</w>
sur v
bedeu tende</w>
ir able</w>
rinzi p</w>
er weiter
land wirtschaftlichen</w>
Fo od</w>
n es</w>
F ri
Souverän ität</w>
T elek
Be achtung</w>
Kenn zeichnung</w>
Ein kommen</w>
Be grün
r at
con stant</w>
Donner stag</w>
c rop
inten tions</w>
worl dwide</w>
0 .
Stra ft
Z ul
as s</w>
Belgi um</w>
where by</w>
Anmerk ungen</w>
pri or</w>
gehand elt</w>
sti ge</w>
con tro
b ing</w>
ökonom ischen</w>
se bene</w>
dru g</w>
Rau ms</w>
Au ge</w>
P a
Ver breitung</w>
g ap</w>
l ück</w>
ver halten</w>
bil det</w>
recht fer
Tibe t</w>
UN O</w>
keines wegs</w>
ra dio
ei ght</w>
einstimm ig</w>
entscheiden den</w>
drück en</w>
fre ih
aus gerichtet</w>
kap it
Grün buch</w>
F u
Regional politik</w>
müs sten</w>
reli able</w>
langfris tige</w>
sto ß</w>
nation als</w>
i ze</w>
success fully</w>
govern ing</w>
fair ly</w>
M er
mark t
E L
we alth</w>
Gali le
Ang st</w>
W as</w>
extr a</w>
sor ry</w>
in st
defin i
weis ung</w>
Menschenrech ten</w>
cu ts</w>
Li thu
3 4</w>
Hung ary</w>
bestimm ungen</w>
sym pa
klär ung</w>
sek tors</w>
her gestellt</w>
zu gestimmt</w>
respon ding</w>
199 3</w>
bedau ere</w>
Soci alists</w>
For um</w>
gi gen</w>
Stim men</w>
tel ec
sp ite</w>
2007- 2013</w>
e ken</w>
ö sterre
Poliz ei</w>
z edon
Bil d</w>
ar ise</w>
alis iert</w>
w an</w>
Verteidigungs politik</w>
Wür de</w>
ten tion</w>
z ens</w>
S am
1 ,
re isen</w>
Kris en
zufrie den
excep tion</w>
ten e
Ol ymp
pu rely</w>
ag gre
schwe dischen</w>
Region al</w>
demand ing</w>
Zeit plan</w>
Sad dam</w>
Um gang</w>
hier zu</w>
Gan g</w>
si ght</w>
uropä ischen</w>
Ser bien</w>
Einwander ungs
Slo wak
imag ine</w>
o ber
Inter essen
if f</w>
zäh lt</w>
+ </w>
stä d
strateg ische</w>
foc used</w>
oph ob
über lassen</w>
H ol
fe ed</w>
Finanzi erungs
P an
acci dent</w>
zugr unde</w>
P en
cor e</w>
accord ingly</w>
Fl or
stän de</w>
pen sions</w>
ch eck</w>
mis take</w>
l esen</w>
si li
fir e</w>
n ungs
ver tritt</w>
anges ehen</w>
Nachhal tigkeit</w>
inter institutional</w>
Land wirtschafts
st ein</w>
g keits
deta illi
p e</w>
h inter
Trag ö
betre iben</w>
thre ats</w>
C F
T ro
gran ting</w>
aus üben</w>
ch ap
r ation
max im
grei ft</w>
Pal ästinens
ten e</w>
in akzeptabel</w>
rel atively</w>
sol ely</w>
gesch rieben</w>
unanim ously</w>
ó n</w>
sorgfäl tig</w>
stre am
gebra chten</w>
Ge fan
ter ri
3 3</w>
ein ameri
herr sch
st ag
EC B</w>
gemeinsam er</w>
her vor</w>
Freih andel
über greif
hin gegen</w>
3 6</w>
5 5</w>
aus wirken</w>
Hil fs
every body</w>
Mon tene
aus geschlossen</w>
D oh
erlau bt</w>
R ec
Au th
k tes</w>
loo ked</w>
v in
Er arbeitung</w>
üs sen</w>
dep end</w>
Doh a</w>
ch em</w>
ref ers</w>
österre ich
sph äre</w>
zw ingen</w>
fore most</w>
tion ary</w>
de par
zweit er</w>
Aut om
for um</w>
increas es</w>
correc tly</w>
St reit
St unden</w>
geograph ical</w>
taxpay ers</w>
wissen schaftliche</w>
o m</w>
Zah lungen</w>
be utung</w>
wes enheit</w>
dienst leistungen</w>
lauf enden</w>
k lear
g ü
Ak teure</w>
hop es</w>
er teilen</w>
ess ed</w>
ass ist</w>
pos ing</w>
uneingeschrän kt</w>
b lin
Dan ish</w>
statt findet</w>
determin e</w>
D rit
her zustellen</w>
fre ut</w>
sp orts</w>
be völk
car bon</w>
west lichen</w>
Men sch
sor ge</w>
effizi ent</w>
al em</w>
Inkraft treten</w>
ver w
russ ischen</w>
prof its</w>
easi ly</w>
Aspe kten</w>
S K</w>
Qu alitäts
to ols</w>
heal th
he ading</w>
li e</w>
W est
e astern</w>
Finn land</w>
L ag
Ver fahrens</w>
absur d</w>
remain ing</w>
b our</w>
z eiten</w>
stat tung</w>
shor t-
intellec tual</w>
Schä den</w>
S at
cra ft</w>
poin ting</w>
phenomen on</w>
en abling</w>
besit zt</w>
unabhängi gen</w>
bureauc racy</w>
ver letzt</w>
e ye</w>
us ual</w>
pla yers</w>
CO D</w>
ver gleich
kontrol lieren</w>
redu zieren</w>
stress ed</w>
anerk ennen</w>
harm ful</w>
prinzi p</w>
pa ying</w>
back ground</w>
claim s</w>
Slo ven
Bes onder
zusammen arbeit</w>
m ali
Liber al</w>
di ty</w>
m ü
commun ications</w>
depen ds</w>
T u
de -
f ei
ven tion
dar gelegt</w>
Demon str
vor hin</w>
bre ak
3 8</w>
sin stru
Hel sin
heav y</w>
adap t</w>
rapi dly</w>
Ta i
modi fied</w>
respec ts</w>
Kon kur
V e
tu red</w>
es se</w>
Betri ebe</w>
Subsidiar ität</w>
char ges</w>
w asser
pro sec
regi onen</w>
Slov ak
Behör de</w>
geb lich</w>
her itage</w>
C uba</w>
ro lle</w>
woh ner</w>
i or
wil ligen</w>
Kommunik ation</w>
manufactur ers</w>
spra ch</w>
ab sch
Mitarbeit er</w>
respek tieren</w>
O ri
wor st</w>
di ed</w>
Argu mente</w>
fü gt</w>
d rop
B ir
Aus beutung</w>
Überein kommens</w>
wa ff
advan tages</w>
experien ced</w>
ei dung</w>
Abhängi gkeit</w>
skil ls</w>
disp ute</w>
ge plan
re action</w>
ange wendet</w>
u d</w>
ri gor
E ing
effek tive</w>
sto ck</w>
dec ades</w>
beeinf lus
Er kenn
sta ke</w>
sa vings</w>
gre en</w>
Modern isierung</w>
aus gaben</w>
jen er</w>
ad vice</w>
Erwä gung</w>
beit rä
achie vement</w>
pl us</w>
Ham as</w>
besch leun
Zw ischen
consider ably</w>
Hom e</w>
sich erung</w>
st adt</w>
bes tre
4 9</w>
passen ger</w>
8 .</w>
acqu is</w>
veröffent licht</w>
schließ e</w>
sp end</w>
Funktion ieren</w>
feel ing</w>
Verf asser</w>
Formu lierung</w>
sc and
Vor red
kü m
safegu ar
4 3</w>
do c
An stieg</w>
regul ated</w>
Hoh e</w>
Zu wander
Fak tor</w>
unter suchen</w>
Vor be
Änder ungs
aktu elle</w>
Wichti gkeit</w>
Her stellung</w>
clar ity</w>
Di rek
4 2</w>
wei len</w>
hab t</w>
6 5</w>
wa ge</w>
pra gmati
ge treten</w>
pl ur
Vor stellung</w>
umfas st</w>
fahr t</w>
2 .
power ful</w>
si mil
tak ings</w>
dis cip
histor ical</w>
de cken</w>
wor rying</w>
mi um</w>
stabil ität</w>
zi p
R ass
sta un
re ve
fo unded</w>
d än
Kin no
lin ien
Flücht ling
Kapit al
doub ts</w>
on ed</w>
wor thy</w>
Berat ungen</w>
rec all</w>
r ut
ar med</w>
ter s
führ enden</w>
pi ece</w>
6 .</w>
Comm on</w>
emphas ised</w>
Netz e</w>
Schen gen-
c ategor
ris ing</w>
R E
im por
i .
S äu
betri eben</w>
Ger icht</w>
Bel gien</w>
Identi tät</w>
Refer endum</w>
e .</w>
satisfac tion</w>
l ity</w>
op pose</w>
A s</w>
er enden</w>
campa ign
Ergebn issen</w>
kon tin
Luxem burg</w>
besei tigen</w>
regret table</w>
Schutz es</w>
ific ations</w>
Anhör ung</w>
b as
rü st
bewer ten</w>
Zuständi gkeiten</w>
wirtschaf ten</w>
eindeu tige</w>
fra g
geb il
un an
be gleit
nor men</w>
applic able</w>
es sions</w>
Anwen dungs
sup posed</w>
Mo d
inter nen</w>
eh ol
unter bro
der ed</w>
Mac edon
Jahr zehn
under takings</w>
Energie politik</w>
Finanz krise</w>
hy po
i. e.</w>
E gyp
cris es</w>
R ich
da ssel
geeigne te</w>
hab it
Besit z
usi as
sti ll
Unterneh men
cal cul
dassel be</w>
Europ ar
drück t</w>
restric ted</w>
mor al
control led</w>
Lat einameri
CO 2-
Abstimm ungen</w>
applic ations</w>
minis ter
rechtzei tig</w>
im m
d lichkeit</w>
b lu
E P</w>
komm erzi
j our
trans fer
viol ation</w>
sch lech
hervorra gende</w>
at ur</w>
Auth ority</w>
S -
t land</w>
bes tim
ver dienen</w>
struk turel
Ver fol
Geor gien</w>
pro mp
Kinno ck</w>
Partner ship</w>
ei ler</w>
Recht sa
Kapit el</w>
Sch w
Nach frage</w>
contribu ted</w>
Schatten berichterstat
wäh len</w>
amtier ender</w>
ber aten</w>
ahr t</w>
ek tor</w>
encoura ged</w>
ra k
et c</w>
Augen blick</w>
legitim acy</w>
größ t
prakti sche</w>
s au
anzu wenden</w>
As soci
Aussch üsse</w>
4 00</w>
C 4-0
dict ator
Le ft</w>
gi e
wel chem</w>
Produ kten</w>
EZ B</w>
in hal
enter ed</w>
ans wer
unterbreit et</w>
Bud getary</w>
big gest</w>
o se
S P</w>
proto col</w>
schwer en</w>
Jugen dlichen</w>
all ing</w>
mo dell</w>
gegensei tigen</w>
Niederlan den</w>
wi des
streng th</w>
H under
an wenden</w>
di ge</w>
geb ung</w>
a th
dynam ic</w>
gre ss</w>
erör tert</w>
fir ms</w>
dic tion</w>
französ ische</w>
pur ch
scho ols</w>
un necessary</w>
histor ischen</w>
competen ces</w>
wah l</w>
Kom pro
l ying</w>
lie ber</w>
Premier minister</w>
An träge</w>
fest legen</w>
Ver fahrens
lin gu
ber t</w>
P H
zu kommen</w>
Best re
H äfen</w>
stat ing</w>
finan ced</w>
con vention</w>
citiz en
air lines</w>
Off enheit</w>
tic les</w>
Y or
re place</w>
ar ticle</w>
a dic
comp on
Po st
pr er
Pol ish</w>
reflec ted</w>
statt gefunden</w>
Ter rit
ommun ik
Energiequ ellen</w>
formu liert</w>
k as
Demo c
E V
gra vier
c lassi
region aler</w>
proc essing</w>
Ent schä
bei behalten</w>
P hän
supple mentary</w>
Telek ommunik
vor gehen</w>
Minder heit</w>
besch ließen</w>
w ahren</w>
deli ver
constitu tes</w>
lic </w>
ab lehnen</w>
enh ance</w>
E ri
griech ischen</w>
Richt linien
Dro gen</w>
basi cally</w>
k olle
gerechtfer tigt</w>
grenzüberschreit ende</w>
s ein
y r
is land</w>
Le gi
Sta dt</w>
Subsidiar itätsp
P SE</w>
remo ved</w>
pro ud</w>
Ma zedon
be ef</w>
enthal tenen</w>
Minister rat</w>
ment ation</w>
endgül tige</w>
sch ed
Am t</w>
tw ent
li eben</w>
best ände</w>
simpli fication</w>
überwach en</w>
ou red</w>
ener g
fizi eren</w>
ier enden</w>
negoti ated</w>
dep th</w>
Stabil itätsp
lea ving</w>
ac tors</w>
Sch war
N ational</w>
ne in</w>
Sp it
Z wan
ver la
st olz</w>
eit s
Den mark</w>
zeu g</w>
dis abled</w>
sta y</w>
t ance</w>
Viel zahl</w>
Wirk samkeit</w>
Parlia mentary</w>
Jah re
klär en</w>
Haushaltsp lans</w>
schn eller</w>
targe ted</w>
O per
perform ance</w>
Ju gosla
incorpor ated</w>
Pf lan
af ra
199 0</w>
affec ting</w>
Fort setzung</w>
religi on</w>
Fr ist</w>
sa gten</w>
fort setzen</w>
succ eeded</w>
Betra cht</w>
de tri
Aus sage</w>
wider spie
zu künftige</w>
finanzi erung</w>
Tran s
Ratsvorsitz es</w>
Montene gr
vi ces</w>
Altern ative</w>
Bes teuerung</w>
C NS</w>
c o</w>
un ab
ti se</w>
europ a</w>
hö heren</w>
iz ation</w>
K ir
3 9</w>
per su
cour ts</w>
7 .</w>
fuhr en</w>
qu iry</w>
ehr lich</w>
Poli zei
Mis sion</w>
ent rep
gesund heit
icher maßen</w>
mean ing</w>
Ver teilung</w>
L T</w>
Dän emar
b ot
Grund sätzen</w>
Doku menten</w>
thor ough</w>
aus wärtige</w>
draf ting</w>
ie den</w>
Ab än
klär t</w>
sen ken</w>
citizen ship</w>
Associ ation</w>
bel ast
Rass ismus</w>
u ßer
belie f</w>
u .</w>
w th</w>
Gro wth</w>
vi l</w>
Ä ußer
Ab bau</w>
mus sten</w>
eng age</w>
Mon o
exam ined</w>
T aten</w>
at edly</w>
höch ste</w>
zu r
ein geräumt</w>
k lu
market ing</w>
R oth
regel mäßig</w>
Helsin ki</w>
bekann tlich</w>
Gipfel treffen</w>
konzentri ert</w>
gle ichermaßen</w>
er lassen</w>
represent ation</w>
wor ding</w>
ge tr
freih eiten</w>
Ges icht
s wi
hin aus
Tun is
T A</w>
disp la
rati fiziert</w>
vor zunehmen</w>
ver zerr
sa ke</w>
verstär kte</w>
ver ehrten</w>
O EC
k einem</w>
Jahrhunder t</w>
Ruß land</w>
erör tern</w>
ti m</w>
ri es
de v
reagi ert</w>
str ä
mechan ismus</w>
ob tained</w>
F er
fair en</w>
reiter ate</w>
evi dent</w>
wit n
zu zu
mechanis men</w>
Legisl ativ
statt dessen</w>
Co operation</w>
Steuer zahler</w>
durch zusetzen</w>
er gibt</w>
F I</w>
vol u
Auf enthal
öffent lich</w>
Erweiter ungs
Ar men
et schen
bes tra
lea der</w>
sa ve</w>
im mer
der i
alloc ation</w>
verbo ten</w>
Tsch ech
mo un
fäl lig</w>
Al s</w>
basi ert</w>
Mon ti</w>
demokrati sch</w>
hand el
alis ieren</w>
present ing</w>
consequ ence</w>
bil dungs
sh aring</w>
4 4</w>
post -
Zu stand</w>
ök ologischen</w>
Beam ten</w>
Galile o</w>
F uß
ma p</w>
u rement</w>
enor me</w>
sub jects</w>
sc rut
Wäh ler</w>
Be ziehung</w>
thre sh
j ahr
fu r</w>
interven e</w>
sm aller</w>
tra gung</w>
tig ungen</w>
Stu dien</w>
ne arly</w>
S icherung</w>
Legi tim
Ha iti
applic ant</w>
sit e</w>
ut most</w>
Führ ungs
F assung</w>
mitglie der</w>
Berichterstat tern</w>
vereinbar t</w>
ein gerichtet</w>
Begrün dung</w>
scrut in
R ural</w>
Gr öß
ab stain
P i
d less</w>
B ol
f loo
Mar ok
enti ves</w>
Br enn
illu str
Rand lage</w>
besit zen</w>
re servations</w>
erneuer baren</w>
exclu ded</w>
wah len</w>
würdi gen</w>
elec toral</w>
bedro ht</w>
er setzen</w>
Außen minister</w>
toler ance</w>
ar dis
Jo int</w>
vorhan denen</w>
ver wiesen</w>
Gerichtsh ofs</w>
defin iert</w>
wi es
0 s</w>
al itäten</w>
mi th
Journ alisten</w>
explan ation</w>
Fun ktion</w>
Vor gehensweise</w>
we ak</w>
in ess</w>
congratul ations</w>
fu hr</w>
estim ated</w>
last ing</w>
gleich wohl</w>
ü bung</w>
S ah
W in
g ere</w>
gel ingen</w>
ab end</w>
zur zeit</w>
Montenegr o</w>
bureauc ratic</w>
gebie te</w>
bekräf tigt</w>
län dische</w>
9 .</w>
f lä
be geg
ali zation</w>
part- session</w>
Fra gest
Mor occ
F erns
deser ve</w>
afra id</w>
tre ff
der ly</w>
la ß</w>
größ er</w>
d ing
sum mer</w>
stä tigkeit</w>
tu s</w>
Klimawand els</w>
effizi ente</w>
1 50</w>
ze ichen</w>
gre enh
coun ter</w>
ähn liche</w>
wel comes</w>
im pe
s ought</w>
Klim a</w>
erwähn ten</w>
ber ichten</w>
m acro
unge achtet</w>
beteili gten</w>
an g</w>
Mus li
prof it</w>
f la
s sen</w>
tre aties</w>
Proje kten</w>
al te</w>
anti cip
Män gel</w>
deep ly</w>
re serve</w>
er wiesen</w>
sur ro
A ct</w>
Be trag</w>
icher heit</w>
Ver sorgung</w>
persön lichen</w>
Potenzi al</w>
chec ks</w>
cre ates</w>
mehr fach</w>
cer ti
oblig ator
p ing</w>
Welth andel
alis ing</w>
restor e</w>
ni ght</w>
N et
Mad rid</w>
Koh är
Ein heit</w>
K uba</w>
import antly</w>
begrenz t</w>
employ ers</w>
negoti ate</w>
d licher</w>
ar rest</w>
en e
char ge</w>
Rom an
äußer ster</w>
konstruk tive</w>
8 5</w>
Nachbar schafts
sci ence</w>
unterbreit en</w>
er arbeitet</w>
wi en</w>
endgül tigen</w>
en cies</w>
ausge geben</w>
re au</w>
buil dings</w>
grün den</w>
S port
vie wed</w>
sugges tions</w>
mün dlichen</w>
hier für</w>
join tly</w>
t mals</w>
is ting</w>
Erzeu ger</w>
b rechen</w>
schn itt</w>
verb ie
Bus h</w>
c ast
combin ed</w>
per sec
Re port</w>
im port</w>
Initi ativ
inc entives</w>
um so</w>
Slovak ia</w>
regis ter</w>
l usses</w>
Kandidat en
Mittelmeer raum</w>
ge k
c as
spä t</w>
gi ble</w>
Mil ose
Aus führung</w>
lös ung</w>
ton nes</w>
der og
4 6</w>
of tmals</w>
greenh ouse</w>
li tion</w>
kor rigi
a gen</w>
8 -
Fest stellung</w>
im peri
cons isten
gegen über
erheb lichen</w>
bilater alen</w>
befürwor te</w>
credi ble</w>
connec ted</w>
Ger ichts
f ers</w>
post pon
Arbeitneh mer
P il
terri ble</w>
er fordern</w>
ress ourcen</w>
r und</w>
ein führen</w>
bo und</w>
Konsul tation</w>
peri ode</w>
ad mit</w>
declar ations</w>
V ie
natür lichen</w>
ver wei
v ast</w>
diesel ben</w>
vor nehmen</w>
sin cer
bean tra
prosp ect</w>
mu g
Sü d
Wissen schaft
hal t
Fragest unde</w>
Haf t
express ing</w>
ic ro
Bar on
T ieren</w>
entrep rene
Gener ation</w>
Kommiss are</w>
ob gleich</w>
er teilt</w>
ent gegen</w>
Einwander er</w>
General sekre
Stockhol m</w>
surpris ed</w>
Aus einander
tä glich</w>
Entschließ ungen</w>
sch einen</w>
all -
Assozi ierungs
har dly</w>
Kohär enz</w>
Imp ul
Fr at
zentr alen</w>
Bestimm ung</w>
konsequ ent</w>
repe atedly</w>
vernünf tig</w>
r ats</w>
ad o
einzel staatlichen</w>
Gew icht</w>
ver län
vor liegt</w>
E benen</w>
le m
h ungen</w>
regar dless</w>
bere ichen</w>
ar ti
be währ
ch er
Aus nahmen</w>
eit ern</w>
H us
stat ten</w>
för der
so genannten</w>
Wachstum s
health care</w>
T od</w>
compla ints</w>
Morocc o</w>
auf treten</w>
alis tische</w>
v acc
eth ical</w>
h it</w>
geh e</w>
sho wing</w>
D at
gesetz ten</w>
Katastrop hen</w>
ro ads</w>
Qu ali
mittel s</w>
Bla ir</w>
Vie tn
g ation</w>
Pres se
Gipf els</w>
Amerik a</w>
fle et</w>
. 30</w>
Absch luß</w>
sch ö
mäß igen</w>
in flation</w>
respek tiert</w>
Garanti e</w>
transatlan tic</w>
c yc
ab or
ah me</w>
Er wer
dela ys</w>
Slowak ei</w>
au ern</w>
Kommissions vorschlag</w>
ator ium</w>
Her steller</w>
Äußer ungen</w>
comm o
rac ism</w>
breit en</w>
sett lement</w>
sol ch</w>
bio diversity</w>
Person al</w>
red und
ed s</w>
Kompeten zen</w>
excep tional</w>
K ab
justi fy</w>
tik et
ersch einen</w>
Mazedon ien</w>
führ ende</w>
ge fasst</w>
EG F</w>
L ob
Prä vention</w>
ac king</w>
Wettbewer bs</w>
Unter zeichnung</w>
Ni geria</w>
is tics</w>
ven tive</w>
ter in
econom ically</w>
Res er
off ene</w>
Gest altung</w>
do or</w>
e yes</w>
out standing</w>
wei ght</w>
m em
gi pf
unterschied lich</w>
Konsul t
ir ische</w>
pat ent</w>
pu ts</w>
sich ere</w>
In ner
prepar ations</w>
lich keits
fe wer</w>
mark tes</w>
tari at</w>
Ques tion</w>
mün dliche</w>
unabhängi ge</w>
sym bo
bisheri gen</w>
hil fre
vernünf tige</w>
an de</w>
erwähn te</w>
alco hol</w>
Sub stan
ong side</w>
pla cing</w>
V al
com ings</w>
C as
Leb ens</w>
val ent</w>
Um feld</w>
in wie
ß e</w>
st ages</w>
amp ;</w>
& amp;</w>
sec tion</w>
nach denken</w>
einzu beziehen</w>
Auf trag</w>
kin ds</w>
al ongside</w>
Prü f
feder al</w>
ärm sten</w>
ha z
ci vil
mitt ler
europ a
La eken</w>
ge fragt</w>
elimin ate</w>
tribu te</w>
un employed</w>
dire kte</w>
Frat tini</w>
Mol do
te ach
short comings</w>
two -
M utter
indi re
ge prä
per pe
Besu ch</w>
Terror isten</w>
Ko sten
logi cal</w>
reflec ts</w>
Christ demokraten</w>
draf ted</w>
Ser vice</w>
4 -
ak tiven</w>
ti erte</w>
Tour ism</w>
we chsel
suspen ded</w>
Se ever
r o</w>
au lt</w>
Sozial demokraten</w>
stärk sten</w>
el er
um zu
Wer bung</w>
ag no
läng st</w>
anges tre
pris on</w>
Flu gges
Ten den
beg ünsti
Ä r
G ol
Sy m
sp ap
r auch</w>
E r</w>
fähi gen</w>
sch were</w>
st ing</w>
w onder
tre gi
expen sive</w>
I II</w>
bevölk erung</w>
Finanz mittel</w>
Macedon ia</w>
en er</w>
bestim men</w>
foun dations</w>
Jus tiz
demokrati scher</w>
pleas ure</w>
Dänemar k</w>
er arbeiten</w>
telec ommun
Arbeits gruppe</w>
me is
cor por
broa der</w>
dire kten</w>
erinn ere</w>
EU- Ebene</w>
4 1</w>
Bu reau</w>
sch u
Milose vi
Kü sten
re vised</w>
shi p
repe ated</w>
en ge</w>
li ability</w>
F lo
a g</w>
trans actions</w>
9 2</w>
Insel n</w>
Al ger
tail s</w>
c lu
Alban ia</w>
­ </w>
tri al</w>
zu gute</w>
ne x</w>
Weiß buch</w>
sti pul
Atlan tic</w>
a .m.</w>
den de</w>
em ed</w>
to tal
beobach ten</w>
bel on
beizu tragen</w>
I G
dead line</w>
dra w
unter sucht</w>
läu fig</w>
201 5</w>
geeig net</w>
ar men</w>
z -
Yugosla via</w>
Europ a-
betri ebe</w>
under line</w>
deut liche</w>
Bra zi
c ategory</w>
rel ate</w>
st sein</w>
per cen
us er</w>
Mär kten</w>
te ktion
Ver län
C ulture</w>
amb igu
do wn
Lab our</w>
k riterien</w>
p ed</w>
Betru g</w>
kontrol liert</w>
gebilli gt</w>
penal ties</w>
mo tions</w>
com pu
enen falls</w>
Aus bau</w>
je op
rech ung</w>
air craft</w>
be antwortet</w>
st lichen</w>
shap e</w>
th ers</w>
prakti schen</w>
ess or</w>
I ran
bin dung</w>
drän gen</w>
tackl ing</w>
am es</w>
tr end</w>
e is
st atisti
gh äfen</w>
i red</w>
gest altet</w>
Kul turen</w>
candi dates</w>
Mat eri
pre ad</w>
expla ined</w>
Ministerprä sident</w>
gelan gt</w>
Stabilitäts -</w>
Grund freiheiten</w>
hon est</w>
pp e</w>
protec tion
bel ow</w>
y outh</w>
dig ital</w>
zu stande</w>
tra ck</w>
k as</w>
Yor k</w>
t ability</w>
peri ods</w>
gegeb enenfalls</w>
Auff or
T AC
Kern kraft
nah e
D am
wides pread</w>
mer e
K al
Argu ment</w>
ent standen</w>
sever e</w>
Krie gs
hoch wer
T onnen</w>
auth or</w>
Ehr e</w>
Tim e</w>
aci o</w>
ier ende</w>
Islam ic</w>
grundle gender</w>
expen se</w>
bedauer licherweise</w>
Ein e</w>
In dustry</w>
Hus sein</w>
geneh mi
gh ter</w>
pic ture</w>
Pres se</w>
Tit el</w>
Ferns eh
G V
acc ur
PS E-Fraktion</w>
gu n</w>
bedeu tenden</w>
Bewe gung</w>
pas st</w>
Menschen handel</w>
Rück kehr</w>
hand els</w>
Euro zone</w>
Steu er</w>
fre sh</w>
tatsäch lichen</w>
war mly</w>
boo st</w>
ab geben</w>
Parla mentar
Binnenmark ts</w>
resul ted</w>
cover s</w>
Gu an
hervorra genden</w>
A 5-00
Euro st
mo del
sit es</w>
Über arbeitung</w>
less ons</w>
u g
Ar ab</w>
be endet</w>
Autom obil
educ ational</w>
General dire
ash ing
ec ological</w>
si x
roo ts</w>
kil led</w>
tran se
di versi
terror ists</w>
i fied</w>
wirtschaf tung</w>
ar re
enhan ced</w>
canc er</w>
über prüft</w>
Ci vil</w>
Vorred ner</w>
Ch em
rail way</w>
physi cal</w>
Treib haus
kur ze</w>
t aus
war ning</w>
on n
des t</w>
14 9</w>
undermin e</w>
mar ine</w>
f unded</w>
fore st</w>
sch auen</w>
Zun ahme</w>
l are</w>
metho den</w>
EU R
Rin d
interess ant</w>
famili ar</w>
W ashing
E MU</w>
re tain</w>
ursprün glich</w>
erforder liche</w>
k al
condem ned</w>
Vereinig te</w>
kan di
abo lition</w>
Konta kt</w>
füh len</w>
öffent licher</w>
deb at
air ports</w>
Regu li
unter gr
se u
exp an
ig no
ni er</w>
ter ungen</w>
Be wäl
Rahmen programm</w>
ar ten</w>
kl einer</w>
Kandi daten</w>
un den
in sufficient</w>
secre t</w>
l -
um gehen</w>
ck er</w>
ari o</w>
leit ung</w>
ambi tion</w>
Betrieb s
Is la
pre serve</w>
ge dacht</w>
geh ol
extre m</w>
Über gang</w>
Inner es</w>
ausreich ende</w>
verein bar</w>
Ratspräsiden ten</w>
isch -
los ses</w>
Bewäl tigung</w>
depen dence</w>
vor her</w>
g licher</w>
afri kanischen</w>
ein halten</w>
auf t</w>
L ohn
Me dien
über sch
be zieh
ser b
Palestin ians</w>
ber at
Produ k
cel eb
o da</w>
lie fern</w>
aus gehend</w>
Arbeits bedingungen</w>
h et
En d
re di
s co
fre ely</w>
Ver lauf</w>
Ausnah mere
ges ichert</w>
S wob
e ar</w>
journ alists</w>
gradu ally</w>
tr ü
ci ally</w>
regul ate</w>
mus ste</w>
Ar me
Heimat land</w>
unfortun ate</w>
ungs -</w>
ver mitteln</w>
weit aus</w>
Lib y
quot a</w>
sit zung</w>
enth usias
gab en
lar ger</w>
regul ar
ge kenn
unzureich end</w>
bedau ern</w>
program men</w>
p lä
Schul en</w>
4 -00
rech nen</w>
dn ess</w>
versch mutzung</w>
be zahlen</w>
be kun
te x</w>
vi able</w>
Finanzi ellen</w>
be came</w>
collabor ation</w>
ab gegeben</w>
d .
W erten</w>
dem ic</w>
C iti
Unter drück
pres sive</w>
out set</w>
ernsthaf te</w>
Ein schätzung</w>
m its</w>
Verfol gung</w>
d ge</w>
gefähr lich</w>
s ing</w>
Gleich behandlung</w>
au ßen
T ausende</w>
Entwicklungs zusammenarbeit</w>
per mit</w>
umwelt freund
zu lässi
Quo ten</w>
un certainty</w>
her aus</w>
persön liche</w>
u ted</w>
ik a</w>
coordin ate</w>
W andel</w>
sch lage</w>
hei k
PP E</w>
Dar fur</w>
A pp
l ust</w>
ph il
der jenigen</w>
ver zeichnen</w>
ein treten</w>
mobi le</w>
S om
Verlän gerung</w>
Sch ick
steu ern</w>
F ar
lar s</w>
el derly</w>
k ers</w>
in en</w>
occur red</w>
re loc
St ei
ed y</w>
langfris tigen</w>
I L
p act</w>
C ot
sch wei
Dol lar</w>
sha res</w>
s ac
Marok ko</w>
produ kte</w>
Finan zen</w>
ar my</w>
her bei
R unde</w>
größ ter</w>
Gu ine
I I
zu sagen</w>
coun t</w>
realis tisch</w>
civili an</w>
caus ing</w>
recei ving</w>
dafri ka</w>
pi elt</w>
ent steht</w>
indic ators</w>
ou gh
Beschrän kungen</w>
ma y
Lithu ania</w>
wä chen</w>
Z er
Swob oda</w>
Su per
proje kte</w>
C E</w>
PPE- DE-Fraktion</w>
Drit tel</w>
wirtschaf t
erfre u
Kraft fahr
krä f
sup por
Pal acio</w>
ik o</w>
eingere ichten</w>
ar ising</w>
ra w</w>
telecommun ications</w>
Zw ecke</w>
rec yc
alis ierten</w>
recommen d</w>
lie derung</w>
w are</w>
off ering</w>
indic ate</w>
popul ations</w>
kl ausel</w>
dec lare</w>
ger ing</w>
stu dents</w>
W ün
wäs sern</w>
Frieden s</w>
eben e</w>
b aus</w>
effizi enter</w>
Wachstum sp
di eren</w>
ie ty</w>
te am</w>
finan ces</w>
tz ten</w>
z lichen</w>
amen d</w>
su ms</w>
Tai wan</w>
Vis ion</w>
auf s</w>
er gebn
it te</w>
kre is</w>
h ouse</w>
Rind fle
Rech en
pre dic
zü ge</w>
accompan ied</w>
dea ths</w>
Ver trägen</w>
erneuer bare</w>
Organ en</w>
Mar tin</w>
son sten</w>
Hö chst
er es</w>
de pri
lan gem</w>
deut sche</w>
prec au
ordnungs gemäß</w>
pursu ant</w>
E EC</w>
gefähr den</w>
qual ifications</w>
D auer</w>
Br ut
proc urement</w>
ausgewo genen</w>
fru it</w>
ignor e</w>
fai th</w>
Statisti ken</w>
will kommen</w>
on y</w>
at so
bevor stehenden</w>
Mehr wert</w>
mitt lung</w>
gegensei tige</w>
m isch
über mitteln</w>
di um</w>
Gen eva</w>
simil arly</w>
Vizeprä sident</w>
einfach e</w>
Parla menten</w>
Beschäftig ten</w>
fore sts</w>
K lu
höch st</w>
is tri
extra ordinary</w>
offen kun
Peti tions
gran ten</w>
sugges tion</w>
be weisen</w>
Mitentschei dungs
c ei
with draw</w>
Fron tex</w>
lie genden</w>
dig it
leg ed</w>
müß te</w>
eng aged</w>
unanim ous</w>
divi ded</w>
frequ ently</w>
a il</w>
Geschlech ter</w>
dri vers</w>
inter governmental</w>
obser ved</w>
her auszu
Anrei ze</w>
Gener ationen</w>
Ei gent
Jahres bericht</w>
EW G</w>
Bar nier</w>
Baron ess</w>
ar ab
Präsidi um</w>
Tragö die</w>
Verän derung</w>
environment ally</w>
wa gen</w>
beiträ gt</w>
Indi k
Hum an
katastrop hen</w>
Flu ghäfen</w>
nah e</w>
, 5</w>
gewähl ten</w>
territ ories</w>
mäß ige</w>
mäß igkeit</w>
wid ely</w>
erläu tern</w>
hau shal
Transpor t
Bosn ia</w>
o red</w>
gener ations</w>
4 7</w>
system en</w>
her stellung</w>
Stand punkte</w>
u red</w>
Kür ze</w>
6 7</w>
demonstr ates</w>
RE AC
enttäu scht</w>
u ally</w>
f em
organ ise</w>
Risik o
tre at</w>
sum mar
pak et</w>
Ver lust</w>
h s</w>
approxim ately</w>
listen ed</w>
B S
coher ence</w>
C entre</w>
B ah
im men
par ents</w>
ens yst
four th</w>
Z imbabwe</w>
er b
comm it</w>
ver wir
under take</w>
gewis ser</w>
berech tigt</w>
gele is
Verantwor t
nah m</w>
gest altung</w>
m ere</w>
ri k</w>
Can ada</w>
deter ior
cle an</w>
fes ten</w>
exis tiert</w>
er setzt</w>
est y</w>
5 1</w>
pf lan
low s</w>
F utter
sichti g</w>
li min
mas si
acces sible</w>
beg an</w>
A z
under taking</w>
zu tage</w>
de fiz
associ ations</w>
uner lässlich</w>
prevent ed</w>
li erten</w>
V or</w>
Eurost at</w>
Stra ßen</w>
tra gs
ges pielt</w>
nah me
is ted</w>
erzi elten</w>
Engl ish</w>
ol a</w>
shor tly</w>
Des halb</w>
elektron ischen</w>
verm ieden</w>
bel e
E tiket
de ep</w>
z enten</w>
ten der</w>
visib le</w>
st ab
d ance</w>
Americ ans</w>
M it</w>
Informations gesellschaft</w>
tz ungs
wur fs</w>
wid men</w>
Geb rauch</w>
öff nen</w>
l or
ch ain</w>
necess ity</w>
unterbro chen</w>
parlamentar ische</w>
Tsch etschen
present ation</w>
auf bauen</w>
supp lies</w>
H y
Milosevi c</w>
z er</w>
mit zu
Su che</w>
Bo den</w>
demograph ic</w>
k ehol
an sonsten</w>
ster ben</w>
En ts
ne y</w>
Wissen schaft</w>
Mi gration</w>
H u
S A
Vertre tung</w>
konstru ktiven</w>
de t
wirk samen</w>
promo ted</w>
begrün det</w>
cont acts</w>
T rupp
Ver letzungen</w>
Haup tz
R eh
har t</w>
gh ten
Be urteilung</w>
sen ding</w>
der e</w>
ern ste</w>
ei ll
E R</w>
eini gt</w>
aufzu bauen</w>
behaup tet</w>
gewis s</w>
So vi
to x
eröff net</w>
staat licher</w>
auf er
colle ction</w>
Nachbarschafts politik</w>
V it
er weisen</w>
se ek
contrac t</w>
Schick s
Proz ent</w>
ho her</w>
ge be</w>
contro versi
da vor</w>
ser ved</w>
be denken</w>
ges ellschaften</w>
Kon zentr
h our</w>
Er inn
exter nen</w>
C a
genau er</w>
ein sch
schritt weise</w>
verän dern</w>
Mi grations
bel ong</w>
th i
stu ffs</w>
inform al</w>
er o
transi t</w>
r ant</w>
5 6</w>
anges proch
inn ere</w>
y pri
stitu tion
post al</w>
bin den</w>
Ä gyp
sen z</w>
Konfli kt
em o
Haushalts jahr</w>
kehr t</w>
K at
cou ple</w>
be enden</w>
organis ierten</w>
Haiti </w>
Zu ge</w>
Sch reiben</w>
Sing le</w>
eig n</w>
an st
abstain ed</w>
E in</w>
rit ts</w>
man i
re ported</w>
unterschei den</w>
für halten</w>
Da fürhalten</w>
ti ous</w>
Par is</w>
hop efully</w>
Unternehmen s
Rech tsp
Kommunik ations
rou te</w>
ali tion</w>
sincer ely</w>
nütz lich</w>
groß ar
direc ted</w>
th alten</w>
sprü che</w>
Vor wand</w>
do ku
defin ing</w>
nahe zu</w>
tor ture</w>
kriti siert</w>
rah mens</w>
altern atives</w>
setz ungs
no ise</w>
zwei f
k örper
Washing ton</w>
Sub ventionen</w>
Volks wirtschaften</w>
cust om
Lateinameri ka</w>
zugän glich</w>
sover eign</w>
tim ely</w>
radic al</w>
Existen z</w>
consisten cy</w>
Netz </w>
Citi zens</w>
Zuck er
benefi cial</w>
fort gesetzt</w>
rein force</w>
is ion</w>
z ing</w>
am e
mo ved</w>
pel ine</w>
erfolgre ichen</w>
s qu
sign ing</w>
Exper ten</w>
angekün digt</w>
Wil le</w>
strug gle</w>
effici ently</w>
re lie
stri ke</w>
unter liegen</w>
Quali fik
Cot on
Ver stöß
ermu tigen</w>
E valu
F ris
tr ation</w>
ver deut
di gungen</w>
f öder
wen n
harmon ised</w>
R en
Fäh igkeiten</w>
opp el
W ar</w>
wenn gleich</w>
vorsch lägt</w>
Erinn erung</w>
krie g</w>
ehr ter</w>
tan gible</w>
ta g
clar ification</w>
Außen grenzen</w>
beschleun igen</w>
y le</w>
IG C</w>
pursu ed</w>
Altern ativen</w>
over -
geb rau
f ence</w>
texti le</w>
tal ked</w>
Europ a
ser ving</w>
EG -
m ale</w>
ethn ischen</w>
ir ing</w>
techn ologie</w>
clear er</w>
wel t</w>
Ar ab
krä ften</w>
Mer co
di vision</w>
emer ging</w>
Grund lagen</w>
Peti tions</w>
thir d-
lich sten</w>
st off</w>
gesell schaftlichen</w>
uni que</w>
fer enzen</w>
te uren</w>
fal sche</w>
stren ge</w>
Moldo va</w>
p ush</w>
b un
sor gt</w>
trans -European</w>
Krä ften</w>
mitg lied</w>
techn isch</w>
Arznei mittel</w>
verschieden er</w>
B itte</w>
er adic
conven tions</w>
rechtfer tigen</w>
rejec tion</w>
Her an
ro us</w>
ordnungs gemäß
Mein ungen</w>
mittl ere</w>
chem ical</w>
wach sen</w>
occ ur</w>
respec ting</w>
Aus sagen</w>
ab zielen</w>
su r</w>
di ert</w>
außer gewöhn
tr um</w>
we ich
rech tlich</w>
Prä senz</w>
Dec lar
Opf ern</w>
Ban k
Groß teil</w>
erfolgre iche</w>
Minder heit
sexu ellen</w>
beglück wünsche</w>
ver teilt</w>
eill ance</w>
reven ue</w>
Be troffenen</w>
F err
col lap
new spap
tion ality</w>
Sch la
einzu gehen</w>
Verb rech
distinc tion</w>
Nich tregi
Im mun
es ter</w>
ger ichtsh
d in
Betru gs
verfüg baren</w>
congratul ating</w>
sol ved</w>
gro w</w>
hol en</w>
auf rech
T r
serv ativen</w>
stric tly</w>
low -
Alban ien</w>
w ski</w>
ss er</w>
B re
bu y</w>
em bo
as se</w>
enlar ged</w>
st ations</w>
agre es</w>
Cha ir
hei ßen</w>
be wiesen</w>
sh e
Vor gän
au ßen</w>
po or
C re
Sovi et</w>
mar king</w>
b attle</w>
Joh ann
K ern</w>
Sp ann
Mor gen</w>
cover ing</w>
ish ment</w>
oper ative</w>
w ände</w>
Aus land</w>
ti scher</w>
F ünf
exclu sively</w>
Declar ation</w>
L icht</w>
vehic le</w>
chan n
Tour ismus</w>
def ending</w>
ausge arbeitet</w>
unanim ity</w>
ic als</w>
W ur
ob servation</w>
Stand pun
cho ices</w>
Aus übung</w>
L eh
portugi esischen</w>
aus einander
enor men</w>
vier tens</w>
wer tung</w>
hi li
Nichtregi erungs
Koh len
subsequ ently</w>
blo ck</w>
serv ative</w>
bed ürf
aufrech ter
Territ ori
wo zu</w>
po ll
Bra sili
organis ierte</w>
ver handeln</w>
un ions</w>
for schung</w>
judg ment</w>
Pf lichten</w>
erh eben</w>
al on
Verhaltens ko
bla me</w>
bei hilfen</w>
hel pf
br y
Stu den
OEC D</w>
fac to</w>
Straß e</w>
a i</w>
nor thern</w>
Hoch schul
pp ed</w>
it ems</w>
drän gt</w>
ko sten
ref use</w>
erk annt</w>
Rede zeit</w>
geo graf
k aufen</w>
hoh em</w>
k rank
radi k
tro ops</w>
controversi al</w>
moment an</w>
Kris en</w>
w unden</w>
i or</w>
- Bericht</w>
sc ep
Tim or</w>
beit re
einzi g</w>
hoh es</w>
bew ahren</w>
lok ale</w>
surv eillance</w>
har m</w>
H IV</w>
wiederhol e</w>
histor ische</w>
cont am
W ein
st a</w>
w indi
be merk
Untersuch ungs
Gesprä chen</w>
consul ted</w>
K u
d den</w>
Egyp t</w>
con i</w>
un geh
Finn ish</w>
Ver sicherungs
fron ti
accep tance</w>
hi elt</w>
far -
na ment
Rechts sicherheit</w>
P au
simpli fy</w>
zusammenzu arbeiten</w>
S ter
Ver sprechen</w>
y m
press ing</w>
Woh n
ber g</w>
jün gste</w>
form ation</w>
las se</w>
stin gu
percen tage</w>
Rom e</w>
Sah ar
al ed</w>
on i
t less</w>
tradition ellen</w>
er staun
str in
ungsp eriode</w>
appar ent</w>
Stat ut</w>
M s</w>
Entschließungsan träge</w>
bekräf tigen</w>
isti sch</w>
Besch werden</w>
Stat ute</w>
disap pointed</w>
r en</w>
n ar
israel ischen</w>
mu ß
Er gän
Solidar itäts
An lagen</w>
be wirken</w>
Welthandel sorganisation</w>
lä ß
voll ständigen</w>
ass es</w>
des irable</w>
A le
loo ks</w>
Fak ten</w>
L ö
sp anische</w>
hin zu</w>
crop s</w>
0 1</w>
den cy</w>
lang sam</w>
pre fer</w>
In spe
Schu ld</w>
Minderheit en
rul ing</w>
harm ac
er suchen</w>
koh ol
regi mes</w>
ameri kanische</w>
aff ord</w>
person nel</w>
di stingu
ühr en</w>
lüs sen</w>
T hat</w>
be gun</w>
stü tzen</w>
m äh
po pu
199 1</w>
th ro
jur is
Ver stär
Rahmen bedingungen</w>
min e</w>
par ado
ah </w>
helpf ul</w>
answer ed</w>
en du
lo ans</w>
moder nen</w>
w ater
zw eck
clos ure</w>
Luft fahr
de dic
Verantwor tlichen</w>
s low</w>
Emis sions
ausführ lich</w>
S IS</w>
jud ge</w>
da hin
eigen es</w>
tig ungs
Arme e</w>
immer hin</w>
F öder
join ing</w>
b ungen</w>
Gebäu de</w>
be zeichnen</w>
explan ations</w>
Vietn am</w>
c entr
legisl ativen</w>
s me
schrän ken</w>
threaten ed</w>
Jugosla wien</w>
Tun es
Bew us
einzu halten</w>
Sitz ungen</w>
S par
gere chte</w>
ord ed</w>
Brazi l</w>
bil d</w>
Fre e</w>
wünsch enswert</w>
Vor der
Somm er</w>
Umstän de</w>
campaign s</w>
kriti sch</w>
öff nung</w>
refle ction</w>
occup ation</w>
Flugges ellschaften</w>
ss on</w>
li f
s ön
nüpf t</w>
t emp
Medi ka
schaft licher</w>
r ating</w>
m icro
is ierungs
ei en</w>
intensi v</w>
Kan ada</w>
Kon vents</w>
Rahmen s</w>
eigent liche</w>
medi um</w>
l ers</w>
e kt</w>
pl at
le hnt</w>
schaf tsp
Z erstör
lossen e</w>
Palest ine</w>
Erfol ge</w>
g barkeit</w>
Markt wirtschaft</w>
er nen</w>
miss ing</w>
Ver m
hom o
en ger</w>
Sozial politik</w>
f än
d. h.</w>
lie fer
compe te</w>
con servation</w>
im posing</w>
B or
inv ite</w>
Sch n
re placed</w>
Plan ung</w>
wom an</w>
EL D
re vi
Che chn
Fre unde</w>
gefähr liche</w>
Bosn ien</w>
go tten</w>
beginn t</w>
D avi
Del eg
der ungsan
kes tein</w>
verrin gert</w>
t ative</w>
Angebo t</w>
com pl
hin weg</w>
Bol kestein</w>
An wesenheit</w>
str ichen</w>
assess ments</w>
inwie weit</w>
keines falls</w>
ergän zen</w>
Lit auen</w>
versi ties</w>
Zusammen setzung</w>
kap az
US D</w>
a to</w>
ens hr
ima ge</w>
perspec tives</w>
An gehö
EC O
integri erten</w>
distribu ted</w>
vol lem</w>
con fusion</w>
beru hen</w>
li fer
frei ght</w>
korre kt</w>
gefähr lichen</w>
vor n</w>
7 1</w>
multi -
mar gin
us ually</w>
Pap ier</w>
Chechn ya</w>
per mitted</w>
gh t
Men sch</w>
in ce</w>
y our
spartn er</w>
spr ing</w>
Zu gangs</w>
ge habt</w>
Kom it
m ein
re conci
grün det</w>
sta kehol
sau ber
dis cre
benefi ci
M and
w is
sa gi
Einzel heiten</w>
Gü ter
mi d-
experien cing</w>
fri end</w>
ban king</w>
gem essen</w>
ssel t</w>
Grün dung</w>
k ter</w>
p harmac
Vis um
ne o
erklär te</w>
kontin u
zu verlässi
is te</w>
categor ies</w>
Ab sichten</w>
w under
eg al</w>
Erzeu gung</w>
Dring lichkeit</w>
di t</w>
Ob jec
Vor stellungen</w>
ra ises</w>
techn ologische</w>
restric t</w>
beträch tliche</w>
P la
your self</w>
ell it
zunehmen de</w>
Inte grations
Sch ließ
u ung</w>
wid met</w>
la cking</w>
Hil fen</w>
Schicks al</w>
fail ing</w>
tion ally</w>
ungsin stru
ref used</w>
genie ßen</w>
wir ft</w>
Verstär kung</w>
rail ways</w>
hü tung</w>
An hang</w>
den tly</w>
tradi tions</w>
mi grants</w>
Rent en
eventu ell</w>
EC HO</w>
küm mern</w>
5 7</w>
derar t</w>
Lu f
re ti
pre ventive</w>
re act</w>
Industrie politik</w>
far ms</w>
20 .</w>
chin esischen</w>
organiz ations</w>
s ales</w>
ge plant</w>
ökonom ische</w>
vor aus</w>
author isation</w>
Dies er</w>
diesel be</w>
Ein wände</w>
dra sti
jäh rige</w>
schn elle</w>
ver wirklichen</w>
amtier ende</w>
zu tief
zutief st</w>
El tern</w>
am a</w>
im per
Flüchtling s
s ation</w>
emis sion</w>
begeg nen</w>
in habit
B au</w>
lit er
V ene
v ent
thi op
Fahr zeuge</w>
ch ter</w>
no ti
for gotten</w>
einfach er</w>
durch schnit
eb ung</w>
Sü den</w>
R ub
hous ing</w>
w in</w>
kontrol len</w>
schen ken</w>
lis te</w>
gemein schaftliche</w>
Mittelme er</w>
hinzu weisen</w>
mar g
Beitritts verhandlungen</w>
popu lar</w>
seek ers</w>
wachsen den</w>
ch -
gratu liere</w>
Spe zi
pla ys</w>
acc eler
mo tiv
ophob ia</w>
3 .
bu s</w>
Konta kte</w>
impe tus</w>
highli ghts</w>
Vorbe halte</w>
k le
Mit wirkung</w>
an sehen</w>
at ur
Est on
0 2
tsch ech
Aus richtung</w>
thresh old</w>
Po et
geb lieben</w>
ab kommens</w>
g ling</w>
zu mal</w>
leich ter</w>
kontinu ier
unab ding
P S</w>
erweit ert</w>
t t</w>
zügi g</w>
N ä
hilfre ich</w>
viol ent</w>
ges tr
wo für</w>
contribu ting</w>
fe a
Nichtregierungs organisationen</w>
Fischerei abkommen</w>
zerstör t</w>
Gel tungs
G lück</w>
be gangen</w>
vorange gangenen</w>
obser vers</w>
phil osoph
st em</w>
Ori enti
Kern energie</w>
lok aler</w>
Po sselt</w>
S imbabwe</w>
sup ran
resu med</w>
sho wed</w>
stärk eren</w>
betri eb
follow -up</w>
under lying</w>
ú n</w>
aufrechter halten</w>
ges p
prä sent
Wider stand</w>
Fischer eis
Poet tering</w>
M el
disa gree</w>
Haf en
system atic</w>
Tunis ia</w>
O s
par tei
Jahrhunder ts</w>
k amen</w>
Ver sorgungs
pos t</w>
fortun ately</w>
por te</w>
Stell en
Can c
amtier enden</w>
tz te</w>
Un sicherheit</w>
auszu üben</w>
aus geführt</w>
inter im</w>
se as</w>
ent schul
p ush
ff er
Inter vention</w>
m ert</w>
exam ination</w>
sli ghtly</w>
ander n
J ar
Mex ic
Landwir ten</w>
character istics</w>
extre mis
redu ziert</w>
U C
beitre ten</w>
Kategor ie</w>
Fre it
— </w>
ge klärt</w>
d ating</w>
Gewerk schaften</w>
F il
Geh eim
con stra
Eur at
f en
ein nehmen</w>
Unterdrück ung</w>
neh in</w>
Kamp agne</w>
Hoh eits
ob serve</w>
oh nehin</w>
proced ural</w>
wes tern</w>
limin ary</w>
ab zielt</w>
S ri</w>
it ably</w>
Schluß folgerungen</w>
frei willi
emis sionen</w>
Eri ka</w>
Merco sur</w>
integr ate</w>
dramati c</w>
6 8</w>
Eur or
c lass</w>
ne tze</w>
Sitz ungsperiode</w>
5 .</w>
sit zen</w>
ar bit
appro aches</w>
De fence</w>
contin uation</w>
weiter zu
residen ce</w>
soci o-
lan ges</w>
di spar
a sion</w>
Mich el</w>
Belast ung</w>
Konfli kts</w>
198 9</w>
Durch führungs
Entwicklungs politik</w>
Bedürf nissen</w>
represent ing</w>
Im pf
not ably</w>
Stellung nahmen</w>
benu tzt</w>
Auffor derung</w>
ide al</w>
s em
gi k</w>
regul arly</w>
m as</w>
sta in</w>
er ende</w>
1 -
5 2</w>
Sch luß</w>
Stei gerung</w>
mak ro
man aging</w>
ein her
excep tions</w>
N ei
all mäh
bewer tet</w>
chap ter</w>
restric tive</w>
ch ris
gekenn zeichnet</w>
hand ling</w>
ri ed</w>
integr ity</w>
ci a</w>
abil ität</w>
t á
R el
La sten</w>
Vorder grund</w>
equi valent</w>
Bil anz</w>
Aus gang
fi res</w>
im ported</w>
hö her</w>
wach en</w>
er stellt</w>
Dienst stellen</w>
sub jec
achie vements</w>
Wieder herstellung</w>
Ernähr ungs
wä sser</w>
Ab fälle</w>
fähi ge</w>
Gemeinschafts recht</w>
kon sul
de z</w>
Ver lu
jähr lichen</w>
s low
ik anen</w>
ap pointment</w>
Verzö gerungen</w>
short- term</w>
ö m
Pat ent
Em pf
t at</w>
atso ever</w>
wh atsoever</w>
A h
Hand lungen</w>
ambi tions</w>
9 3</w>
Auf sichts
hop ed</w>
mer k</w>
tie gen</w>
justi fication</w>
klar er</w>
Sti ll
si t</w>
sc en
danger s</w>
coast al</w>
the ore
subsequ ent</w>
ma r</w>
Kohä sion</w>
str it
x es</w>
I A</w>
S O
n esses</w>
ge fallen</w>
f lows</w>
destro yed</w>
an i</w>
eventu ally</w>
cir cul
20 -
T el
ges u
S o</w>
si m
Ber ichti
ou ter
beeinflus sen</w>
re conciliation</w>
f it</w>
ra d</w>
f luß</w>
Sch o
V el
beur teilen</w>
bann ed</w>
Religi ons
pre sident</w>
vorzu schlagen</w>
Behin derungen</w>
6 00</w>
zunehmen den</w>
blo od</w>
transatlan tischen</w>
pre liminary</w>
n ine</w>
un ification</w>
ver stoßen</w>
organis ieren</w>
Infra strukturen</w>
scrutin y</w>
los ing</w>
chem icals</w>
listen ing</w>
Sozial demokratischen</w>
join ed</w>
s tic
sa d</w>
Kon jun
lan ger</w>
Eff ek
ag anda</w>
mer kt</w>
ed n
Phän omen</w>
advan ced</w>
Lebens mitteln</w>
Leb anon</w>
compar ison</w>
Produ kt</w>
val id</w>
soli d</w>
Asi en</w>
envis aged</w>
vorrangi g</w>
gri ff
tä r</w>
ver schaffen</w>
klar stellen</w>
res istance</w>
lifer ation</w>
Armu ts
kon stitution
Kompromis s
F lä
verank ert</w>
Kap ital</w>
with draw
prot est</w>
yn n</w>
äuß erung</w>
In nen
ex changes</w>
infra structures</w>
fo rese
mand atory</w>
ch tungen</w>
fo ssi
cul tures</w>
le z</w>
deleg ations</w>
outer most</w>
c utting</w>
who le
surro unding</w>
counter f
accoun tability</w>
G ot
particip ating</w>
gä be</w>
s outh</w>
Euro- Mediterranean</w>
spar ungen</w>
viel es</w>
broad cast
Th ey</w>
ein richtungen</w>
Rechts rahmen</w>
schlim m
Wil l
vor sitz
gu il
Zwan gs
V o
Man agement</w>
empfeh len</w>
I A
I l
ausgewo gene</w>
vi gor
uni versities</w>
t y-
Ägyp ten</w>
á n
6 6</w>
z z
ist ently</w>
no by
Brasili en</w>
for cing</w>
it ly</w>
concentr ation</w>
ke en</w>
Min ute</w>
st ation</w>
Me er</w>
stra frech
9 1</w>
offizi ellen</w>
organ ic</w>
gr ati
riteri um</w>
B rie
con ver
mo vements</w>
Tradi tion</w>
gewün scht</w>
W edn
Tat sachen</w>
confi dent</w>
J er
L om
sto ckung</w>
mär kten</w>
zwan gs
Subsidiaritätsp rinzip</w>
Fol gendes</w>
so il</w>
Immun ität</w>
defin ieren</w>
in no
noby l</w>
schwier iger</w>
appar ently</w>
un nö
perf ect</w>
b ad
italien ische</w>
Le istung</w>
ad ul
Europä isches</w>
ck ed</w>
er zeit</w>
Verbin dungen</w>
Inte gr
mis takes</w>
stöß t</w>
gew onnen</w>
bor n</w>
fa ire</w>
safeguar ding</w>
AL DE</w>
Commun ist</w>
Sozial partner</w>
ver e</w>
bein halten</w>
Mit two
herr schen</w>
au p
x en
üs si
T ali
w asser</w>
Straf gerichtsh
zu gelassen</w>
ges to
convic tion</w>
balan ces</w>
Arbeits weise</w>
dec entr
Di plom
Palästin a</w>
neighbour hood</w>
le ge</w>
un like</w>
inhabit ants</w>
provi ders</w>
er mäch
rück en</w>
an streben</w>
stre ichen</w>
disp utes</w>
is lam
einzu richten</w>
sa ktionen</w>
ques tion
Den n</w>
Bürger rechte</w>
BS E-
no tice</w>
sa dly</w>
Städ te</w>
d ler</w>
er ei</w>
ho sp
ver he
Wedn esday</w>
jewei ls</w>
REAC H</w>
Proje kts</w>
erh oben</w>
W äl
as ing</w>
l ings</w>
fun ctions</w>
kön ne</w>
enti al</w>
E co
tä tigen</w>
se ch
Ern ennung</w>
er ror</w>
Nordi c</w>
sent ence</w>
ga ined</w>
an hand</w>
sign s</w>
ge denkt</w>
Mu gabe</w>
höch sten</w>
Fern sehen</w>
Innov ationen</w>
advoc ate</w>
dec reas
anzu gehen</w>
adequ ately</w>
ol der</w>
erleich tert</w>
ehr t</w>
inc en
eingeschrän kt</w>
intelli gent</w>
angehö rigen</w>
li ked</w>
C ro
g ische</w>
infrin gement</w>
Iraq i</w>
sp ür
ass urance</w>
tain s</w>
durch setzen</w>
fe ars</w>
incorpor ate</w>
Ver öffent
s eiten</w>
vers ary</w>
Geb ur
por no
ror s</w>
sü dlichen</w>
man chen</w>
Lib ya</w>
Einschrän kung</w>
ma chten</w>
Ein nahmen</w>
St unde</w>
i ber</w>
tu ms</w>
PH AR
versch lech
N ach</w>
ök ologische</w>
stat ute</w>
bedau re</w>
verpflich ten</w>
sich eren</w>
d äm
Präsiden tschaf
z ell
Reguli erungs
Tunes ien</w>
hil ft</w>
experi ences</w>
umfas sen</w>
Pas sagi
anzu passen</w>
shaushal t</w>
so zusagen</w>
Mon day</w>
diesbezü glichen</w>
Trupp en</w>
hol ung</w>
Gewähr ung</w>
Y ear</w>
sa ving</w>
perpe tr
D ynam
g ol
ü gen</w>
führ er</w>
zw öl
ab uses</w>
thous and</w>
monit ored</w>
we a
in side</w>
durch gesetzt</w>
vic tim</w>
König reich
Zu sch
sugges ts</w>
reduc tions</w>
G 20</w>
Al ters
Vorsitz ende</w>
Ex port
ci des</w>
fi </w>
ausgewo gen</w>
person en
Spann ungen</w>
wom it</w>
fif th</w>
ic ken</w>
gel ung</w>
überra scht</w>
Institu te</w>
olog ischer</w>
invest ors</w>
initi ally</w>
Vor feld</w>
zah lungen</w>
dri ve</w>
gene tically</w>
res ource</w>
atta ched</w>
Ser vices</w>
ver teilung</w>
Lo gik</w>
O n
ag nen</w>
i ous</w>
Ur sache</w>
Beitritts kandi
igno red</w>
0 ,
Arbeit geber</w>
kontrol l
vis ited</w>
ci de</w>
pursu ing</w>
eigent lichen</w>
Syri a</w>
Slo wen
accep ting</w>
Ein stimm
sy n
wei le</w>
ger weise</w>
neg ativ</w>
mi ß</w>
rei bt</w>
b l
schwe dische</w>
an gehören</w>
com promises</w>
Gemeinschaft sebene</w>
verbie ten</w>
stic k</w>
human ity</w>
beantra gt</w>
sta ats
li z
er a</w>
Kommiss ars</w>
st ecken</w>
strä ger</w>
unter strichen</w>
ar en</w>
vi gi
an schließend</w>
Studen ten</w>
neu n</w>
Flor enz</w>
Nach mittag</w>
Beh aup
organis iert</w>
ver einfachen</w>
Betrieb </w>
analy se</w>
B ei</w>
en ded</w>
6 2</w>
verur sachen</w>
AS EA
fail s</w>
Miss brauch</w>
verm ei
tor ate</w>
er -
C oh
er stre
Au str
arbit r
model s</w>
inn er</w>
resol ving</w>
blin d</w>
gestell te</w>
Pu tin</w>
siden tin</w>
dahin gehend</w>
i rak
dec ent</w>
paragrap hs</w>
fac tory</w>
strin gent</w>
conv ince</w>
ch sel</w>
pri me</w>
Ziel setzung</w>
Aus gleich</w>
four thly</w>
unil ateral</w>
10 .</w>
s lau
Qu ar
6 3</w>
zw ischen
crimin als</w>
regi erung</w>
Steu erung</w>
vernünf tigen</w>
Sozi alisten</w>
Bir ma</w>
bre ach</w>
beru fen</w>
B lu
rati fy</w>
schul dig</w>
contain ing</w>
s mus</w>
ir regular
n ische</w>
Jar z
w ahr</w>
R a
leb enden</w>
Mach t
Natur katastrophen</w>
geprä gt</w>
Rechn ungs
D um
hund red</w>
t ter</w>
Millenn i
Sk and
Kompro miß</w>
Ein kommen
schlim mer</w>
p tion</w>
embar go</w>
withdraw al</w>
Jarz embo
techn ischer</w>
investig ations</w>
Bau ern</w>
ats on</w>
ver bot</w>
Meinungs äußerung</w>
re formen</w>
W atson</w>
ft ware</w>
Säu le</w>
ier ter</w>
den heit</w>
fried liche</w>
expan sion</w>
Cor bet
Fris ten</w>
ignor iert</w>
imp ris
al beit</w>
de ad</w>
sin c
solidi erung</w>
ab road</w>
stren gen</w>
Nordi r
wh er
teil s</w>
ann i
Sta at
Fol gen
diplom ati
ton ight</w>
Instru menten</w>
stakehol ders</w>
Umstruktur ierung</w>
Lei d</w>
erweiter ten</w>
bor ne</w>
dro ht</w>
Einzel nen</w>
tion ate</w>
z icht
Gan zes</w>
Aussch üssen</w>
Chair man</w>
verstär kten</w>
se x</w>
genau e</w>
St ück</w>
cat ch</w>
Zusammen halts</w>
tar y-
refuge e</w>
appel liere</w>
di stance</w>
as sum
dep lo
Z eu
ann ten</w>
wenig sten</w>
Canc ún</w>
14 2</w>
er stellen</w>
ri g
bir th</w>
w ages</w>
ü ch
al a</w>
endu ms</w>
conclu des</w>
dän ischen</w>
imm unity</w>
gipf el</w>
acknowled ged</w>
200 0-
Di ffer
juris diction</w>
whole hear
sym bol
P A</w>
fem ale</w>
p esti
Konkur r
sib il
ge kehrt</w>
finanzi eller</w>
Ö ko
bel gischen</w>
leg te</w>
Dar le
ic kt</w>
mittler weile</w>
Objec tive</w>
demon stri
sol di
consoli dation</w>
sympa thy</w>
sch em</w>
Zentr um</w>
Urspr ungs
off ices</w>
prü f
zeu g
may be</w>
no tes</w>
Millenn ium</w>
and -
ap pointed</w>
Weiter entwicklung</w>
exper tise</w>
Rück gang</w>
ra ss
welt weite</w>
Johann es
i -
M ün
schreit en</w>
exc ept</w>
eröff nen</w>
5 8</w>
ein iges</w>
M andel
drop </w>
Klu ft</w>
f assungs
z y</w>
b acking</w>
tier enden</w>
durch geführten</w>
kon zep
S an</w>
transe uropäischen</w>
for t</w>
iz ed</w>
fried lichen</w>
indi sp
S atz</w>
G F
Aus legung</w>
ö l</w>
H aus
an bieten</w>
gen ehm
einzu leiten</w>
Kon z
e di
nam es</w>
reib ungs
program ming</w>
2 50</w>
del e
re ci
Jarzembo wski</w>
Ziel s</w>
effek tiver</w>
progre ssive</w>
ri eren</w>
Un regelmäß
Israel is</w>
ra sche</w>
ut ter</w>
st ex
unver zicht
Kom ple
bestimm ung</w>
b ün
handel s
Wall ström</w>
Isla m</w>
sp üren</w>
accur ate</w>
non- governmental</w>
vis as</w>
Liber als</w>
kompli ziert</w>
ein s</w>
re affir
foun dation</w>
F ab
mo tor</w>
exam ining</w>
ation stechn
Sa al</w>
c atastrop
Lebens qualität</w>
scienti sts</w>
he ads</w>
riter ion</w>
an wal
5 4</w>
Anwendungs bereich</w>
at mo
Haushalts ausschusses</w>
f rank
bekämpf t</w>
Flüchtlin gen</w>
wenig stens</w>
foc using</w>
Guan tá
modern isation</w>
B ranche</w>
ven tions
S te
regel ungen</w>
den ied</w>
as sets</w>
beruf lichen</w>
inci den
la h</w>
abzu lehnen</w>
Guantá nam
Energiever sorgung</w>
Nor den</w>
intelli gen
k at
empf oh
c riterion</w>
ö tz
mean time</w>
t y
erweit ern</w>
t ally</w>
vo ters</w>
fin dung</w>
M ik
Tex til
fair er</w>
Tex tes</w>
Sit z</w>
b a</w>
W ol
s un
ähn lich</w>
Mittwo ch</w>
Tschetschen ien</w>
AKP- Staaten</w>
nieder ländischen</w>
Kohäsions fonds</w>
pharmac eu
A p
Regi mes</w>
re stri
anni versary</w>
War en
Demokrati sierung</w>
sch la
ent ei
e tzen</w>
Zerstör ung</w>
Z ur
f low</w>
tes ten</w>
würdi ge</w>
Dienstleistungs richtlinie</w>
Th ere</w>
virtu ally</w>
zah lung</w>
ge ehrter</w>
erwar te</w>
ard ous</w>
inv ited</w>
einsch lä
Dynam ik</w>
no tic
mittel -</w>
viel fäl
re porting</w>
Feh len</w>
9 4</w>
fort zusetzen</w>
Sach en</w>
cons ent</w>
priv atis
dru ck
Städ ten</w>
fre m
reci proc
Treibhaus gas
fol gerung</w>
gn er</w>
recogn ises</w>
stell ungs
prer equ
trans fers</w>
prerequ is
fes thalten</w>
Völk ern</w>
Partner schafts
exis tieren</w>
abgesch afft</w>
hervor zu
lich -
genehmi gt</w>
land wirtschaftliche</w>
Asy l</w>
E M</w>
rele ased</w>
ther ap
Ungleich heiten</w>
G al
accoun ting</w>
Lib anon</w>
tn issen</w>
ch a
bring ung</w>
kür zt</w>
di ver
p her
leng th</w>
stream ing</w>
Democ ratic</w>
Mitentschei dung</w>
third- country</w>
untergr aben</w>
Sen sibil
Coh es
Er stellung</w>
ne gle
dis man
Fri day</w>
S ev
5 3</w>
enter ing</w>
M ed
Person al
ta gung</w>
Cohes ion</w>
rese arch
wirk ungs
evalu ate</w>
Invest ment</w>
feh len</w>
regis tration</w>
pl ötz
zurück kommen</w>
misch ung</w>
Priv ati
X </w>
em pl
pre text</w>
Haushalts kontrolle</w>
Sch eitern</w>
inter ne</w>
dictator ship</w>
kla res</w>
f r
dra fts
ap s</w>
rüst ung</w>
T ar
D oppel
über legen</w>
geplan ten</w>
c s</w>
anspruch nahme</w>
mono po
Corbet t</w>
Entschä digung</w>
arri ve</w>
Secre tary-
Au frech
fäh r</w>
lear ned</w>
dec line</w>
äh erung</w>
ne tz
zwan zig</w>
ungar ischen</w>
Vorbereit ungen</w>
Mol d
partner ships</w>
müs se</w>
Kapaz itäten</w>
autonom y</w>
P ir
g l
L et
Hei m
Johannes burg</w>
z y
gä ste</w>
as pe
out lined</w>
da hin</w>
Vorsitz ender</w>
gebil det</w>
press ed</w>
Finanzi elle</w>
var iety</w>
th in</w>
nachzu denken</w>
Sch ot
vern ach
vernach lässi
Deleg ationen</w>
Religi on</w>
Gesetzgeb ungs
ich er</w>
incen tive</w>
Konvergen z</w>
ges tri
exc use</w>
Secretary- General</w>
Mit bürger</w>
fo od
gerich teten</w>
multilater alen</w>
do ssier</w>
inten ance</w>
exec utive</w>
bereit zustellen</w>
Auf stockung</w>
ran ging</w>
Terror ismus
renew ed</w>
gestr ichen</w>
ter haltung</w>
le ben
ro ll
stei gt</w>
coun tr
f at</w>
Mold au</w>
li fel
D a</w>
haz ardous</w>
Sicherheits -</w>
Sloven ia</w>
Scot land</w>
- based</w>
Re volution</w>
ge fühl</w>
P hili
Königreich s</w>
Sch mi
consul tations</w>
koordin ieren</w>
Sch re
con fer
super visory</w>
verbin dliche</w>
NG L
fo rec
T ren
ut zutage</w>
We chsel
pro ven</w>
be haltung</w>
substan tially</w>
Col om
comple tion</w>
fall ing</w>
unge fähr</w>
kriti schen</w>
sexu elle</w>
pa in
Palästinens er</w>
every where</w>
be greifen</w>
deb atte</w>
Red ing</w>
C rimin
Ann äherung</w>
vor ge
in quiry</w>
Überwach ungs
beunruhi gt</w>
man if
der ing</w>
gradu al</w>
Fre il
pl in</w>
rup t</w>
ma intenance</w>
li erte</w>
religiö sen</w>
r ational</w>
sinc ere</w>
Crimin al</w>
tei lungen</w>
GM Os</w>
Th ese</w>
run gen
tie f</w>
Lehr en</w>
fif teen</w>
Amerik aner</w>
pil ot</w>
qualit ativ</w>
Indik atoren</w>
Ver fas
hel ps</w>
mangeln de</w>
tra in</w>
Mitgliedsta ates</w>
s we
safegu ards</w>
geh ei
Jugen dliche</w>
asp ir
zi plin</w>
Effek tivität</w>
Ein fluß</w>
größer er</w>
19 .</w>
trü ger
O omen
fer tig</w>
conc ep
verz ichten</w>
er w
Verzö gerung</w>
ed ed</w>
Li ikanen</w>
Kompromis se</w>
Pf eiler</w>
AL DE-Fraktion</w>
Ru ij
Feh l
all ed</w>
Her kunft</w>
wirksam er</w>
Ver suche</w>
fan den</w>
Nä he</w>
human e</w>
Über tragung</w>
finanzi ell</w>
dem zufolge</w>
ge fügt</w>
cl auses</w>
fe atures</w>
ig ungen</w>
derar tigen</w>
socio- economic</w>
ein bringen</w>
wor auf</w>
cons istently</w>
bes agt</w>
ern e</w>
interess ante</w>
Aufrech terhaltung</w>
tro ub
indic ation</w>
Niederlan de</w>
ergän zt</w>
de tention</w>
A i
deut licher</w>
d or</w>
8 9</w>
Er rungen
endor sed</w>
v ina</w>
dien sten</w>
T emp
vorzu gehen</w>
W W
ow ner
NGL -Fraktion</w>
fünf zehn</w>
Ausgang spunkt</w>
b y-
it es</w>
zu geben</w>
he utzutage</w>
b lack</w>
lei d</w>
ob servations</w>
Y outh</w>
Folgen ab
In anspruchnahme</w>
säm tlichen</w>
endeav our</w>
ti k</w>
es cap
Syri en</w>
gro ss</w>
kon fli
Op tion</w>
land s
billi gen</w>
Sü do
an merken</w>
e ast</w>
ag eing</w>
er y</w>
Ver ur
aus eln</w>
zwöl f</w>
bürger schaft</w>
Schul den</w>
Bal kan
Bos ni
wh el
NG L</w>
Ur he
produc tivity</w>
re ise</w>
star kes</w>
sa k
vertre ter</w>
Euro just</w>
se arch</w>
Schi enen
stren g</w>
F ein
effek tiven</w>
fin ish</w>
B l
ru f</w>
In sel</w>
be waff
form ed</w>
to s</w>
t ough</w>
ver steht</w>
App ell</w>
lea ves</w>
Stabilitätsp akt</w>
Änderungsan trags</w>
ern t</w>
over whel
Unregelmäß igkeiten</w>
ri gkeit</w>
Oomen -
an k
avoi ded</w>
Ex tre
priv acy</w>
Guantánam o</w>
wher ever</w>
st an</w>
ar gue</w>
c ast</w>
W eb
tre ib
S icht
H or
T ages</w>
gener ate</w>
olog isch</w>
disast rous</w>
P rop
berech tigten</w>
- Richtlinie</w>
bewer tung</w>
Jahrzehn ten</w>
Tex te</w>
ehr en</w>
disadvan ta
prev ail
nehm ern</w>
be feh
GV O</w>
ir respective</w>
Mon tag</w>
vigi l
überwach t</w>
gel esen</w>
mentari er</w>
in al</w>
ü t
OS Z
Kl är
Vit or
V ir
öff net</w>
Gra d</w>
Aus sicht</w>
Schwei z</w>
Liby en</w>
territori alen</w>
commen d</w>
essen ce</w>
exp and
be achten</w>
pl ore</w>
OS CE</w>
fulfil led</w>
Ruij ten</w>
fundament ally</w>
simpli fied</w>
beeinträch tigt</w>
sel l</w>
dn isse</w>
Bei behaltung</w>
ge einigt</w>
ser ves</w>
E duc
andern falls</w>
voll ziehen</w>
sich ert</w>
sp on
thor ough
isti scher</w>
contra st</w>
ver handelt</w>
min or</w>
Konfli kten</w>
re mark
shi pping</w>
Gleich heit</w>
Katastrop hen
fli ghts</w>
L eben
owner ship</w>
Ver hin
Bewus stsein</w>
far- reaching</w>
türk ische</w>
D al
g lich
rä ume</w>
geis tigen</w>
S pen
7 7</w>
geeigne ten</w>
T ür</w>
com position</w>
ban k
vor über
strö me</w>
l ists</w>
cei ling</w>
der selben</w>
gel ie
b oun
r ung</w>
Beobach tungs
nu tz
fl üssi
An griffe</w>
t ments</w>
Kam pf
eb enen</w>
zufrieden stell
bad ly</w>
B illi
ch el
D im
ver trä
ba res</w>
soli de</w>
G et
mis sions</w>
st ory</w>
Ost europa</w>
il s</w>
ab geordne
qu es</w>
ad vis
ec o
gehol fen</w>
wün scht</w>
ein beziehen</w>
Er leich
alis ierungs
Gefan genen</w>
der eg
Führ er</w>
kti ver</w>
zu el
be zahlt</w>
bedeu ts
F el
c ope</w>
ome ter</w>
wür fe</w>
schaf tlich</w>
de voted</w>
M eine</w>
ate -
precau tionary</w>
Ju gend
spar en</w>
sup pli
ho st</w>
Kredi t
Klar en</w>
com it
An reg
ge ous</w>
in equ
trä ger</w>
Iran ian</w>
Natur a</w>
ou d</w>
en ables</w>
E v
teil genommen</w>
Educ ation</w>
2 1
g ame</w>
reser ves</w>
Sicherheits rat</w>
defic its</w>
Lin ken</w>
norm alen</w>
7 8</w>
Z one</w>
Eston ia</w>
emer ged</w>
ris k
Kompeten z</w>
Mensch heit</w>
Ergän zung</w>
Rede beit
condi tional</w>
inves tiert</w>
Tradi tionen</w>
bar bar
An nex</w>
pres cri
Re den</w>
arbeit eten</w>
Coton ou</w>
forder te</w>
v able</w>
is o
b el</w>
k m</w>
umfangre iche</w>
irregular ities</w>
m in</w>
horizon tal</w>
exclu sive</w>
Vitor ino</w>
weit reich
Inter ne
des ign</w>
dre i
T oler
la ying</w>
Her b
wahr nehmen</w>
AL E-Fraktion</w>
mö ge</w>
-B 4-0
t wi
tum n</w>
metho de</w>
A ra
Kyo to-
A ir
Sü dafrika</w>
den selben</w>
ver li
gnis erre
besonder es</w>
or ds</w>
t ö
Größ e</w>
gew ahrt</w>
unterstre icht</w>
recyc ling</w>
S il
glob aler</w>
Al ter</w>
sec tions</w>
besei tigt</w>
gen es</w>
Beobach ter</w>
besor gniserre
Schwar z
rigor ous</w>
Beschäftigungs politik</w>
pa ys</w>
sched ul
Ratspräsiden tin</w>
ver wand
liber alen</w>
rel ative</w>
Oomen- Ruijten</w>
Spiel raum</w>
an hal
and els</w>
explic itly</w>
porno graph
re pression</w>
tel ep
an geblich</w>
fi xed</w>
Nordir land</w>
acc used</w>
dama ging</w>
Solidar ity</w>
A cht</w>
mit ting</w>
kl icht</w>
author ised</w>
Rub rik</w>
H än
z á
in spi
t esting</w>
automati sch</w>
f ought</w>
me ets</w>
S i
verwir klicht</w>
stru ck</w>
arri ved</w>
coun ci
Verhaltensko dex</w>
Dritt länder</w>
sel ber</w>
gegeb enen</w>
well en
inev itably</w>
par tial</w>
üro s</w>
ver trauen</w>
di verse</w>
1 20</w>
er tes</w>
far m</w>
be trägt</w>
n omin
Aus gleich
shi ft</w>
destro y</w>
Empf än
den y</w>
en ced</w>
Schen gener</w>
Spra ch
Wissenschaft ler</w>
Aus bildungs
für chte</w>
s cre
Innov ations
us alem</w>
st ro
dist ur
Sta h
L ernen</w>
schle chte</w>
Sol daten</w>
15 .</w>
effizi enten</w>
glau bt</w>
erst mals</w>
fehl ende</w>
sozi o
Defiz ite</w>
Über nahme</w>
Veröffent lichung</w>
tackl ed</w>
stor age</w>
lifel ong</w>
s sion</w>
ne tz</w>
t um</w>
Schließ ung</w>
aus sehen</w>
ko rea</w>
defin iti
ho fft</w>
ver wen
tä glichen</w>
Einschrän kungen</w>
ter min
Bed auern</w>
Legitim ität</w>
origin ally</w>
ann te</w>
ge än
ali zed</w>
Kommissions mitglied</w>
mur der</w>
Mexic o</w>
ban ken</w>
F i
kriti sche</w>
d el</w>
vor an</w>
is ms</w>
schnell st
kost et</w>
Konzentr ation</w>
ati k</w>
f ate</w>
che ap</w>
imper ative</w>
zeit raum</w>
über mittelt</w>
des ired</w>
0 er</w>
kriti sieren</w>
intensi vi
u til
Di am
ignor ieren</w>
Vene zuel
Produ kt
er o-
mittel fris
F on
vol ume</w>
Haushal te</w>
S wit
tou ch</w>
is s
recommen ded</w>
Ex ek
Tex ti
G lau
Gew inne</w>
ensu red</w>
Stär ke</w>
o ts</w>
Ber g
Krank en
sh ar
Ad ministr
bestra ft</w>
rin k
ge achtet</w>
kur zen</w>
Koordin ation</w>
vorgeseh ene</w>
sein erzeit</w>
Aus sprachen</w>
Ansch luss</w>
commer ce</w>
l y-
einzi ges</w>
stam men</w>
sp lan
M illion</w>
own -
voranzu bringen</w>
comprehen sible</w>
au tumn</w>
Pre stige</w>
soldi ers</w>
k lin
ME P</w>
car c
ra cies</w>
Dikt atur</w>
Kin d</w>
Aus wahl</w>
Eng land</w>
Ger ä
differ enti
all s</w>
po sts</w>
wer ks</w>
eh ende</w>
ge troffenen</w>
Gele genheiten</w>
frank ly</w>
ausge übt</w>
inc redi
Verhin derung</w>
bezo genen</w>
ECO F
tie fen</w>
Chem ik
adap ted</w>
dar y</w>
We g
audiovis u
Lu ft</w>
ger ingen</w>
gebrau cht</w>
b are
B om
lab el</w>
I S
kom peten
Swit zer
Switzer land</w>
gerech ten</w>
sk and
S ä
th al
statis tical</w>
wn s</w>
aufge griffen</w>
Haushalts mittel</w>
kurzfris tig</w>
Fol ter</w>
ö hnung</w>
p ac
Asyl bewer
gesu cht</w>
berech tigung</w>
cor responding</w>
democrati sation</w>
österreich ischen</w>
zw in
Wald ner</w>
Direc tor
z .
8 6</w>
verwal tung</w>
conc e
Sch wan
pro vo
enshr ined</w>
il l</w>
dauer hafte</w>
Se e</w>
bek omm
a den
offizi ell</w>
Konjun ktur
Erd be
je glicher</w>
gesch eit
Gü ter</w>
Befür wor
Über schw
ange wiesen</w>
inspec tion</w>
sol e</w>
es si
Mit te</w>
bezieh e</w>
fra gi
pp en</w>
air port</w>
la gerung</w>
D ah
Ban an
fal schen</w>
Wer t
fore stry</w>
Amts zeit</w>
behin dert</w>
Th ess
Verm eidung</w>
investig ate</w>
bes i
Freil assung</w>
collap se</w>
Haft befeh
gu lierung</w>
Geb ühren</w>
Partner schaften</w>
k ommission</w>
re publik</w>
ehrgeizi ge</w>
Aus gewo
ver ordnung</w>
attrac tive</w>
Tenden z</w>
Feder al</w>
ME D
atten d</w>
Bio kraft
Parla mentarier</w>
AL E</w>
ve get
respon ses</w>
ein ges
voranzu treiben</w>
Stellen wert</w>
Lan ka</w>
ru fe</w>
s ale</w>
sa ges</w>
sol d</w>
Ausgewo genheit</w>
pi peline</w>
c y
dauer haften</w>
fal se</w>
inter n
verstän dnis</w>
Schul den
Sum me</w>
dring lich</w>
Vizeprä sidentin</w>
Spe k
O li
H on
ver sammlung</w>
mean ing
bekann ten</w>
research ers</w>
Lie fer
müß ten</w>
Beitrittskandi daten</w>
0 5</w>
Arbeits zeit</w>
D au
peri pher
P esti
ik i</w>
So w
ein gestellt</w>
ous ness</w>
win dung</w>
neutr al</w>
Sch wellen
aus einander</w>
R adi
re perc
techn ologischen</w>
Au f</w>
K un
Gre mien</w>
consoli date</w>
5 9</w>
z. B.</w>
Kop f</w>
Dec ision</w>
pro stitution</w>
quo ten</w>
ear th
6 1</w>
teu er</w>
V ier
Recht setzung</w>
inequ alities</w>
Ent täu
bilater ale</w>
zi tiere</w>
rec ru
ur ch</w>
for war
Über windung</w>
Thess alon
is ses</w>
remo val</w>
ig ten</w>
brut al</w>
exemp tion</w>
co al</w>
ung laub
ver le
no tion</w>
Hin weise</w>
gleich er</w>
Bar ón</w>
zwangs läufig</w>
deliver ed</w>
r unde</w>
sil ence</w>
prot es
w on</w>
particip ants</w>
gesch afft</w>
open ly</w>
S ak
war n
R ap
7 00</w>
angemessen er</w>
auf gebaut</w>
bestre it
en ever</w>
pro liferation</w>
reperc ussions</w>
ein räumen</w>
sor ge
Hoff nungen</w>
food stuffs</w>
grün dlich</w>
don ors</w>
Gefän gnis</w>
hom es</w>
bürger liche</w>
Arbeits kräfte</w>
Chi le</w>
wh enever</w>
an forderungen</w>
präsen tiert</w>
ch i
Blo ck
B 4-0
Ver mark
c a.</w>
dio x
ex posed</w>
H ab
ge wer
bewaff ne
systemati sch</w>
A cc
konkre ter</w>
che ap
Be weise</w>
an geboten</w>
endgül tig</w>
Ver urteilung</w>
teil zunehmen</w>
sur prise</w>
Zus agen</w>
K no
Ver trieb
Wieder ein
Ereign issen</w>
wachsen de</w>
democrati cally</w>
Ferr ero-
frie di
gew ach
d ung
Rahmen besch
presiden tial</w>
angesproch enen</w>
G on
. -</w>
min es</w>
on to</w>
gene tisch</w>
bi a</w>
earth qu
Kür zungen</w>
In ten
hö her
é s</w>
internation ally</w>
discip line</w>
disadvanta ged</w>
For st
Reak tionen</w>
compar able</w>
twi ce</w>
ag u
Verantwor tungs
Ost see</w>
Zul assung</w>
gesetz lichen</w>
initi ated</w>
c lon
Op posi
smo king</w>
ens werte</w>
Liber ties</w>
anzu erkennen</w>
ehrgeizi gen</w>
ell ite</w>
lo gic</w>
pre is
di agno
F ür</w>
stra ight</w>
n den</w>
lin ing</w>
Op tionen</w>
assess ing</w>
Freit ag</w>
Ö l</w>
Al geria</w>
monopo ly</w>
inno cent</w>
Z ins
ing ung</w>
Lam y</w>
lingu istic</w>
Ferrero- Waldner</w>
ag er</w>
dev a
ru ft</w>
Har bour</w>
Ver s
voc ational</w>
o v</w>
beeinträch tigen</w>
bi ologischen</w>
get ö
ge ehrten</w>
z te</w>
Co sta</w>
cul tiv
benu tzen</w>
F a
ti en</w>
Privat sphäre</w>
0 2</w>
Krie ges</w>
Govern ance</w>
ti tle</w>
it ar
ab schließen</w>
estim ates</w>
-B en
con ten
an gen</w>
m uni
Prof essor</w>
fin dings</w>
C ypri
h o</w>
Schi ffen</w>
dri ven</w>
wissen s
Erwä gungen</w>
Generalsekre tär</w>
at ter
UN O-
mit geteilt</w>
C ohn
offenkun dig</w>
Vi enn
G AS
Bo den
ab ei</w>
tig keits
sch ön
vertre te</w>
Wort laut</w>
sim pl
erläu tert</w>
dis abilities</w>
p ace</w>
auf gehoben</w>
J acqu
Herzego win
läß lich</w>
ro utes</w>
prac tically</w>
ve aus</w>
Gesam theit</w>
prepar atory</w>
en abled</w>
ge- scale</w>
G as</w>
appro ach
transfer red</w>
D ra
ven th</w>
e tzung</w>
dra s
17 .</w>
objec tions</w>
Anrei z</w>
gerich tete</w>
W erk
beruf liche</w>
ver zö
Nahrungs mittel</w>
aus gestattet</w>
of es</w>
quar ters</w>
Verb ün
inter ference</w>
wettbewerbs fäh
al ing</w>
P akt</w>
Tali ban</w>
J os
detri ment</w>
Leh ne</w>
K riterium</w>
letz tes</w>
ein gebunden</w>
xi de</w>
Eigent um</w>
abzu schließen</w>
T -
poli zei
gering er</w>
gra de</w>
v e-
s le
zu künftig</w>
vor be
ben ch
pl än
poten tially</w>
präz ise</w>
be vorzu
g ast
ent s
gesetz gebung</w>
lau b</w>
Fle isch</w>
Gemeinschaft sin
Gesicht spunkt</w>
B lack</w>
erzeu gnisse</w>
las sen
er richten</w>
Slowen ien</w>
kn ap
trav elling</w>
abzu stimmen</w>
6 4</w>
basi eren</w>
Cohn -Ben
euro s</w>
vol les</w>
B li
f at
fizi erungs
st ür
f in</w>
compon ent</w>
des per
Verstöß e</w>
soci ally</w>
verschär ft</w>
Anmerk ung</w>
bewe gt</w>
Straft aten</w>
Jacqu es</w>
our ing</w>
fahr zeuge</w>
be weist</w>
Pesti zi
appel lieren</w>
Brut to
susp ici
posi tives</w>
Einwanderungs politik</w>
St ehende</w>
pas sieren</w>
T EN
R -Fraktion</w>
Bed ingung</w>
hol ders</w>
Mitglieds länder</w>
constitu ency</w>
Mittel -</w>
ähn lichen</w>
un um
inspec tions</w>
8 7</w>
Parla ment
hin nehmen</w>
Cohn-Ben dit</w>
top ical</w>
explo it</w>
ar ma
Kon su
A kti
y i</w>
lar ge-scale</w>
v is</w>
floo ds</w>
stei gern</w>
Aktions programm</w>
tan e
Erzeu gnissen</w>
stric ter</w>
foot ball</w>
Vienn a</w>
n it
la den</w>
Al z
bi tion</w>
reib ung</w>
Wes ten</w>
stand ardis
Zuwander ung</w>
Thessalon iki</w>
assess ed</w>
Stro m
Nu klear
ta pe</w>
enter prise</w>
her stellen</w>
knap p</w>
will kür
Evalu ierung</w>
to m</w>
gesund heits
oc curr
Herb st</w>
produ kten</w>
wi dri
w ished</w>
protection ism</w>
E qu
drafts man</w>
re volution</w>
min ds</w>
fe ature</w>
EU- Bürger</w>
adjust ment</w>
besch rieben</w>
For m
clos ing</w>
mo tor
Er neu
Fra ktions
refer ences</w>
multi annual</w>
dest abil
re cip
defini tive</w>
princip al</w>
trans position</w>
Rück sch
Wiederauf nahme</w>
gen o
5 -
Dah er</w>
tar iff</w>
Besch luss
erk enn
P N
broad ly</w>
Er be</w>
produc er</w>
character ised</w>
assu red</w>
Res ul
Assoziierungs abkommen</w>
camp s</w>
systemati cally</w>
k el</w>
Nach teil</w>
constra ints</w>
in her
uneingeschrän kte</w>
alo g</w>
c ell
under stan
c e-
comit ology</w>
wer ken</w>
Mi granten</w>
Alz hei
Integr ität</w>
läu fi
ak et</w>
Einstimm igkeit</w>
inciden tally</w>
Umwelt politik</w>
auf gestellt</w>
off ic
Bö ge</w>
um gehend</w>
appl au
adver se</w>
Vertre terin</w>
Kon go</w>
moder ne</w>
ab sor
automati cally</w>
bereit stellen</w>
Pflan zen
dar gestellt</w>
hi elten</w>
fäl sch
cyc le</w>
ge widmet</w>
13 .</w>
gest ü
7 6</w>
ob ject</w>
ad her
vereinbar ten</w>
Lat via</w>
kon vention</w>
pen sion
al erweise</w>
Kon servativen</w>
Rahmen richtlinie</w>
B angem
norm ally</w>
an o</w>
ein setzt</w>
isl ands</w>
R ob
rah men
obstac le</w>
agi eren</w>
Con go</w>
Produ zenten</w>
organiz ation</w>
er rors</w>
we ek
Herzego vina</w>
sel ten</w>
Bangem ann</w>
Gemeinschafts rechts</w>
ges unden</w>
wa i
Demokrati schen</w>
Isra els</w>
Sicher stellung</w>
s emin
own- initiative</w>
EV P-
high- quality</w>
Russ lands</w>
ü cke</w>
demand ed</w>
ber ühr
harmon ise</w>
Rechtsp rechung</w>
Perspe ktiven</w>
lo sen
vorsch rift</w>
an führen</w>
Wort mel
über denken</w>
k i
ref us
n erst
D abei</w>
st ab</w>
bio fuels</w>
e e</w>
hervorzu heben</w>
sh oul
Mad eira</w>
hör t</w>
forder ten</w>
Per sön
erzeu gung</w>
öpf en</w>
conc essions</w>
comp lied</w>
ei ved</w>
Ber lus
deci ding</w>
Meinungs freiheit</w>
civili ans</w>
t ung
faci lity</w>
min ent</w>
ermäch tigungen</w>
abzu geben</w>
Verbraucher politik</w>
sozi al</w>
b ases</w>
wholehear tedly</w>
ung er
T om
K örper
bean tragen</w>
F eu
Be wirtschaftung</w>
wil lig</w>
Finanz rahmen</w>
Über sch
Überein kunft</w>
tektion ismus</w>
coordin ating</w>
G ö
jün g
K au
fru str
r het
g no
a ke</w>
P ack</w>
K il
Unterneh mer</w>
6 9</w>
Berat ung</w>
Mex iko</w>
pol nischen</w>
Ho wever</w>
Ih res</w>
to wn</w>
pro -
Woh ler
schedul ed</w>
gegensei tig</w>
st unde</w>
v ise</w>
li ke
è s</w>
Wäl der</w>
D ay</w>
glück licherweise</w>
no -
Gesetz geber</w>
in struc
8 00</w>
aus gelöst</w>
de ck
ständi ger</w>
gebühr en</w>
resp o</w>
guil ty</w>
Finanz märkte</w>
ge äußer
C respo</w>
ater ie</w>
streng ere</w>
kur bel
M ei
war m</w>
be gan
Vor gaben</w>
kenn t</w>
pharmaceu tical</w>
Frei willi
Best ände</w>
ak a
plan et</w>
R est</w>
Verk auf</w>
in appropriate</w>
K urs</w>
judi ci
W ein</w>
Inter nationale</w>
or gt</w>
verteidi gt</w>
pil lars</w>
gi ge</w>
Co de</w>
den oun
Kon solidierung</w>
Com pu
ges orgt</w>
Kür zung</w>
tatsäch liche</w>
ond s
Jos é</w>
Pil ot
orient ation</w>
Guine a</w>
Herzegowin a</w>
flexib el</w>
like wise</w>
be faßt</w>
haf ter</w>
inn eren</w>
Sat ellit
jah re
t elling</w>
Be träge</w>
reti rement</w>
sa h</w>
ma il</w>
exper t</w>
kre di
ges onder
Überschw emm
verbin dlich</w>
stopp ed</w>
thorough ly</w>
dem nach</w>
Verhäl tnis
Chr isten</w>
rhet or
effizi enter
veran st
tre mend
frü h</w>
be ach
ar ticles</w>
pass ing</w>
sek tor
L ul
ursprün gliche</w>
if ying</w>
critic isms</w>
Kur dish</w>
S ign
sol ving</w>
ol l</w>
medic inal</w>
sou verän
tru g</w>
th ens</w>
En des</w>
Or gan</w>
ra ce</w>
en em
Investitions bank</w>
kon kur
3 1.</w>
behin dern</w>
fest gehalten</w>
gel ernt</w>
schle chten</w>
8 2</w>
estim ate</w>
problemati sch</w>
b acks</w>
pa ir</w>
rec orded</w>
j et
12 .</w>
arab ischen</w>
Allgem eine</w>
beru hi
su res</w>
r umän
regis tered</w>
er langen</w>
zurück kehren</w>
Mehrwert steuer
sch mer
deu tet</w>
ern ity</w>
dead lines</w>
an ese</w>
S har
l assungen</w>
adap tation</w>
H ier</w>
ost europäischen</w>
ab hängen</w>
poli es</w>
kün st
charac ter</w>
ergän z
R enten</w>
wel le</w>
anspruch s
gi r
app alling</w>
Alger ien</w>
Ro m</w>
h unger</w>
Reh n</w>
bra chte</w>
ger icht
A c
critic ised</w>
ck ets</w>
Verfassungs vertrag</w>
survi val</w>
unterschied licher</w>
nach teili
discrimin atory</w>
a qu
corpor ate</w>
b ten</w>
Konsult ationen</w>
be fin
Augen merk</w>
Friedens prozess</w>
Vor sorge
schö n</w>
benachteili gten</w>
hr en</w>
R üst
re tten</w>
sch wäch
er innen</w>
verbin den</w>
An laß</w>
ern sten</w>
li t</w>
appreci ation</w>
Defiz it</w>
Stand or
schie ben</w>
comp li
nor th</w>
g ases</w>
ent schie
subjec ted</w>
nachhal tig</w>
Wün sche</w>
gest än
inci dents</w>
gewün sch
Erkenn tnisse</w>
weis ungen</w>
remain ed</w>
Mc Car
in direct</w>
ehemali ge</w>
Pre isen</w>
vorsch lags</w>
chann els</w>
in- depth</w>
vor sehen</w>
relie f</w>
Proz ent
persec ution</w>
nah men
spec ulation</w>
Substan zen</w>
sy ner
har dt</w>
8 8</w>
invest ing</w>
wor ried</w>
verm ut
G AT
Wettbewerbs politik</w>
sub sidi
ell a</w>
conven i
Zur ück
ph ra
occup ied</w>
sensib len</w>
Gedan ke</w>
Arbeits losen
Straßen verkehr</w>
Er reichen</w>
reit en</w>
in toler
Er mitt
Be frei
Ein wohner</w>
WW U</w>
gesch lech
refus al</w>
U -
demonstr ation</w>
vor gestellt</w>
her zlichen</w>
qualifizi erte</w>
m s
in o
Jer usalem</w>
erhö h
GM O</w>
Men gen</w>
un lau
zentr en</w>
L etz
Sozial fonds</w>
form ally</w>
K a
T or
verli ehen</w>
8 1</w>
Weiter bildung</w>
stimul ate</w>
Eing liederung</w>
de fi
gra ve</w>
H änden</w>
we ichen</w>
k ette</w>
auf richtig</w>
harmon is
fein dlichkeit</w>
Roman ian</w>
medizin ische</w>
zu ständige</w>
schreck lichen</w>
formu lieren</w>
gro und
h one</w>
h ur
ban an
Ge wässern</w>
Leit ung</w>
Mul ti
arran gement</w>
divi de</w>
sa al</w>
Haushalts ausschuss</w>
fer tigung</w>
Bevölkerungs gruppen</w>
b enden</w>
M äd
Millenni um
poll ut
bis weilen</w>
Fuß b
Z weiten</w>
kon solidi
ä r</w>
engagi ert</w>
moral ische</w>
arch it
lan des</w>
Haushalts linie</w>
N iel
diplom atischen</w>
maß geb
A O</w>
über flüssi
heb t</w>
aband on</w>
über wie
N ation</w>
öl le</w>
sat ellite</w>
bed ür
mor atorium</w>
Viel en</w>
Temp o</w>
Berlus coni</w>
hin reich
Klär ung</w>
Wahl kreis</w>
a ge
it y-
del icate</w>
boo k</w>
N ul
mo ther</w>
CF SP</w>
Un fälle</w>
pun ishment</w>
itär en</w>
Fir men</w>
ver kün
gewähl te</w>
top ics</w>
Sta d
zu zustimmen</w>
vis ions</w>
ing er</w>
gener ous</w>
Se e
Lebens bedingungen</w>
aus reichen</w>
Gre at</w>
Lob by
sprech end</w>
un it</w>
besi des</w>
Bewer ber
ultim ate</w>
consci ence</w>
Toler anz</w>
angenommen e</w>
um b
vor haben</w>
v ali
Konvergen z
ti a</w>
Vermitt lung</w>
Aktionsp lans</w>
el f</w>
mak ers</w>
Änderungs vorschläge</w>
gerin ge</w>
ges tiegen</w>
b onds</w>
re viewed</w>
Verfas ser
Pro tektionismus</w>
geleis tete</w>
Ang ola</w>
Vertra g
7 2</w>
veran lassen</w>
vor sichtig</w>
b lat
M ari
hand ed</w>
wes ens</w>
län en</w>
pesti cides</w>
hin nehmbar</w>
ver letz
Ab lauf</w>
Reser ve</w>
nach kommen</w>
Aut or
dem ie</w>
ob taining</w>
von einander</w>
so genannte</w>
Feder ation</w>
under p
produ zieren</w>
Chin as</w>
an dem</w>
ide ological</w>
arre sted</w>
sin n</w>
ter ror</w>
L eu
mat ure</w>
Informations -</w>
tun a</w>
C at
on ing</w>
äl teren</w>
em i
c tic</w>
zeichne ten</w>
contradic tion</w>
se at</w>
Gö te
dec ade</w>
aus machen</w>
st eckt</w>
to wns</w>
at tra
erk ennt</w>
he f
gra d</w>
entschul digen</w>
promis ing</w>
contribu tes</w>
vertrau t</w>
viel falt</w>
fac es</w>
ser klärung</w>
we ge</w>
Finanzi er
Versch lech
recht zu
Techn ik</w>
avoi ding</w>
In stan
ad ed</w>
u st
l o</w>
T em
Solidaritäts fonds</w>
er sucht</w>
Göte bor
less on</w>
Rich ter</w>
Befür chtungen</w>
c ommission
grundle gend</w>
Christi ans</w>
immen se</w>
es -
vor gelegte</w>
kn app
Amster da
korrigi eren</w>
wor um</w>
allmäh lich</w>
re turned</w>
tr ends</w>
D ritten</w>
R ä
ME DA</w>
demo graf
rop or
Stu fe</w>
Joh n</w>
dau ert</w>
pat ents</w>
self- employed</w>
Schlüs sel</w>
25 .</w>
An hän
getö tet</w>
ens es</w>
audiovis ual</w>
Mitgliedsta ats</w>
fi able</w>
sub -
Bem ühen</w>
realis ed</w>
with drawn</w>
p lic
bewe gung</w>
Besonder heiten</w>
multination alen</w>
Er öffnung</w>
benefici aries</w>
sicher er</w>
he avi
Unterneh mer
den ted</w>
gen tin
Ein igkeit</w>
gesch enkt</w>
Kur z
Grund satzes</w>
prior iti
gene tic</w>
alar ming</w>
vermut lich</w>
interpre ted</w>
gew inn
natür liche</w>
ar ises</w>
ran ken</w>
vic tory</w>
auf hören</w>
tur ns</w>
Gro ßen</w>
üh ne</w>
allgem einem</w>
. 5</w>
ul f</w>
ver trags</w>
c ells</w>
Wo g
bezo gene</w>
Gon zá
tr e</w>
b and</w>
Welt bank</w>
en gen</w>
bei der</w>
illeg aler</w>
ter er</w>
L IF
Ver bo
se es</w>
Funktion sweise</w>
address es</w>
be deut
Arbeits programm</w>
Zuständi gkeits
Ein mischung</w>
in i</w>
30 .</w>
remo ving</w>
Eco fin</w>
griech ische</w>
C auc
remark able</w>
B ru
sec toral</w>
Er schein
ent es</w>
Fre und</w>
zeich n
stress es</w>
Invest oren</w>
brauch s</w>
Bl ut
Handels politik</w>
gesetz </w>
atmo sphere</w>
Qu elle</w>
neh mer
Sow jet
ab schließ
du al</w>
twent y-
Ver schie
z eln</w>
m outh</w>
un prece
remin ded</w>
Asi an</w>
Ziel vor
ga ining</w>
spartn er
Be grenzung</w>
Them as</w>
col on
gül tig</w>
gefähr licher</w>
exac erb
CO2- Emissionen</w>
j an</w>
Qu ellen</w>
every day</w>
to ck</w>
unter nimmt</w>
di men
Hindern is</w>
in comes</w>
Wachst ums</w>
norm alerweise</w>
schlech ter</w>
co inci
wä cht</w>
ad ding</w>
verk auft</w>
beg ri
exclu de</w>
R ats</w>
verk aufen</w>
si ed
Fischereis ektor</w>
il le</w>
berat enden</w>
gem el
ob liegt</w>
vers prochen</w>
Ale x
F es
sustain ed</w>
dies mal</w>
d den
emphas ises</w>
atta ch</w>
ves tock</w>
Er halt</w>
am i</w>
hol ds</w>
I P
an geführt</w>
erneuer barer</w>
Vor mittag</w>
zu gs
dau er</w>
diff er</w>
bekomm t</w>
näch st</w>
Ein sparungen</w>
ra s</w>
indic ates</w>
clar ified</w>
Bestre bungen</w>
ere cht</w>
facilit ating</w>
über nimmt</w>
govern ed</w>
entz ieht</w>
do ors</w>
an gehört</w>
Unterneh mens</w>
disp ropor
í n</w>
Tar if
Glob alisation</w>
ta ine</w>
e able</w>
arti fi
pati ent</w>
Reg istri
Auff assungen</w>
ange passt</w>
No t</w>
vis ing</w>
Schu le</w>
Kontin ents</w>
sub s
Gemein den</w>
transpar enter</w>
an cies</w>
präsen tieren</w>
zer o</w>
gestri gen</w>
pre judi
tes ted</w>
gest anden</w>
gelie fert</w>
gla des
Bu ch
lin ge</w>
integri eren</w>
Au ßer
Telekommunik ations
Anti -
Verbrauchersch utz
auszu arbeiten</w>
schwer er</w>
g ut
Al kohol
Leist ungs
tik a</w>
persu ade</w>
G N
unprece dented</w>
befu gnisse</w>
N ab
for d</w>
we b
koordin iert</w>
Zus age</w>
Wog au</w>
üß en</w>
besser es</w>
pra ise</w>
Dienst es</w>
Mal m
re mark</w>
verbreit et</w>
Democr at</w>
a det</w>
isol ation</w>
pf licht</w>
Ban glades
Sy ner
gu tem</w>
Rechnungsh ofs</w>
russ ische</w>
any where</w>
OSZ E</w>
seit dem</w>
transl ation</w>
auf gerufen</w>
Enttäu schung</w>
proje kt</w>
li vestock</w>
ac qui
under ing</w>
acc us
differ ently</w>
cons ists</w>
geb ro
ens able</w>
ch ron
Luftfahr t
kämpf t</w>
f ications</w>
bel ebung</w>
0 8</w>
mono polies</w>
tr aum</w>
our -
gener ated</w>
recogn ising</w>
14 .</w>
inst all
Be en
w unsch</w>
th ou
frü h
lin er</w>
Kom pon
concep ts</w>
cre ative</w>
stri kes</w>
21 st</w>
S L</w>
widerspie geln</w>
auf rechtzu
wi es</w>
in stability</w>
leist ungs
vi erung</w>
Ein leitung</w>
ak is</w>
opp on
con fin
l assung</w>
Gesundheits versorgung</w>
person en</w>
Ver anst
dem nächst</w>
rein forced</w>
Beru f</w>
n ichts
ber ichtet</w>
prohi b
Er de</w>
w- how</w>
Som alia</w>
M an</w>
f tung</w>
lei det</w>
xen ophobia</w>
begrenz ten</w>
bedeu tend</w>
Stabil isierung</w>
nu tri
comple x
ak tiver</w>
ener gie
wa ke</w>
K unden</w>
kom bin
mi ddle</w>
Rechts vorschrift</w>
an stelle</w>
teil ten</w>
Beitritts länder</w>
K en
auf greifen</w>
wäch st</w>
qu ick</w>
stü tzt</w>
roo t</w>
i ehen</w>
explo ited</w>
Mitarbeit ern</w>
du s</w>
aufrechtzu erhalten</w>
Gonzá lez</w>
Eurat om</w>
Auf lagen</w>
war tet</w>
n ör
Kl ausel</w>
bie ter</w>
teil te</w>
attemp ting</w>
St ur
prerequis ite</w>
ersch üt
off ences</w>
ris en</w>
fo ster</w>
integri ert</w>
indisp ensable</w>
Univers itäten</w>
threaten ing</w>
Be gleit
schein end</w>
war s</w>
öpf t</w>
re verse</w>
enjo yed</w>
inci dent</w>
Mäd chen</w>
ig ungs
fil l</w>
stell ten</w>
Been digung</w>
Malm ström</w>
Überschwemm ungen</w>
lan der</w>
N ep
wah l
schwei gen</w>
ut or</w>
e z</w>
komplizi erten</w>
exp enses</w>
dispar ities</w>
E E
Sahar a</w>
Rück über
vorzu bereiten</w>
h ion</w>
fas hion</w>
ermu ti
B ün
sch au
N apo
berühr t</w>
heavi ly</w>
Ak teuren</w>
parlia mentari
IN I</w>
se ment</w>
Per spec
engagi eren</w>
isch enz
empfoh len</w>
mis sible</w>
los er</w>
Glau ben</w>
democ racies</w>
ber au
Geltungs bereich</w>
6 -
irgend einer</w>
spar teien</w>
integr al</w>
füh le</w>
Schattenberichterstat tern</w>
8 3</w>
geno cide</w>
gerech net</w>
limit ing</w>
bi ome
own ers</w>
don or</w>
Elek tri
offizi elle</w>
f erung</w>
as sen
ver nehmen</w>
r um
H ague</w>
In flation</w>
interven tions</w>
Nei ghbour
zivil en</w>
er eig
strukturel len</w>
wonder ful</w>
miss ed</w>
avail ability</w>
Be zeichnung</w>
Stra fen</w>
ver träge</w>
ci liation</w>
Vor beu
P hil
abol ished</w>
Territori um</w>
Religions freiheit</w>
eng l
Co x</w>
GAS P</w>
y iel
illeg ally</w>
tu ally</w>
c -
quanti ty</w>
ass embly</w>
einzi gar
ver mittelt</w>
Ti bet
d ged</w>
Ukra in
inter oper
7 4</w>
Darle hen</w>
Emis sion
debat tieren</w>
Presse freiheit</w>
foot ing</w>
r t</w>
7 3</w>
fo ods</w>
lic ences</w>
integri erte</w>
erre cht</w>
empha size</w>
Arznei mitteln</w>
Fir st</w>
wor t</w>
W a
sh am
K ün
sh ame</w>
end t</w>
L ast
posi tiver</w>
dis gra
on line</w>
it als</w>
an lagen</w>
Con gress</w>
verantwor tung</w>
geb en
gan gene</w>
ASEA N</w>
befür chten</w>
Mehrwert steuer</w>
Verschlech terung</w>
Est land</w>
D G</w>
erre ichten</w>
Um stellung</w>
wär tigen</w>
PHAR E</w>
thin ks</w>
enthusias m</w>
M ah
witn essed</w>
entreprene ur
W hat</w>
Autonom ie</w>
eu v
plötz lich</w>
i de</w>
z ol
Ministerprä sidenten</w>
sec uring</w>
voran kommen</w>
belie ved</w>
Fron t</w>
inter -
zu kommt</w>
Sek re
Auseinander setzung</w>
bun al</w>
ab e</w>
inform ellen</w>
mo ves</w>
man o
ent al</w>
loc ation</w>
an scheinend</w>
begleit et</w>
ir responsible</w>
ste el</w>
vor ausgesetzt</w>
indire kt</w>
Hauptz iel</w>
Amsterda mer</w>
Fisch bestände</w>
än derung</w>
Sar ko
weiter gehen</w>
Olymp ic</w>
rec ital</w>
re mit</w>
announ cement</w>
Schot tland</w>
ein gebrachten</w>
beschäf tigungs
isol ated</w>
cau ght</w>
ges unde</w>
la ys</w>
relation ships</w>
hier mit</w>
dat ab
T aus
re gen</w>
F at
Politik bereiche</w>
fli ght</w>
einschlä gigen</w>
so ft</w>
konstitution elle</w>
Ter min</w>
win d</w>
antwor tung</w>
sch war
De tail</w>
Luft verkehrs
Auf sicht</w>
Ak zep
In halte</w>
bel s</w>
ec ks</w>
our e</w>
Resol u
Mitglieds ländern</w>
mith ilfe</w>
countr y
wor über</w>
wettbewerbs fähig</w>
satis fy</w>
fre e
Zu g
mano euv
6 -00
Rom a-
A ri
terin ary</w>
low est</w>
me ist</w>
ander s
Europä ern</w>
einzu räumen</w>
stan des</w>
ber ichte</w>
erst es</w>
differ en
work force</w>
lich ere</w>
IN D</w>
sto red</w>
dre am</w>
tief ung</w>
Erneu erung</w>
Ost se
p ru
ge zahlt</w>
u ts</w>
Mo sco
inter institutionellen</w>
beizu behalten</w>
Ara fat</w>
O ost
Venezuel a</w>
descri be</w>
ensu res</w>
W HO</w>
all y-
prece dent</w>
mes sages</w>
combin ation</w>
ban ana</w>
er ledi
prinzi pien</w>
unabding bar</w>
Ober grenze</w>
mid- term</w>
o te</w>
si mul
sk ep
Präsidentschaf ts
Wo chen
Erleich terung</w>
ko oper
er end</w>
vor bereiten</w>
e ase</w>
stau sch
lic ence</w>
ak ts</w>
inev itable</w>
ein halb</w>
am m
S ier
ambigu ous</w>
Sozial ver
multin ational</w>
Ver tiefung</w>
bli cken</w>
abor tion</w>
re ale</w>
mo dest</w>
pro found</w>
emp ty</w>
ar ance</w>
IM F</w>
re ak
S peci
equi vo
critic ise</w>
S in
Mul der</w>
aspir ations</w>
Rindfle isch</w>
condem nation</w>
ausge de
mean while</w>
stabil en</w>
Niel son</w>
W </w>
Freihandel s
gen ous</w>
kenn tnis</w>
as us</w>
H ände</w>
gi ene</w>
len dung</w>
techn i
gan z
Fremden feindlichkeit</w>
m ischen</w>
Artik els</w>
R und
Gesundheits wesen</w>
chall eng
gesell schaftliche</w>
i bt</w>
ar m</w>
gui ded</w>
nu klear
an o
wor th
ver tra
audi t</w>
di gten</w>
Beru f
drin gende</w>
Neighbour hood</w>
Is lands</w>
Auf teilung</w>
üb lich</w>
qualit ative</w>
organiz ed</w>
Bon ino</w>
y right</w>
Auf klärung</w>
men tierung</w>
advan ces</w>
qu ellen</w>
Be antwortung</w>
Elektri z
be merken</w>
Auf trags
Glück wunsch</w>
konstruk tiv</w>
äl tere</w>
integr ating</w>
ge kürzt</w>
in equality</w>
Kol um
wen de</w>
Gan zen</w>
besch ä
so hne</w>
Versch mutzung</w>
18 .</w>
ge faßt</w>
Barro t</w>
fan gs</w>
regul ating</w>
Ge fähr
ab el</w>
Auto s</w>
bedür fen</w>
à </w>
Verlu ste</w>
IL O</w>
Terrorismus bekämpfung</w>
ear marked</w>
Sie g</w>
a zi
partn ern</w>
A 4-00
Götebor g</w>
regis tri
claim ed</w>
il and</w>
fea sible</w>
Einkommen s
industri ellen</w>
Ausgleich s
entz iehen</w>
des to
abol ish</w>
Tren nung</w>
re alen</w>
appe ared</w>
sch aden</w>
ic ed</w>
Finanz -</w>
pen ding</w>
gewal tige</w>
bur dens</w>
b ran
k am
Secre tary</w>
poor er</w>
Schwer punkte</w>
Let tland</w>
Wachstumsp akt</w>
Davi d</w>
troff ene</w>
ge ziel
promo tes</w>
geb enden</w>
Föder ation</w>
Ereign is</w>
t am
aufge zeigt</w>
Daten schutz</w>
du ly</w>
prof it
hoch rangi
an lässlich</w>
Extre mis
Cauc asus</w>
conclu ding</w>
kno wled
ver setzen</w>
üb lichen</w>
macro -
weit et</w>
en a</w>
kommerzi ellen</w>
c attle</w>
jem als</w>
Freihandel sabkommen</w>
men gen</w>
Aus maß
Ko finanzierung</w>
emer ge</w>
confir ms</w>
Den k
doc tors</w>
grati tude</w>
n a</w>
Mandel son</w>
aff air</w>
har te</w>
pat ri
16 .</w>
Bei hilfe</w>
manufac turing</w>
Demokrati en</w>
Mil itä
C 6-0
Wohler gehen</w>
be am
in directly</w>
r are</w>
Automobil industrie</w>
pla yer</w>
multination als</w>
j unger</w>
aller erst</w>
be achtet</w>
en force</w>
ologi en</w>
Tel ef
er kt</w>
Lan g
gesch ickt</w>
hin ausgehen</w>
twent y</w>
I W
public ly</w>
Musli m</w>
E l</w>
philosoph y</w>
jun ction</w>
Besch lusses</w>
ev y</w>
un equivo
Angehö rigen</w>
k ä
S on
de hnen</w>
gleich ung</w>
Heim at</w>
Gesch windi
Nach richt</w>
stri ve</w>
gewöhn lich</w>
sprü ch
spec ul
A S</w>
ga ther
jah res
in ated</w>
fru cht
begrenz te</w>
Ak tu
bi ological</w>
auf gaben</w>
Wettbewerbs verzerr
sch end</w>
Fon taine</w>
civil isation</w>
ver einfach
E ta
f ault</w>
trans national</w>
tr at</w>
un vermei
bro ken</w>
war rant</w>
Era smus</w>
displa ced</w>
hand led</w>
ener gies</w>
work place</w>
Meinungs verschieden
dre w</w>
problemati c</w>
Spit ze</w>
B yr
ger er</w>
foc uses</w>
defi ci
em or
Dam it</w>
eh </w>
Ar gentin
Dien sten</w>
ange gangen</w>
wahr e</w>
verän derten</w>
geben heiten</w>
Tran sit
I vo
zweifel sohne</w>
ek e
Vor bild</w>
Do ssier</w>
pun ished</w>
J ur
ordnungsgemäß e</w>
privatis ation</w>
Konkurr enz</w>
counterf eit
gewal t
Ge win
Vol lendung</w>
wert volle</w>
t abling</w>
verfüg bar</w>
hör e</w>
ge f
ri tik
Gesam th
H ä
europ as</w>
schlimm sten</w>
unan nehmbar</w>
zusammen gearbeitet</w>
ließ t</w>
up hold</w>
stand s
ausge drückt</w>
Außen beziehungen</w>
main streaming</w>
bere ichs</w>
berech tigte</w>
n esty</w>
man gelt</w>
empfeh le</w>
sac rif
T rau
E T
Impul se</w>
ssi ers</w>
parliamentari ans</w>
eh n
nichts desto
sel ection</w>
klein eren</w>
poten ti
requ iring</w>
or gan</w>
Ge gebenheiten</w>
aushal tsp
t wel
Red ner
Ent schul
är m</w>
dau ern</w>
just ment</w>
Richtlinien vorschlag</w>
Vel zen</w>
Mitentscheidungs verfahren</w>
Kon g</w>
Akzep tan
disadvan tage</w>
aim ing</w>
irgend wo</w>
N ic
peripher al</w>
Sozial -</w>
gest ehen</w>
ermu tigt</w>
Urhe ber
ste ten</w>
nied rigen</w>
ts it
Se el
C ô
zer b
Haushalts verfahren</w>
g are
peti tion</w>
Sarko zy</w>
survi ve</w>
gesch äf
An gel
re productive</w>
Ro bert</w>
H ong</w>
simpli fying</w>
Re icht
aus gesch
B our
trag ischen</w>
lin dustrie</w>
quanti tative</w>
T ests</w>
h em
übri g</w>
S ied
radio active</w>
Grenz werte</w>
frei er</w>
UC LAF</w>
Plenar saal</w>
zu fügen</w>
ari b
begr enzen</w>
vor bereit
um ul
co st-
Red nern</w>
Finanz dienstleistungen</w>
Völker mor
accoun table</w>
drin king</w>
p iel
bo di
ma che</w>
vor gebracht</w>
kap ital</w>
express ly</w>
H ü
ed t</w>
radi o</w>
on ment</w>
Bere ch
Aussch uss
qu o</w>
l te</w>
unil ater
tremend ous</w>
fle ets</w>
Mc Cre
ör tlichen</w>
R ü
Klein -</w>
dedic ated</w>
bann ing</w>
block iert</w>
eligi ble</w>
V ot
re ll</w>
ken ne</w>
verk nüpft</w>
t one</w>
Ver hütung</w>
inves ted</w>
haf tet</w>
St reichung</w>
f lich</w>
li gkeit</w>
transpar ente</w>
äl ter</w>
ep i
prefer red</w>
h at
analy sieren</w>
speci fied</w>
den d</w>
aufge worfen</w>
Administr ation</w>
encoura gement</w>
aufer legt</w>
horizon t
ex ert</w>
mi x</w>
ir gen
Europar at</w>
Indones ia</w>
Hung er</w>
erzeu gt</w>
war ming</w>
portugi esische</w>
rati fizieren</w>
ä ter</w>
iti gkeiten</w>
fol gendes</w>
br icht</w>
Dring lichkeits
urop a</w>
S W
f ließen</w>
fa ster</w>
ab ri
c eas
elim ination</w>
Ev ans</w>
da iry</w>
ment are</w>
Con ciliation</w>
v ague</w>
enor m</w>
bedeu ten
Initiativ bericht</w>
Fre edoms</w>
sel ec
schw ung</w>
medizin ischen</w>
verabschie deten</w>
H ier
zu vers
201 4</w>
Fra gestell
Tschech ischen</w>
TAC IS</w>
zu gang</w>
Nach teile</w>
aband oned</w>
kehr ungen</w>
dopp elt</w>
Re t
recht licher</w>
Finanz minister</w>
L e</w>
dela yed</w>
Mehr heits
h am
r uns</w>
ra c</w>
Gesetz es</w>
Reg ul
verbesser te</w>
fe els</w>
Oost lander</w>
Ver pack
än ge</w>
C olle
Op tim
unter zeichnen</w>
back ed</w>
wi de-
P fle
schnellst möglich</w>
at em
McCre evy</w>
pragmati c</w>
verwei gert</w>
Gen ug
Genug tu
Genugtu ung</w>
s wit
Privati sierung</w>
Roth ley</w>
sicht bar</w>
cell or</w>
gemein t</w>
Besch lüssen</w>
Merk el</w>
ück en</w>
laun ching</w>
secon dary</w>
er mor
eck sil
Ver such
An zeichen</w>
Luft verkehr</w>
sinstru ment</w>
zerstör en</w>
man s</w>
Ivo ire</w>
Best ä
determin ing</w>
per form</w>
sign als</w>
Verfasser in</w>
verbin dlichen</w>
harmon ization</w>
bla ck
recogn ize</w>
betra chte</w>
pre ference</w>
widerspie gelt</w>
Del ors</w>
Ein fuhr</w>
pri m
Materi al</w>
profi le</w>
beträch tlichen</w>
broadcast ing</w>
Cô te</w>
s mug
tes tens</w>
har ma
for th</w>
on er</w>
diesbezü gliche</w>
postpon ed</w>
- Abkommen</w>
Vorsitz es</w>
stär kt</w>
Vermittlungs verfahren</w>
in put</w>
ir a</w>
hy dro
gesetz te</w>
weit em</w>
ün de</w>
weak nesses</w>
lu c
Akzeptan z</w>
Mon it
Go als</w>
conven tional</w>
verhäl tnisse</w>
Speci al</w>
uni fied</w>
intelli gence</w>
lie ß</w>
saf er</w>
explic it</w>
Gleich berechtigung</w>
Ein bindung</w>
ehr endt</w>
N um
adjust ments</w>
Emission sh
Auf stellung</w>
Mü he</w>
et ten</w>
itä t
Schre yer</w>
public ation</w>
de ar</w>
ein leiten</w>
Aus fuhr
enhan cing</w>
control ling</w>
Byr ne</w>
fest zu
Bestre ben</w>
recht mäßig</w>
ör t</w>
gra ss
gewach sen</w>
oper ation
Fortsch ritten</w>
Gen fer</w>
Lam a</w>
Mik ro
k toren</w>
Vis a</w>
Analy sen</w>
Handel sabkommen</w>
Griechen lands</w>
overwhel ming</w>
stre bt</w>
wies o</w>
stopp en</w>
Car di
quanti ties</w>
rem edy</w>
7 9</w>
Unions bürger</w>
La w</w>
2 ,
cop yright</w>
beur teilt</w>
kür zen</w>
abge halten</w>
fragi le</w>
Kin des</w>
g ingen</w>
beschäf tigung</w>
unterschei det</w>
Nutz er</w>
posi tively</w>
Ar ticles</w>
ver setzt</w>
Cardi ff</w>
j ed
C ub
st edt</w>
I f</w>
comb ine</w>
Straf verfol
ut ation</w>
irgend welche</w>
Bur un
pat ent
ge ber
lä cher
aw ah
Umwelt -</w>
viol ated</w>
veran las
Re isen</w>
accep ts</w>
respon ds</w>
agen ts</w>
banan as</w>
k tik
Cam bodi
spä testens</w>
ad map</w>
de gra
t aten</w>
Bli ck
Sch ande</w>
Lul ling</w>
ausge gangen</w>
p ity</w>
Rand zi
viel fach</w>
Europ awah
ic a</w>
Ger ichte</w>
ko hol</w>
alle vi
chil d
verschär fen</w>
B ut</w>
vorsitz enden</w>
en forced</w>
Hoheits gebiet</w>
M y
ban ischen</w>
identi fication</w>
entschei det</w>
Entschließungsan trags</w>
kommen de</w>
H ong
dür ften</w>
them ati
rü cke</w>
Hong kon
freiwilli ge</w>
allgem einer</w>
t ling</w>
ei gener</w>
Generaldire ktion</w>
Dat um</w>
Bo ard</w>
mi xed</w>
nament lich</w>
grundsätz liche</w>
notic ed</w>
bet one</w>
scand al</w>
sus pension</w>
ein gehend</w>
bo dsch
Ad justment</w>
initi ate</w>
ges prä
Pri ze</w>
beit ritts
T ha
compla int</w>
Chan cellor</w>
islam ischen</w>
Haushalts kontroll
C -
Unter sch
Un recht</w>
clon ing</w>
re si
judici ary</w>
oper ates</w>
G ender</w>
Daten schutz
un its</w>
Bür o</w>
profession als</w>
understan dable</w>
Abstimmungs stunde</w>
Med ina</w>
er wer
F lag
Beobachtungs stelle</w>
bi ologische</w>
swi f
Abän derungsan
z in</w>
dio xide</w>
W ien</w>
Val en
frei willigen</w>
Schä tzungen</w>
Roth -B
- to-
renew al</w>
Haf tung</w>
sp lit</w>
per fe
Ver gabe</w>
gel aden</w>
aussch lag
Proz esse</w>
gh er</w>
Jahre stag</w>
ges enkt</w>
einzu stellen</w>
zuvers ichtlich</w>
ge fällt</w>
Re ise</w>
re st
Errungen schaften</w>
schn ellen</w>
D ell</w>
jähr liche</w>
komplex en</w>
zentr aler</w>
unter halten</w>
t- out</w>
schä tzt</w>
Ri o</w>
form ing</w>
palästinens ische</w>
Völk errecht</w>
K yi</w>
writ e</w>
rejec ting</w>
Kolle gi
symbo lic</w>
ges un
remo te</w>
kno wing</w>
Informations austausch</w>
unmittel baren</w>
bek istan</w>
Zu gestän
s elling</w>
o gen</w>
bot tom</w>
E B
tu des</w>
Inter pre
gro wn</w>
vor legt</w>
Betre uung</w>
Ge gner</w>
neh men
ac tiv
hes it
rec ession</w>
Infra struktur
pi d
complex ity</w>
sicher heits
Strafgerichtsh of</w>
stre am</w>
plur alism</w>
getr enn
defiz it</w>
zulässi g</w>
Beit ritts</w>
en falls</w>
ihr erseits</w>
fru it
gh t-
Arbeits zeit
ver danken</w>
An sätze</w>
mp lan
in gre
schwerwie gende</w>
Su u</w>
Roth-B ehrendt</w>
dereg ulation</w>
den z
ast s</w>
kamp f</w>
derog ation</w>
Kommissionsprä sidenten</w>
in tim
emm nisse</w>
ber üh
stag ung</w>
Ges ell
zahlreich er</w>
encoura ges</w>
demonstr ations</w>
st ers</w>
con junction</w>
bra cht</w>
simul tane
eindeu tigen</w>
prof itable</w>
aus stattung</w>
pack aging</w>
im balances</w>
verschie ben</w>
pre servation</w>
trä glich</w>
I cel
des to</w>
residen ts</w>
- Programm</w>
administr ations</w>
mer cur
Handels beziehungen</w>
str ange</w>
Ver stoß</w>
er mitteln</w>
R O
L en
ex </w>
ten sion</w>
überein stimmen</w>
bio technology</w>
Par tei
shor tage</w>
F our
j ing</w>
herbei zuführen</w>
ch et</w>
Randzi o-
ungar ische</w>
ens wer
lis ted</w>
vo ices</w>
analy ses</w>
Gesch eh
[...]
